000000000111110101
000000000011010100
111111110101011000
111111111111011111
111111111100110001
111111111110010001
000000000010001011
111111111110010000
111111111110111001
111111111101100111
111111111000011111
111111111010101001
000000000100110010
000000000011111010
111111111000100100
111111101111000100
000000000000011000
000000001011000010
000000000100010101
000000000001010101
111111111111001100
111111111110001101
111111111110010111
000000000001101100
000000000001110111
111111111100100011
000000000010111111
111111111011011001
111111101100100101
000000000001100011
111111110110110100
000000010111100110
000000010101001100
000000000000100101
111111101111011000
111111101001000100
000000000001010000
000000000001100100
000000000011000111
111111110101001011
111111111010101011
000000000001111111
111111111100010101
000000000000000100
111111111011010010
000000000011010011
111111110111101000
111111111101100111
111111111011001001
111111111100010010
111111111011000000
111111111101010000
000000000100000111
111111111010000011
111111111111010011
000000000000111011
000000001000001000
000000000000001101
111111111011010010
111111111101110100
111111111001111000
000000000010100000
000000000010000111
000000001010010001
111111111111101010
000000000011100100
000000000100000100
111111111101010111
000000000001000000
000000000101011010
000000000001101111
111111111010010001
000000000000110111
111111111101010110
000000001010001011
000000000100111010
000000000100110000
111111111101110110
000000000010101110
000000000011001110
111111111010010000
000000000101110110
111111111111000110
111111111100001111
111111111111100100
111111111111111001
111111111001110111
111111111011011000
111111111101100111
000000000011000000
000000000111010101
000000000111001011
000000000101111111
000000001000110011
000000000010111110
000000000101101001
000000000010101000
000000000001111011
000000000000000110
000000001000011110
111111111111100011
111111110111110110
000000000100000100
111111111101000110
111111111000100001
111111111100110011
000000000010110111
111111111000101101
000000000010110001
000000000100011101
000000000000111001
000000000100101010
111111111011100010
000000000000011000
000000001000101111
000000000010011100
000000001000110010
000000000100010111
000000000010100100
111111111100000100
000000000100000001
000000001000110001
111111110011100001
000000000011110011
111111111010101100
111111111101110010
000000000001001000
111111111100011101
111111111101100111
000000000000110000
111111111111000111
111111111101110011
000000000100001011
111111111101010101
000000001101001001
000000001000010100
000000000110110010
000000001010010001
000000000100011011
111111111101100111
111111111100010101
111111111111000100
000000000011111011
000000000000100001
111111111100000111
111111111010111000
111111110111111001
000000000001111110
111111111011000111
000000000011110111
000000000001101110
111111111110111010
000000000010010100
000000000000001001
000000000010110010
111111111100101111
000000000011001101
111111110110000011
000000000010000101
000000000011101110
000000000110111111
111111110110101011
111111111001000000
111111111000011101
111111110101111101
000000000100011110
111111111110001000
111111111110111001
000000000010110101
000000000001010011
111111111001011100
111111111001101100
000000000001000011
111111111100111011
000000000111010100
000000000000110001
111111111101001000
111111111100011111
111111111100000001
111111111011001111
000000001001101000
111111111110011000
000000000000001101
111111111001010101
000000000000100110
111111111110001000
000000000111000110
111111111000010010
111111111011110011
111111110110011110
111111111010101100
111111111110000011
000000000101111101
000000000000101100
111111111101000011
111111110111001110
111111111010111001
000000000101000011
111111111100110101
111111111011011100
000000001100110011
000000000011111010
111111111001000110
111111111110100001
111111111111001110
000000000001011000
111111111100110000
000000000110011000
000000000110011110
000000000111000011
000000001011110010
000000000101110101
000000000001010111
000000001101110010
000000001000011011
000000000100101011
000000001110001010
000000000000110010
000000001001101110
000000000101110011
000000000101011101
000000000101011100
000000000100010011
000000000011101010
000000000010000000
000000000110111001
111111111011001110
111111111001100111
000000000011011011
111111111111110101
000000000001001010
111111111111110011
000000000010011100
111111111111110101
000000000110101111
000000000100101011
000000000101010111
111111111000111100
000000001000001011
111111111011000010
111111111111110000
111111111100010100
111111111111100011
111111111100110110
000000000010000010
000000000110011001
111111111101010110
111111111011100010
000000000101010100
000000000010101000
000000000010000100
111111111011110001
000000000111000001
111111110100110010
000000000100111000
111111111100111000
000000000101000011
000000000000100100
000000000000100111
111111110111100111
111111111100011100
000000000000000011
111111111111011011
111111111111101000
111111111100111010
000000000000101011
000000000100100000
111111111100110100
000000000001100101
111111111001000000
000000000010010101
000000001000101011
000000000100010000
111111111101100010
000000000001100110
000000001101101000
000000000001110111
000000000001000100
111111111101001000
111111111010101111
000000000101000100
111111111111111010
111111111100111001
111111111110111111
000000000100001110
000000000000011010
111111111100001001
111111111111100110
111111111001001001
111111111110101010
000000000000010110
000000000000110101
111111111011100100
000000000011010001
000000000001001000
111111111011010001
000000000011111011
111111111011100000
111111111100001111
000000000000001001
000000000100001100
000000000010100001
000000000000110001
111111111110101000
000000000010001110
111111110110111110
111111111111111111
111111111100010101
111111111100000111
111111111101001111
000000000011100101
000000000101010011
000000000001001001
000000000000001010
000000000000001100
000000000000100010
000000000001101000
111111111100100100
000000000001001000
000000000100010100
000000000001010110
000000000001000110
000000000001110110
111111111110110110
111111111111110101
000000000011110100
000000000000111010
000000000011100101
000000000100101111
111111111110100101
000000000000010110
000000000001110000
111111111011101011
000000000000101010
000000000101010011
000000000110100100
111111111000100111
111111111010100100
000000000110000011
111111111110110001
111111111111110000
000000000010101110
111111111111110001
000000000001101011
000000000001111101
111111110100010011
000000000001010001
000000000100111100
111111110111100100
111111111110001001
000000000100001111
000000000011101110
000000000000110101
111111111100001001
000000000001000110
000000000010010111
000000000001001100
111111111110111010
111111111010010010
111111111100110000
000000000001000110
111111111101111000
111111111101010100
111111111011011110
111111111110001100
111111111100011010
000000000001100111
111111111111110101
111111111010011110
111111111111001110
111111111111100001
111111111101011100
000000000110000000
000000000110111110
000000000000101000
111111111010011010
000000000001001011
111111111110101111
000000000000100001
111111111111001110
000000000000001000
000000000010001100
000000000010000010
111111111000101100
111111111100000010
000000000000000000
000000000000001010
000000000010110010
000000000001010000
000000000001010110
111111111001101001
111111111111010111
000000000011011011
000000000000101111
000000000000110010
000000000010100011
111111111001001010
000000000001100010
111111111100101000
111111111000100010
111111111101111000
111111111000000000
111111111110110110
111111111111110100
111111111100110100
111111111100110000
000000000001100101
000000000001100010
000000000000011110
000000000100001100
000000000001011000
000000000001101001
111111110110111111
111111111011111111
111111111100001001
111111111011111110
111111111010011011
111111111000000101
000000000010110101
111111111011110010
111111110110110111
000000000011000110
111111111111110110
000000000011010011
000000000010110010
000000000010110101
111111111010100001
111111111011010000
111111111010110100
000000000000101001
111111111110110001
111111111110010110
000000000111001100
000000000011001000
000000000111000011
000000000000001111
000000000100101001
000000001010100100
000000000001100000
000000000111111010
000000000100100110
000000000001111000
000000000110010011
111111110110100101
111111111000110011
111111111101110100
111111111011100011
111111111100001101
111111111111110011
000000000100000010
000000000111110111
000000000101010110
000000001000110010
000000000011110010
000000000100001000
000000000111111001
000000000000100111
000000000100100101
000000000001001010
000000000011101111
111111111111100010
000000000010010110
111111111101010010
000000000100101001
111111111010000101
000000000010000000
000000000011110100
000000000011101010
000000000000101111
000000000000100010
000000000000100001
111111111100111001
000000000011010001
000000000001000011
000000000000001001
000000000100110011
111111111110111000
000000000010110000
000000000100110011
111111111001110000
000000000011111111
111111111011000001
111111111011111001
000000000001011000
111111111110000101
000000000000010100
111111111110011011
111111111001000110
000000000010101110
000000000000110111
000000000010101101
000000000001111100
111111111111011010
111111111111000100
000000000000111010
111111111111000111
000000000001011001
111111111101100101
000000000010110011
111111111111100111
000000000000110010
000000000110100001
111111111100001011
000000000001010100
111111111101110001
000000000011100001
000000000100000011
000000000011110111
000000000001110111
000000000001101000
111111111111010101
000000000010000000
000000000010000011
000000000000000111
000000000101011100
000000000000110011
000000000111010000
000000000000110000
000000000110010100
111111111100101000
111111111111000110
000000000001001111
000000000110001101
000000001000011001
000000000101100000
000000001010010100
000000000100111101
000000000000111111
000000000110111011
000000000000111100
000000000110110000
000000000011000101
111111111100100011
111111111100000001
000000000001001010
111111111001101001
000000000001111101
111111111001001100
111111111010101010
111111111100011100
111111111111101001
111111111010101000
111111111010010111
000000000010101101
000000000001100010
111111111110011000
000000000011111100
000000000000001000
111111111001101011
111111111011101010
111111111010000000
111111111111001011
111111111100000100
111111111001110010
111111111110010100
111111111110111110
000000000011100110
111111111110101110
000000000110110001
000000000011110000
000000000001011000
000000000001000111
000000000000111100
000000000000110000
000000000001110110
000000000011001001
111111111010100001
000000000100010001
111111111011011110
111111111111011111
000000001000000000
000000000011111101
111111111011000111
111111111100010011
000000000011101001
111111111110010000
000000000110111000
000000000001011011
111111111001001011
111111111010000100
000000000001010010
111111111100111110
111111111010111110
111111111111110100
000000000111101011
000000000001101100
111111111111001010
111111111100110110
111111111110000100
000000000010000010
000000000000010001
000000000001110110
000000000011110011
111111111010110100
000000000001011101
000000000010011111
111111111110000101
111111111110010000
111111111101000111
111111111101000001
111111111101000010
000000000101110100
111111111001110100
000000000011110001
000000000100011001
000000000101010100
111111111110101000
111111111110101001
000000000101110001
111111111011000001
111111111001101011
000000000001101100
111111111101001100
000000000010010001
000000000001011001
111111111110000000
111111111100110011
111111111111010100
000000000011011011
000000000001010011
111111111111011010
111111111110100010
111111111011110010
111111111101010100
111111111110001100
111111111111011011
000000000010100010
000000000010110100
111111111111000100
000000000001111100
000000000000111100
111111111111110011
000000000000100010
000000000010110101
111111111111001111
111111111110000001
000000000011110111
111111111110001000
000000000010001111
000000000001000111
000000000001001111
111111111010001001
000000000000111011
111111111101000101
111111111110001000
000000000101111110
111111111111000100
000000000110101110
000000000010100100
111111111110100100
111111111011000110
000000000100011111
000000000101000100
000000000111100010
000000001011001101
000000001001110001
000000001000001001
000000000000010001
111111111110001100
111111111111010100
000000000001110011
111111111111011011
111111111100100111
111111111111010111
000000000010000100
000000000100001110
111111111010101010
111111111110000110
000000000010010000
000000000010100111
000000000011001111
000000000010010110
111111111110100001
000000000001101110
000000000011110110
111111111011101011
111111111111101101
111111111100111011
000000000001000101
111111111101001110
111111111111100110
000000000001000101
000000000000111110
000000000001101001
111111111011110010
000000000000100001
000000000000001111
000000000000110010
111111111111100101
000000000001100100
000000000100101010
000000000000001100
000000000000111111
000000000000000100
111111111110011000
000000000000100000
000000000000000101
111111111111000001
111111111111011010
000000000011000010
000000000000111101
000000000001001010
111111110111101111
000000000000011101
111111111101010111
111111111110011110
111111111101101000
111111111110111000
111111111010110001
111111111010011100
111111111010111010
111111111100100110
111111111111000100
111111111100011010
111111111100110011
000000000010111111
111111110010110001
111111110111010111
111111111101110100
111111111111000110
111111111111010000
111111111101110001
111111111110010101
000000000000101101
000000000001001111
111111111101100100
000000000010000111
000000000100001101
000000000101001111
000000000010010100
000000000000011001
111111111100111101
111111111111100000
111111111110001101
111111111011111101
111111111110101011
111111111111001010
000000000011001001
000000000001100000
000000000000100000
111111111110111101
111111111110011000
000000000001110111
111111111001000110
000000000011111000
111111111111010110
000000000000111100
000000000000111110
111111111101010000
111111111101100011
111111111111111101
111111111110010111
000000000000110100
111111111011111110
000000000000011111
111111111110010000
000000000000101000
000000000101011000
000000000011101000
000000001010111100
000000001110010101
000000001110000110
000000010001001010
000000010001110100
000000010100011011
111111111101110100
000000000000110111
111111111110001011
000000000001110000
111111111101111011
111111111110111101
111111111110100100
000000000100101101
000000000001101001
000000000001101110
000000000000001101
000000000010100101
111111111010111101
111111111110111101
111111111100111101
000000001011001111
000000000111001010
000000000010100111
111111111110010101
111111111111100010
000000000001101111
111111111010010110
111111111101011001
111111111111101000
111111111101001000
000000000010101000
111111111101111000
111111111100100011
111111111111100100
000000000010000000
111111111111001110
000000000001001110
111111111110011101
000000000100100101
000000000000011010
000000000001110111
000000000011000100
000000000000100011
111111111100001000
111111111000111100
000000000001011110
000000000000110000
000000000100010000
000000000001001011
111111111110101000
111111111111011000
111111111101111011
000000000001111110
000000000001100111
000000000000010101
000000000000101100
000000000011000111
000000000000110110
000000000100101101
000000000001111110
111111111110110111
111111111100010011
111111111110001000
111111111100110101
111111111111101101
000000000001101101
000000000000110000
111111111101100100
111111111111010111
000000000001001010
111111111100010010
111111111101000001
000000000001110110
111111111110001010
111111111111111111
000000000100111011
000000000011000000
000000000101110000
000000000000100100
000000000011011010
000000001010100011
000000000110111100
000000001111100000
000000001110010000
000000010001010000
000000010000010100
111111111111101011
111111111011010011
000000000000010011
111111111110111010
111111111110110011
111111111100100101
000000000000101001
000000000001000010
111111111111000111
111111111110110100
000000000001000000
000000000001110011
111111111101110011
000000000001000100
111111111111001111
000000000010001100
111111111101101100
000000000011111100
111111111111001010
111111111110011111
000000000001010101
111111111101010001
000000000001101101
000000000100010001
000000000011110001
000000000101100001
111111111111010000
111111111011111110
111111111101000001
000000000011011000
111111110110101100
000000000001110110
000000000010000001
000000000000000001
111111111110110110
000000000001111100
111111111110100111
000000000001110000
000000000101011101
000000000001101111
000000000001010100
111111111110001000
111111111110010100
000000000010101000
000000000010100010
111111111111101000
111111111111011110
111111111101101100
000000000001011011
111111111101001010
000000000000110101
000000000010100011
000000000001110000
111111111110011101
000000000000010110
111111111111101011
111111111111111000
111111111111011101
000000000000000111
000000000011001011
000000000101000110
000000000100110101
000000000000101111
000000000000001111
111111111111011100
000000000000000011
111111111111111101
000000000000000001
111111111111111001
111111111111111100
000000000000000001
111111111111111101
000000000000000000
000000000000000000
000000000000000011
000000000000001011
111111111111111010
000000000000000001
000000000000000000
111111111111111100
000000000000000111
000000000000001011
111111111111111011
000000000000000101
000000000000000000
111111111111111011
000000000000000110
111111111111111100
000000000000000000
000000000000001001
111111111111100101
000000000000100111
000000000000010110
000000000000000000
111111111111010001
111111111111110101
111111111111110000
000000000000000011
111111111111111111
111111111111100111
000000000000101000
111111111111101000
000000000000000001
000000000000000101
000000000000000010
000000000000000100
111111111111111101
000000000000000000
111111111111111011
000000000000001011
000000000000000010
000000000000000010
111111111111111111
111111111111111001
000000000101001110
000000000100100000
000000000101110010
000000000010111011
000000000000010111
000000000000011000
000000000010000010
000000000000111011
111111111110111101
111111111111101110
000000000010111011
111111111110011101
000000000000000101
000000000000001001
000000000000000000
000000000000000101
000000000000000110
111111111111111110
000000000000000010
111111111111111101
000000000000001001
000000000000001010
000000000000000000
000000000000000000
000000000000000010
000000000000000000
000000000000000101
000000000000010011
000000000000000011
000000000000000011
000000000000000010
000000000000000000
000000000000001011
111111111111111110
000000000000010100
000000000000001101
000000000000000100
000000000000000011
111111111111111111
000000000000000100
111111111111111111
000000000000000001
111111111111111011
000000000000001000
000000000000000000
000000000000001010
000000000000000000
111111111111111011
111111111101010101
000000000000011001
000000000000000010
000000000000111110
000000000000001101
000000000001001000
000000000011011101
000000000010010101
000000000011111001
000000000000011010
000000000011011000
000000000011010110
111111111111110010
111111111111110111
111111111111111010
000000000000000000
111111111111110011
111111111111110111
111111111111111001
111111111111110111
111111111111110110
111111111111110010
111111111111101111
111111111111111000
000000000101100110
000000000100010001
000000000011110110
000000000000101001
000000000000010111
111111111111010010
000000000001101010
111111111111001010
111111111111010011
000000000000010000
000000000000000100
000000000001001100
111111111111111111
111111111111111111
111111111111111101
111111111111111101
111111111111110100
111111111111110100
111111111111110110
000000000000000110
111111111111110010
111111111111111110
000000000000000100
111111111111101111
000000000000000011
000000000000000110
111111111111111101
000000000000000101
000000000000000011
000000000000000010
000000000000000010
000000000000000010
000000000000001100
000000000000000111
000000000000000100
000000000000001100
000000000000000010
000000000000000000
000000000000000011
000000000000000111
111111111111111110
000000000000000101
000000000000000010
111111111111111111
000000000000000111
000000000000000000
111111111111111101
000000000000000111
000000000000000111
111111111111111111
000000000000000001
000000000000000110
111111111111111111
000000000000000011
111111111111111111
000000000000000010
111111111111111010
000000000000000001
000000000000000010
000000000000010010
