000000000001110110
000000000011101001
000000000001011100
000000000100000011
000000000000011001
111111111101001110
111111111100011100
111111111000011001
111111111011011110
000000001000000100
111111111011111111
111111111000001101
111111111101011001
111111111011001011
111111101111000110
000000001000100101
000000000000010101
111111111011110101
111111111110001000
000000000001110101
000000000001000101
111111111011010011
000000000010101001
000000000010011101
111111111101000001
000000000001111100
000000000000010001
000000001100011101
111111110001101001
000000001001001101
000000000001010010
111111111011001111
000000010101001111
111111111100010001
111111111111101001
000000011001001001
000000000000000011
111111110101110110
111111111000010110
111111111101011111
111111111000010000
000000000010010100
111111111111111001
000000000010100000
000000000101001010
000000000001001001
111111110100000100
000000000110101011
000000000000111000
000000000001000011
000000000100011001
111111111000100101
000000000000011100
000000000011001000
000000000100010111
111111111110000001
111111111111111001
000000000001110110
111111111011110100
000000000000110010
000000000001100011
111111110111100000
111111111111010111
000000000111110110
000000001100010100
111111111110010000
000000000001111001
000000000000001011
000000000000100110
000000000110110001
111111110101111000
111111111110010100
000000000111110110
000000000100110011
000000000100111000
000000000010000001
111111111100010100
000000000111111110
000000000101110000
000000000011110010
111111111011001100
000000000001001100
111111111101000111
000000000001011111
111111111110011110
000000000101011110
000000000011110001
111111111111110110
000000000000011100
000000000000001010
000000001000010110
000000000110101010
000000000101110110
000000000111110110
000000000000100010
111111111011001000
000000000101000011
000000000001011100
000000000011111111
111111111101100110
000000000100110010
111111111000111110
000000000101011011
000000000100100010
111111111011001111
111111111010110010
111111111011111011
000000000010011010
000000000010101100
000000000010000110
000000000111110110
000000000110001010
111111111011111111
000000001110111000
000000000101011110
000000000001111010
000000000001010000
111111111011011001
000000000011001110
000000000000110010
000000000010111000
111111111110010000
000000000000111100
000000000001000000
111111111110001001
000000001100001111
111111111110100101
000000000101100000
111111111100101000
000000000001101010
111111111101111110
000000000110000011
111111111101010111
000000001000101011
111111110100111000
000000001101101000
000000000100110001
000000000100011011
111111111111110101
000000000011011101
111111111100010100
000000000010101010
111111111111111011
111111111110011011
000000001000011001
000000000010101111
111111111100001101
000000000000000000
111111111110011111
000000000111011110
111111111101001111
000000000110000011
111111111110011100
111111111101100101
111111111100110110
000000000000100000
111111111000001110
000000000110001100
111111111111000101
000000000000111001
111111110101101100
000000000011000001
111111111010011011
000000000001001011
000000000111011000
000000001000001110
000000000000110011
111111111100100110
111111111111000111
111111111111001111
000000000110011110
111111111110100100
000000000000000110
000000000001110010
111111111001010100
000000000010110111
000000000001000000
000000000110001111
111111111100011111
111111111111010100
111111111101110110
000000000110100010
111111111100000000
111111110010110011
111111111011110011
000000000010010100
000000000010101100
111111111110110011
000000000010100011
111111111000010001
111111110110010110
111111110111110110
111111111101101011
111111111100110000
000000000100111101
111111110101111111
000000000110010111
000000000001101111
000000000101100010
111111111010111101
000000000011011011
111111111001110101
111111111100011100
000000001001110100
000000000011011011
000000000010100101
111111111010011010
000000000101110000
000000001010100000
000000001000000001
000000000011010101
000000000110010100
000000000001010100
000000000110001001
000000000010000101
000000000001110000
000000000100001010
000000000100111011
000000001010000111
000000000010000000
000000000111101010
000000001010101100
000000000000001000
111111111111010010
111111111101110110
111111111010101000
111111111110000011
000000000010101110
111111111101001100
000000001010110011
000000000100010000
111111110100100000
111111111101101100
111111111010001100
111111110111011101
111111111111011010
111111111100100100
111111110011110000
000000000111011010
000000000001110011
111111111110110001
000000000001000100
000000000010010100
000000000011001110
111111111110111110
000000000001101011
111111111011010100
111111111010001101
000000000101110100
111111111111101011
000000000010010101
111111111010110011
000000000011011001
000000000101010100
000000000111010001
111111111100011010
000000000100011101
000000000001101010
111111111111000111
111111111111001010
111111111110110111
000000000010001011
000000000010110011
111111110110100111
111111111010101101
000000000000100010
111111111011110110
111111111011101110
000000001101001001
000000000101111110
000000000011000101
000000000110011011
000000001001001100
000000000100010011
000000000000011001
111111111010001001
000000001000100010
111111111011101100
000000000001001111
111111111101111001
000000000010110101
111111111100011101
000000000000100111
000000000100010101
111111111011000001
111111110110101111
111111111100110010
111111111101100111
111111111010100101
000000000101000001
111111111100100111
111111110100001101
000000000101110100
111111111110001101
111111111101001110
000000000010010101
111111111101101101
111111110111011010
111111110011001101
000000000010000011
000000000101110000
111111111110001111
000000000010010010
111111111101101010
000000000101111001
000000000001111010
000000000100001101
111111111101111111
111111111010011101
111111111000110001
000000000100001000
111111111011000010
111111111011110111
000000000011101101
000000000100110100
111111111010010111
000000000101111010
000000001000000010
000000000010011010
000000000001101101
111111111111000011
000000000000011011
000000000101100101
111111111110110111
111111110101111101
111111111111110100
000000000100111010
000000000000010101
111111111111001000
111111111110101101
000000000001111000
111111111001111010
111111111101010010
111111111111100010
000000000001000011
000000000010000101
111111111101010100
111111111110111011
000000000001000100
111111111010100100
111111111111100011
000000000100001000
111111111100011010
000000000011100110
111111111101111110
111111111111010001
111111111110110011
000000000001101010
111111111010000110
000000000010111010
000000000000101100
111111111100000000
000000000011100111
111111111011001100
000000000010010001
000000000110100000
111111111111101011
000000000010001111
111111111000011010
111111111010101000
111111111111001011
111111111000101001
111111111111011111
111111111010010001
111111111100101001
111111111111000110
000000000011001000
000000001000011101
000000000111000011
000000001001100000
111111111011010000
000000000010000100
111111111110000000
111111111011100011
111111111010001011
000000000000111101
000000000000000010
111111111111111001
111111111110000101
111111111111101010
000000000011001000
111111111111001001
000000000100011111
111111111110101011
000000000100111001
111111111001000001
000000000000100010
111111111101110000
000000000000100100
111111111111100010
000000000100101001
000000000001001010
111111111100110100
000000000001010101
000000000011000100
000000001000001110
111111111000111101
000000000000010011
000000000000001000
111111111110010111
111111111111000110
000000000010100011
000000000001000001
111111111110111101
000000000101010100
111111111000100100
111111111011010000
000000000100100110
000000000100100111
111111111001010100
111111111110100011
000000000000100011
111111111011011011
111111111000110101
111111111111001101
000000000010010111
111111111100001000
111111111100101101
000000000001011011
111111111101100001
000000000001111111
000000000001010001
000000000110010101
111111111010011100
111111111110111010
111111111101010011
000000000101010110
000000000001011000
000000000001101100
000000000100110100
111111111110111001
111111111111010010
000000000110011101
000000000101000100
000000000100111111
000000000010101010
000000000110001010
000000000100011011
000000000010111110
000000000011001100
000000000010001011
111111111110110101
111111111011000011
000000000110001001
000000000001001000
111111111111001011
000000000011011101
111111111111110001
000000000100110100
000000000010001001
000000000010110111
000000000000001011
000000000101111110
000000000101101111
000000000010100101
000000000110101100
000000000110000011
000000001000100110
000000000101000001
111111111100111000
111111111111011000
111111111110110001
111111111101111100
000000000011001001
000000000010010000
000000000011100100
000000000010101100
111111111111100100
111111111101111010
111111111010011011
000000000001100011
111111111111101010
000000000011011011
111111111011000100
000000000000111110
111111111011100010
111111111011000000
000000000010110101
111111111011010000
000000000000111111
000000000100001000
000000000000011110
111111111110111000
000000000011011000
111111111101011101
000000000011001101
000000000010111011
111111111111101110
000000000001110111
000000000100110001
111111111100001100
000000000100100110
000000000011001001
000000000011100000
000000000011110101
000000000100011111
111111111111111111
000000000110100000
000000000011010000
000000000001001111
000000000101000100
111111111101100101
000000000001110101
111111111111001110
000000000000100001
000000000001001100
111111111010101101
000000000000100100
111111111101010000
000000000010001010
111111110111110110
111111111011111011
111111111111000111
111111111010101001
000000000001000111
000000000001101001
000000000011001101
111111111100101100
000000000010000100
000000000100100001
000000000101101100
111111111100110100
000000001010001000
000000001001010011
000000001010111001
000000000111000000
000000000011011010
000000000011101010
000000000011111011
000000000001111101
000000000001000100
000000000000001001
000000000010011011
111111111100111000
000000000001101011
000000000000001110
111111111011111000
111111111010000111
111111111001100111
000000000011110110
111111111100101111
000000000000000111
111111111110111110
111111110111000101
111111110100111011
000000000100000101
111111111110100110
111111110101110001
111111111100111101
111111111000101110
000000000001010101
111111111101001000
000000000010010111
111111111100011010
000000000000110001
111111111110111110
000000000011110111
111111111010011101
111111111110001100
111111110111100100
111111111001011100
111111111110001111
111111111110101000
000000000011111010
000000000011100001
000000000001100000
000000000000101011
000000000100011111
000000000001011011
000000001011111011
000000000000101100
000000000001001100
000000000011000001
111111111001111101
111111111111100110
111111110110011010
111111111000001011
111111111101100001
111111111101110100
111111111111111010
000000000010001110
000000000010000001
111111111011000111
111111111101011110
111111111001111001
000000000110001011
111111111101010001
000000000001000110
111111111111000101
000000000010100111
111111111111000110
111111111001100111
000000000000110011
000000000001011100
111111111110101000
000000000100011111
111111111110100111
111111111011110001
000000000000010100
000000000000111010
000000000010011001
111111111110001011
111111111000101101
000000000011111000
111111111110010111
000000000000000100
111111111101111110
111111111011001000
000000000100010001
111111111110111011
111111111110111110
000000000000000100
111111111111110011
111111111111100111
111111111111101111
111111111111111101
111111111111111001
000000000000000010
111111111111110010
111111111111110100
111111111111110101
111111111111101111
000000000000001110
000000000000011001
111111111111110010
111111111111111011
000000000000001001
000000000000000000
000000000000000001
000000000000001010
000000000000001001
000000000000100111
000000000000101000
000000000000000111
000000000000001100
000000000000001011
111111111111111000
111111111111101101
111111111111111100
111111111111111000
111111111111111101
111111111111110000
000000000000001000
000000000000001100
111111111111111001
111111111111110111
000000000000000011
111111111111111101
000000000000000010
111111111111111111
000000000000001111
000000000000001010
111111111111111111
111111111111111101
000000000000000001
111111111111111111
000000000000000100
111111111111101010
111111111111111110
111111111111111001
000000000000001001
000000000000001001
000000000000000000
000000000000000001
000000000000000011
111111111111101111
000000000000000000
111111111111111111
000000000000010000
111111111111110110
111111111111111011
111111111111111011
111111111111101101
111111111111111101
000000000000000110
111111111111110001
111111111111110111
111111111111111110
000000000000000110
000000000000001001
111111111111110101
111111111111111110
111111111111101101
111111111111110100
111111111111111101
000000000000000011
111111111111111100
111111111111110010
000000000000000011
000000000000001000
000000000000000100
111111111111111100
111111111111100110
111111111111110000
111111111111110100
111111111111111110
111111111111111010
111111111111111110
000000000000001000
000000000000000100
000000000000000010
111111111111101110
000000000000000010
000000000000001000
000000000000001000
111111111111101101
000000000000000001
000000000000000001
111111111111111010
000000000000001000
000000000000001011
000000000000000000
111111111111111111
000000000000000101
111111111111111111
111111111111101000
111111111111110000
111111111111110111
111111111111110111
000000000000000000
000000000000001001
000000000000001011
000000000000011111
000000000000011000
000000000000010100
000000000000000010
000000000000000111
000000000000011000
111111111111111111
111111111111111100
000000000000001100
111111111111110000
111111111111110000
111111111111111010
111111111111111110
111111111111101010
000000000000001000
000000000000001011
000000000000000101
000000000000010100
000000000000010000
111111111111101101
111111111111111001
111111111111110011
000000000000000010
000000000000001101
111111111111111111
111111111111110110
111111111111111101
000000000000001011
111111111111110000
111111111111100111
111111111111111101
111111111111111000
111111111111101110
111111111111110110
000000000000011001
000000000000000101
111111111111100000
111111111111111110
111111111111110100
000000000000011000
000000000000011111
000000000000100011
000000000000110101
000000000000011010
000000000000000000
111111111111010100
000000000000000110
111111111111111010
000000000000000111
111111111111111000
000000000000000010
111111111111111011
000000000000000100
111111111111111101
111111111111101110
000000000000001100
111111111111110110
111111111111110111
111111111111110001
111111111111101001
111111111111111101
000000000000001100
000000000000000110
111111111111111000
000000000000000111
000000000000000010
000000000000000110
111111111111101101
111111111111011111
111111111111110101
000000000000100100
111111111111111101
111111111111110010
111111111111110111
111111111111101110
111111111111101101
000000000000011100
000000000000000111
000000000000001110
000000000000000010
111111111111111011
111111111111111100
111111111111011110
111111111111110010
111111111111111100
000000000000000000
111111111111110011
000000000000000010
111111111111111111
000000000000001110
000000000000000101
111111111111111101
111111111111111111
000000000000001011
000000000000000101
000000000000010001
000000000000100101
000000000000010101
111111111111110001
000000000000001101
000000000000001001
111111111111110110
111111111111111100
000000000000000100
111111111111111110
111111111111111011
000000000000000100
000000000000001011
000000000000100010
000000000000000001
000000000000000111
111111111111110101
000000000000001010
000000000000000010
111111111111101010
000000000000001010
000000000000010010
000000000001001010
000000000000000101
000000000000000000
111111111111110111
000000000000000100
111111111111111101
111111111111111011
000000000000001111
000000000000001110
111111111111010001
000000000000000010
111111111111110110
111111111111101000
111111111111110011
111111111111111111
111111111111110001
000000000000001110
000000000000000010
111111111111011111
000000000000001101
000000000000001100
111111111111111100
111111111111111001
111111111111111100
111111111111111000
000000000000001010
111111111111110001
000000000000010010
111111111111111010
000000000000001001
000000000000001010
000000000000001001
111111111111111111
000000000000001010
000000000000011000
000000000000011001
000000000000010100
111111111111101111
111111111111101001
111111111111110001
000000000000001101
000000000000000000
111111111111110010
000000000000001001
000000000000000001
000000000000000111
111111111111110011
111111111111111110
111111111111111010
111111111111101101
000000000000000001
111111111111101000
000000000000010000
000000000000001000
111111111111111110
111111111111111000
111111111111111100
000000000000001000
000000000000001001
111111111111111111
111111111111111111
000000000000000000
000000000000000000
000000000000000000
000000000000000000
000000000000000000
000000000000000000
000000000000000000
000000000000000000
000000000000000000
000000000000000000
000000000000000000
000000000000000000
000000000000000000
000000000000000000
000000000000000000
000000000000000000
000000000000000000
000000000000000000
000000000000000000
000000000000000000
000000000000000000
000000000000000000
000000000000000000
000000000000000000
000000000000000000
000000000000000000
000000000000000000
000000000000000000
000000000000000000
000000000000000000
000000000000000000
000000000000000000
000000000000000000
000000000000000000
000000000000000000
000000000000000000
000000000000000000
000000000000000000
000000000000000000
000000000000000000
000000000000000000
000000000000000000
000000000000000000
000000000000000000
000000000000000000
000000000000000000
000000000000000000
000000000000000000
000000000000000000
000000000000000000
000000000000000000
000000000000000000
000000000000000000
000000000000000000
000000000000000000
000000000000000000
000000000000000000
000000000000000000
000000000000000000
000000000000000000
000000000000000000
000000000000000000
000000000000000000
000000000000000000
000000000000000000
000000000000000000
000000000000000000
000000000000000000
000000000000000000
000000000000000000
000000000000000000
000000000000000000
000000000000000000
000000000000000000
000000000000000000
000000000000000000
000000000000000000
000000000000000000
000000000000000000
000000000000000000
000000000000000000
000000000000000000
000000000000000000
000000000000000000
000000000000000000
000000000000000000
000000000000000000
000000000000000000
000000000000000000
000000000000000000
000000000000000000
000000000000000000
000000000000000000
000000000000000000
000000000000000000
000000000000000000
000000000000000000
000000000000000000
000000000000000000
000000000000000000
000000000000000000
000000000000000000
000000000000000000
000000000000000000
000000000000000000
000000000000000000
000000000000000000
000000000000000000
000000000000000000
000000000000000000
000000000000000000
000000000000000000
000000000000000000
000000000000000000
000000000000000000
000000000000000000
000000000000000000
000000000000000000
000000000000000000
000000000000000000
000000000000000000
000000000000000000
000000000000000000
000000000000000000
000000000000000000
000000000000000000
000000000000000000
000000000000000000
000000000000000000
000000000000000000
000000000000000000
000000000000000000
000000000000000000
000000000000000000
000000000000000000
000000000000000000
000000000000000000
000000000000000000
000000000000000000
000000000000000000
000000000000000000
000000000000000000
000000000000000000
000000000000000000
000000000000000000
000000000000000000
000000000000000000
000000000000000000
000000000000000000
000000000000000000
000000000000000000
000000000000000000
000000000000000000
000000000000000000
000000000000000000
000000000000000000
000000000000000000
000000000000000000
000000000000000000
000000000000000000
000000000000000000
000000000000000000
000000000000000000
000000000000000000
000000000000000000
000000000000000000
000000000000000000
000000000000000000
000000000000000000
000000000000000000
000000000000000000
000000000000000000
000000000000000000
000000000000000000
000000000000000000
000000000000000000
000000000000000000
000000000000000000
000000000000000000
000000000000000000
000000000000000000
000000000000000000
000000000000000000
000000000000000000
000000000000000000
000000000000000000
000000000000000000
000000000000000000
000000000000000000
000000000000000000
000000000000000000
000000000000000000
