111111110000111011
000000000101100111
000000000011111001
000000000110101010
111111111101110101
000000000001000001
000000000001010011
111111111100100100
000000000000111110
111111001001110110
000000001101010100
000000000011111010
000000000010111110
111111111001000101
111111111001010100
111111010110010001
111111111001001111
000000000010000101
111111111100010011
111111111111111001
000000000001000101
111111111011000000
000000000011100001
000000000000010001
000000000001011101
111111111111011100
111111111011110100
111111101101111011
000000000000101001
000000000011010100
111111110101101100
000000000000010110
000000000100110101
111111111000111100
000000000011010110
000000001110110110
000000000000000000
000000000000000000
000000000000000000
000000000000000000
000000000000000000
000000000000000000
000000000000000000
000000000000000000
000000000000000000
000000000000000000
000000000000000000
000000000000000000
000000000000000000
000000000000000000
000000000000000000
000000000000000000
000000000000000000
000000000000000000
000000000000000000
000000000000000000
000000000000000000
000000000000000000
000000000000000000
000000000000000000
000000000000000000
000000000000000000
000000000000000000
000000000000000000
000000000000000000
000000000000000000
000000000000000000
000000000000000000
000000000000000000
000000000000000000
000000000000000000
000000000000000000
000000000000000000
000000000000000000
000000000000000000
000000000000000000
000000000000000000
000000000000000000
000000000000000000
000000000000000000
000000000000000000
000000000000000000
000000000000000000
000000000000000000
000000000000000000
000000000000000000
000000000000000000
000000000000000000
000000000000000000
000000000000000000
000000000000000000
000000000000000000
000000000000000000
000000000000000000
000000000000000000
000000000000000000
000000000000000000
000000000000000000
000000000000000000
000000000000000000
000000000000000000
000000000000000000
000000000000000000
000000000000000000
000000000000000000
000000000000000000
000000000000000000
000000000000000000
000000000000000000
000000000000000000
000000000000000000
000000000000000000
000000000000000000
000000000000000000
000000000000000000
000000000000000000
000000000000000000
000000000000000000
000000000000000000
000000000000000000
000000000000000000
000000000000000000
000000000000000000
000000000000000000
000000000000000000
000000000000000000
000000000000000000
000000000000000000
000000000000000000
000000000000000000
000000000000000000
000000000000000000
000000000000000000
000000000000000000
000000000000000000
000000000000000000
000000000000000000
000000000000000000
000000000000000000
000000000000000000
000000000000000000
000000000000000000
000000000000000000
000000000000000000
000000000000000000
000000000000000000
000000000000000000
000000000000000000
000000000000000000
000000000000000000
000000000000000000
000000000000000000
000000000000000000
000000000000000000
000000000000000000
000000000000000000
000000000000000000
000000000000000000
000000000000000000
000000000000000000
000000000000000000
000000000000000000
000000000000000000
000000000000000000
000000000000000000
000000000000000000
000000000000000000
000000000000000000
000000000000000000
000000000000000000
000000000000000000
000000000000000000
000000000000000000
000000000000000000
000000000000000000
000000000000000000
000000000000000000
000000000000000000
000000000000000000
000000000000000000
000000000000000000
000000000000000000
000000000000000000
000000000000000000
000000000000000000
000000000000000000
000000000000000000
000000000000000000
000000000000000000
000000000000000000
000000000000000000
000000000000000000
000000000000000000
000000000000000000
000000000000000000
000000000000000000
000000000000000000
000000000000000000
000000000000000000
000000000000000000
000000000000000000
000000000000000000
000000000000000000
000000000000000000
000000000000000000
000000000000000000
000000000000000000
000000000000000000
000000000000000000
000000000000000000
000000000000000000
000000000000000000
000000000000000000
000000000000000000
000000000000000000
000000000000000000
000000000000000000
000000000000000000
000000000000000000
000000000000000000
000000000000000000
000000000000000000
000000000000000000
000000000000000000
000000000000000000
000000000000000000
000000000000000000
000000000000000000
000000000000000000
000000000000000000
000000000000000000
000000000000000000
000000000000000000
000000000000000000
000000000000000000
000000000000000000
000000000000000000
000000000000000000
000000000000000000
000000000000000000
000000000000000000
000000000000000000
000000000000000000
000000000000000000
000000000000000000
000000000000000000
000000000000000000
000000000000000000
000000000000000000
000000000000000000
000000000000000000
000000000000000000
000000000000000000
000000000000000000
000000000000000000
000000000000000000
000000000000000000
000000000000000000
000000000000000000
000000000000000000
000000000000000000
000000000000000000
000000000000000000
000000000000000000
000000000000000000
000000000000000000
000000000000000000
000000000000000000
000000000000000000
000000000000000000
000000000000000000
000000000000000000
000000000000000000
000000000000000000
000000000000000000
000000000000000000
000000000000000000
000000000000000000
000000000000000000
000000000000000000
000000000000000000
000000000000000000
000000000000000000
000000000000000000
000000000000000000
000000000000000000
000000000000000000
000000000000000000
111111111101101011
111111111010110100
111111110011011001
000000000010010011
000000000001110011
111111111101001101
111111111111101110
111111111110101000
000000001001110010
000000000001101001
000000000001100111
111111110011010011
000000000111010010
111111111111001110
000000000010111100
000000000001110001
111111111010101001
000000000011000111
111111111101110001
111111110101000011
111111110111010010
000000000110011110
111111111110000110
111111111001111110
111111111110010011
111111111110011000
111111111011111011
111111111100011100
000000000011010101
111111111101010100
000000000111010001
111111111001010000
111111111001110010
000000000101001000
111111111110100111
000000001000000000
111111111111101110
000000000000100101
111111111101011011
000000000110110000
000000000101110001
000000000100010101
000000000101001011
000000000010000011
000000000100101100
111111111101111101
111111111111010100
000000000110100111
000000000000101110
111111111100011010
000000000100011001
111111111001001001
111111111111010000
000000000011000110
111111111111110100
000000000001110111
000000000010001001
000000000110110000
000000001001001000
000000000111001010
000000000011010000
000000001010010111
000000000111111000
000000000011001100
000000000001011100
111111110101000011
111111111110010010
000000000000110001
000000000100000101
000000001000000010
000000000101101100
000000000110110000
000000000000110011
000000000101111111
000000000101010011
000000000100011001
000000001011000010
000000000010111110
000000001010101010
000000000110100000
000000000111010011
000000001000110010
000000001001000001
000000000110100001
111111111111001100
000000000110110010
000000001010001100
000000000000111000
000000000000101011
000000001010101100
000000000100111100
111111110111110001
111111111110000111
000000000011000111
000000000001111001
000000000000100011
000000000110001010
000000000110111000
111111111100010000
111111111101111000
000000000011110011
111111110111010110
000000000110000000
000000000001100010
000000000011111111
000000000010001011
000000000001010000
111111111111100111
000000000010001001
111111111110010100
111111111010100111
000000000100110101
111111111100110100
111111111101100101
000000000010011101
000000001001110110
111111111011000011
111111111110101011
111111111011100010
111111111111011001
000000000001110000
000000000010000000
111111111000110011
000000000011010101
000000000001010000
000000001001110001
000000000101001110
000000000000000011
111111110101010011
111111111101010111
000000000100011110
111111111110100100
000000000101110101
000000000110101011
000000000001000110
111111111101011110
111111111010010110
000000000000011010
000000000100011101
111111111110010000
111111111110010000
000000000101010100
000000000111101010
111111111000101100
000000000000011100
111111111001110100
000000000010000000
111111111111111011
111111111101011001
111111111101000111
111111111110111010
000000000011111111
000000000111000001
000000000010011000
000000000000110011
000000000101011011
111111111001001111
111111111110100000
111111111110101010
111111111100101110
111111111010001110
111111111111100101
000000000010111110
111111111100101111
000000000111001110
111111111111011111
000000000000100011
111111111010011100
000000000010101100
000000000010001111
000000000011001101
000000000011010000
000000000101101001
000000000111110011
000000001011111011
000000001011100011
000000001011001110
000000001010001111
000000001111001101
000000001111001010
111111111101000110
000000000101111010
000000000010010011
000000000111010001
000000001000001000
000000000101101101
000000000110011100
000000001001000111
000000001001010111
111111111110001101
000000000001100110
111111111001110101
000000000101100111
111111111110100001
111111111110100000
000000000101001010
111111111100110101
000000000001111001
111111111011000000
000000000110001101
111111111101111101
000000000000101010
000000000010000110
111111111101011011
111111111111011101
000000000101001001
000000000010111000
111111111110000101
000000001000010110
000000000110000101
111111111100110101
111111110111010111
111111111001110100
000000000101100100
000000000011000010
000000000111011101
111111111011111110
000000000110010101
111111111000100010
111111111010111001
000000000010000001
111111111011111011
000000000011110011
111111111110100100
000000000110011101
000000000100000010
111111111010010111
000000000011011001
000000000011111001
111111111011110110
111111111011010101
111111111011111111
111111111001111110
000000000110100010
111111111110110100
000000000100001111
000000000000110100
000000000011100101
000000000010110100
000000000000011111
000000000011001001
000000000011010101
000000000110111000
111111111001000110
111111111100011101
000000001001000101
111111111110011100
111111111001011010
000000000000110100
000000000000101011
000000000001001011
000000000010001010
111111111110111001
111111111111110111
111111111011101000
000000000100110100
111111111101101110
111111110101101111
000000000000100011
000000000011010010
000000000010110101
000000001010001100
111111111111001111
000000000010111000
111111111100011101
000000000100001011
000000000000001000
111111110100001100
111111111101010101
000000001010110110
111111110111100000
111111111000110011
111111111011111110
000000000000110001
111111111010011110
111111111100011111
000000000011000101
000000000111101000
000000001001101011
111111111101101101
000000000101101011
111111111110100101
000000000100010100
000000000011000111
000000000000000100
000000000101000001
000000001100111101
000000001000101010
111111111101010010
111111111011100101
000000000110100000
000000000000100101
000000000110000111
111111110111101100
111111111101110100
000000000000001001
000000000011111111
000000000001110100
111111111001101011
111111111111011001
111111111111011001
111111111111100100
000000000010101111
111111111000000011
000000000101001000
000000000000011110
111111111010001000
000000000001100000
111111111011101100
000000000000110010
111111110110111010
111111111100000100
111111111101000010
111111110110011110
000000000000001000
000000000000101100
000000000000111111
000000000001011100
111111111101000000
111111111111011001
000000000011011011
111111111011010111
000000000100101010
111111111100001010
000000000101011011
111111111110000011
111111111011110011
000000000000111010
111111111101001000
111111111011000011
111111111110111111
111111111110011111
000000000010000110
111111111111100010
000000000010011110
000000000000010100
000000000001000100
111111111100011101
111111111101110110
000000001000011011
000000000010101000
111111111110000111
111111111100111101
111111111101111001
000000000011001010
000000000011110111
111111111111001110
111111111010010101
000000000010111101
111111111101111101
000000000000100000
111111111101001101
000000000001011101
000000000010101101
111111111100101101
111111111110000101
111111111100100101
111111111101110110
000000000000110001
000000000011000011
111111111101000001
111111111110110001
111111111000000110
000000000001001101
111111111110100011
000000000010100100
111111111101111111
000000000000000000
000000000011010110
111111111110010000
000000000010000101
111111111111111001
111111111110011011
000000000000100110
000000000001011000
111111111011011100
000000000001011100
111111111110100111
111111110111110011
000000000100011001
111111110111011101
111111111101011110
000000000011101000
111111111100100100
111111111011000001
111111111011100101
111111111110100000
111111111111010000
000000000001010101
000000000000010000
111111111110110011
000000000001011101
000000000011001101
000000000001011000
111111111111101011
111111111110110000
111111111110110100
000000000110110100
000000000001100111
000000000011100001
000000000011100101
000000000010010110
111111111111001111
000000000010010011
111111111111111111
000000000000111101
111111111110010111
111111111000101001
111111111101111010
111111111110100010
000000000001000000
111111111111000111
111111111111001010
000000000100110011
000000000101100011
000000000001000100
000000000100111000
000000000101111111
000000000101111111
000000000100011010
111111111110110000
000000000001111001
000000001000100001
111111111101001000
111111111101000110
000000000110000001
000000000010001100
000000000000010000
111111111110001010
111111111100011011
000000000000111110
000000000101100001
111111111111001010
000000000001110100
000000000100011001
111111110111100001
111111111011111101
000000000101101111
000000000011000111
000000000001001111
111111111110100000
000000000000110111
000000000000011100
000000000001010101
111111111101001100
000000000000001101
000000000000110100
000000000001101101
000000000011011001
111111111110101100
000000000001000011
111111111001011101
000000000010000000
000000000101101000
000000000110011111
000000000111100001
000000000100001100
000000000000000111
000000000010010100
111111111101000110
000000000000000101
000000000001100100
000000000100000111
111111111110110110
000000000101100011
000000000011011101
000000000001100010
000000000011101110
111111111001011010
111111111011100001
000000000010110010
000000000011110010
111111111101101010
000000000010010010
000000000110001111
111111111110011111
000000000011101011
111111111100101100
000000000000110100
000000000110000000
111111111111001011
111111111111011011
000000000100011111
111111111100000100
111111111111011001
000000000101011101
000000000011011011
000000000001111101
000000001000111111
000000000011111001
000000000100000111
000000000111010100
000000000010010010
000000000001100100
000000000011000000
111111111110111101
111111111110011101
000000000010100011
111111111011101011
111111111110011010
000000000010001010
111111111101101111
000000000000001011
111111111011110010
111111111111011010
111111111100011010
000000000010110110
111111111111011110
111111111111011100
111111111101111111
000000000101010111
000000000101000001
000000000010011000
111111111111100111
111111111111000010
111111111111010101
000000000001100111
111111111111000001
000000000010001010
111111111111111000
111111111101011111
111111111101001100
000000000011110111
000000000011010101
000000000011011001
000000000001000011
000000000001010010
000000000010100110
000000000001010000
000000000100001000
000000000000100011
000000000001111000
000000000100011000
111111111100101001
111111111101000000
111111111111111111
000000000011010000
000000000011000110
000000000000001110
000000000011111010
111111111000100010
111111111100001011
111111111110011001
111111111100100000
000000000010011011
111111111110101110
111111111011010111
000000000101111011
111111111100010001
111111111111111001
111111111111001011
111111111011011111
111111111110100101
111111111111111011
111111111111011100
000000000110010110
111111111111000111
000000000001000000
000000000100001100
000000000110001100
111111111001011110
000000000010110100
000000000000000101
000000000010001000
111111111011110010
000000000000000101
000000000001111111
000000000010001100
111111111001010110
000000000001011010
000000000011110011
000000000100010100
000000000000101111
000000000101111010
000000000000000110
000000000011010101
111111111111110100
000000000000001100
111111111111101010
111111111111100110
111111111111110000
000000000000000100
000000000000001110
000000000000000111
111111111111110011
111111111111111001
111111111111111110
111111111111100111
111111111111111001
111111111111011110
111111111111111000
111111111111110001
111111111111101011
000000000000011110
000000000000100001
000000000000001111
111111111111111111
000000000000100100
000000000000000001
000000000000010110
000000000000000011
000000000000011001
000000000000001111
111111111111110110
000000000000000011
000000000000001101
111111111111111100
000000000000010000
111111111111111110
000000000000001010
000000000000000100
111111111111101001
000000000000000110
111111111111111111
000000000000000101
000000000000000111
000000000000000100
000000000000010000
111111111111110101
000000000000000011
000000000000000101
000000000000100100
000000000000001100
111111111111101000
111111111111110111
111111111111110111
000000000000000111
111111111111110010
111111111111111001
111111111111111101
000000000000000010
111111111111111001
000000000000001111
111111111111110000
111111111111110111
111111111111101101
000000000000001011
000000000000000010
000000000000001011
000000000000010000
111111111111111101
111111111111010111
111111111111111010
111111111111111011
000000000000000011
111111111111110111
000000000000000001
111111111111110100
000000000000010101
000000000000000100
000000000000001100
000000000000001100
000000000000001010
111111111111111011
000000000000010010
000000000000000000
000000000000000001
111111111111111011
111111111111100011
000000000000000111
111111111111111001
000000000000001100
000000000000001100
000000000000000111
000000000000001001
000000000000000101
111111111111110011
111111111111110011
111111111111110101
111111111111111001
111111111111111111
111111111111101001
000000000000000010
000000000000001001
000000000000000010
000000000000000000
111111111111111000
111111111111110111
000000000000000000
111111111111110010
000000000000000001
111111111111111100
111111111111110101
111111111111110111
111111111111111111
000000000000000010
000000000000001111
111111111111111011
000000000000000010
000000000000001011
000000000000000001
000000000000001011
000000000000010011
111111111111110011
111111111111111000
111111111111111111
000000000000000000
000000000000000111
000000000000000111
000000000000000101
111111111111111011
111111111111111000
111111111111111100
000000000000000001
000000000000000000
111111111111101100
000000000000001101
111111111111110011
000000000000010010
111111111111110110
111111111111111011
111111111111111001
111111111111111011
111111111111101010
111111111111101101
000000000000000110
111111111111110101
111111111111110101
111111111111111101
111111111111110101
000000000000000100
111111111111111001
111111111111011101
000000000000000101
000000000000000100
000000000000011001
111111111111111111
000000000000001110
000000000000000010
111111111111110111
000000000000011000
111111111111110101
000000000000000110
000000000000001010
000000000000010001
000000000000010110
111111111111111010
000000000000000110
111111111111110001
111111111111111100
000000000000000011
111111111111111101
111111111111111111
000000000000000100
000000000000000100
111111111111111010
000000000000001100
111111111111111010
111111111111111001
000000000000000010
111111111111110010
000000000000000001
111111111111111001
000000000000000011
000000000000001110
111111111111111011
000000000000001000
111111111111110110
000000000000001101
000000000000001011
000000000000001001
111111111111110101
000000000000000000
000000000000001111
111111111111111111
111111111111101101
000000000000001100
000000000000000111
000000000000001101
000000000000000010
111111111111110000
111111111111101111
000000000000001001
111111111111111101
111111111111111110
000000000000010010
000000000000010000
000000000000100100
000000000000001010
000000000000001010
000000000000001010
000000000000010001
000000000000011010
000000000000000111
000000000000011001
111111111111111110
111111111111111111
000000000000001010
000000000000001010
000000000000011000
000000000000000111
111111111111100001
111111111111110101
111111111111110110
000000000000001101
000000000000001100
000000000000001010
000000000000000010
111111111111111001
111111111111110110
111111111111111100
000000000000001010
000000000000000101
000000000000010111
000000000000001110
111111111111110110
000000000000001110
111111111111111111
000000000000010000
111111111111111000
000000000000000101
111111111111110110
111111111111100110
111111111111111111
111111111111111110
000000000000000011
111111111111100010
111111111111100011
111111111111101010
111111111111111110
000000000000000010
111111111111111000
000000000000000101
111111111111111110
000000000000000001
111111111111110010
111111111111110111
111111111111111001
000000000000010011
000000000000010010
000000000000010101
111111111111101111
111111111111111100
111111111111111100
000000000000001111
111111111111111100
111111111111111100
111111111111110011
111111111111111010
111111111111111111
111111111111111100
111111111111111111
111111111111110100
111111111111111111
000000000000000011
000000000000000001
000000000000000110
111111111111111111
000000000000010011
000000000000000000
111111111111111110
111111111111111000
000000000000001011
111111111111100001
111111111111111010
000000000000010101
000000000000011111
000000000000010111
111111111111101101
000000000000001101
000000000000000010
111111111111111011
000000000000001000
111111111111110000
000000000000000111
111111111111011001
000000000000000111
111111111111100000
111111111100101111
000000000100001010
000000000100101110
000000000100101001
111111111111010111
000000000001111100
111111111111101100
111111111111111011
000000000000000101
000000000000011000
000000000000001001
000000000000001010
000000000000000000
111111111111111100
111111111111111100
111111111111111011
111111111111111000
111111111111111010
111111111111111101
111111111111111111
000000000000010000
000000000000010001
000000000000001000
000000000000010000
111111111111110101
111111111111110001
000000000000000101
000000000000000001
000000000000000100
111111111111110100
111111111111111100
111111111111111001
000000000000001010
111111111111110110
000000000001000010
000000000000000010
000000000000010111
000000000000000011
000000000000000111
111111111111110101
000000000000000100
000000000001011111
111111111111011001
111111111111101111
000000000000010000
000000000000000101
000000000000001000
000000000000010011
111111111111110000
111111111111110010
111111111111111001
111111111111110100
000000000000000111
111111111111111101
111111111111111111
000000000000001000
000000000101010100
000000000101010100
000000000101010111
000000000011011101
000000000000001010
000000000000011100
000000000001101101
111111111111100111
000000000000000100
111111111111111010
111111111110110110
000000000000011000
000000000000000101
000000000000001001
000000000000001100
000000000000001000
111111111111111010
111111111111111110
111111111111111011
111111111111111100
111111111111111011
111111111111111001
111111111111110101
000000000000000101
000000000000010011
000000000000000011
000000000000001001
000000000000000100
111111111111111011
000000000000000101
000000000000000011
000000000000000010
000000000000000010
111111111111111111
111111111111110110
000000000000000010
111111111111110101
000000000000000011
111111111111111101
000000000000000100
111111111111111011
000000000000000110
000000000000000000
000000000000000100
111111111111111001
111111111111111101
111111111111111011
000000000000000000
111111111100111011
000000000000111100
000000000000100010
111111111111010010
000000000000011001
000000000011001000
000000000011111100
000000000011110111
000000000101100010
000000000000111010
000000000010000011
000000000010101111
000000000000000010
000000000000000000
000000000000000010
000000000000000011
000000000000000101
000000000000000111
111111111111111011
000000000000000000
000000000000000000
111111111111111101
111111111111110101
000000000000000000
000000000101000101
000000000011010010
000000000010100001
000000000001111010
000000000000000101
111111111111011101
000000000010111111
000000000010011110
000000000000010100
111111111111111000
111111111111011101
000000000001101000
111111111111111100
111111111111111101
111111111111111011
000000000000000110
000000000000000011
000000000000000010
111111111111111010
111111111111111110
111111111111110111
111111111111111101
000000000000000100
111111111111111101
111111111111111100
000000000000000101
000000000000000110
111111111111111101
111111111111101011
111111111111111000
111111111111110010
111111111111111000
000000000000000001
111111111111111101
111111111111111111
000000000000000110
000000000000000010
111111111111111110
111111111111111000
000000000000000011
111111111111111011
111111111111111000
000000000000000011
111111111111111110
000000000000000000
000000000000000011
000000000000000000
000000000000000111
000000000000001111
000000000000010010
000000000000001001
000000000000010101
111111111111111010
000000000000001001
000000000000000111
000000000000000100
000000000000000111
111111111111111000
111111111111111100
111111111111110100
000000000000000000
000000000000000000
000000000000000000
000000000000000000
000000000000000000
000000000000000000
000000000000000000
000000000000000000
000000000000000000
000000000000000000
000000000000000000
000000000000000000
000000000000000000
000000000000000000
000000000000000000
000000000000000000
000000000000000000
000000000000000000
000000000000000000
000000000000000000
000000000000000000
000000000000000000
000000000000000000
000000000000000000
000000000000000000
000000000000000000
000000000000000000
000000000000000000
000000000000000000
000000000000000000
000000000000000000
000000000000000000
000000000000000000
000000000000000000
000000000000000000
000000000000000000
000000000000000000
000000000000000000
000000000000000000
000000000000000000
000000000000000000
000000000000000000
000000000000000000
000000000000000000
000000000000000000
000000000000000000
000000000000000000
000000000000000000
000000000000000000
000000000000000000
000000000000000000
000000000000000000
000000000000000000
000000000000000000
000000000000000000
000000000000000000
000000000000000000
000000000000000000
000000000000000000
000000000000000000
000000000000000000
000000000000000000
000000000000000000
000000000000000000
000000000000000000
000000000000000000
000000000000000000
000000000000000000
000000000000000000
000000000000000000
000000000000000000
000000000000000000
000000000000000000
000000000000000000
000000000000000000
000000000000000000
000000000000000000
000000000000000000
000000000000000000
000000000000000000
000000000000000000
000000000000000000
000000000000000000
000000000000000000
000000000000000000
000000000000000000
000000000000000000
000000000000000000
000000000000000000
000000000000000000
000000000000000000
000000000000000000
000000000000000000
000000000000000000
000000000000000000
000000000000000000
