111111111011000000
000000000110110000
111111111111110011
111111111011101101
000000000010101010
000000000101111100
000000001010001010
111111111011100101
111111111010010011
111111111110001011
111111111110010011
111111111010111010
000000000111001000
111111110100001101
111111111100101110
000000000101000110
111111111111100001
111111111101101011
000000000000001100
111111111000110111
000000000110110000
111111111100000111
111111111110000110
111111111101011011
000000000011010000
111111111111101011
111111111100010001
111111110100110110
111111111101011110
111111110110100101
000000001001110011
111111101111101011
000000001000110101
111111101001110101
000000010110001110
000000000111010111
000000000101001110
111111111110101001
000000000100011101
111111110110010010
111111111111100011
000000000101011010
111111111110111010
111111111111101110
111111110110110010
000000000001111100
111111111111110010
111111110011000000
000000000100010100
111111111101110100
111111111111010010
000000000110010100
111111111101110110
000000000101001000
000000000011110001
000000000001110111
000000000011000101
111111111100000000
111111110111011100
000000000001111001
111111111000000010
111111111100100000
000000000000111110
111111111100111111
000000000101100000
000000000101011011
111111111100111110
000000001010000001
000000000100100011
111111111111011110
111111111100011010
000000000001011000
111111111100100000
000000000101000100
000000000000001111
111111111111101010
111111111110100100
000000000110111110
111111110111010000
000000000001001110
111111111101110000
111111110111010010
111111111001000100
111111111111100000
111111111000110110
000000000011000011
000000000011011100
000000000100010100
000000000000100001
111111111001110111
000000001000011110
000000000101001110
000000000101011010
000000000010101011
000000000110001111
111111111101001011
111111111111001011
000000000101101100
000000000111100111
000000000010010000
000000000110000001
111111111101101110
000000000010001101
111111111100101111
111111110111011101
000000000010010101
000000000000000011
111111111110000011
000000000010111000
111111111011011011
000000000001110101
000000000100110010
000000000100010110
000000000000110001
000000000001110110
000000000011111111
111111111100000111
111111111000001111
111111111011001000
000000001001110011
000000000000100110
111111111101010111
111111110111100000
111111110101101001
000000000100011010
111111111011110101
111111111011010001
111111111011111101
111111111011111001
000000000010111100
111111111110100000
111111111111000010
000000000000111001
000000000000000011
111111111011100000
000000001000101001
000000000011011010
111111111001000111
000000000010111011
111111111111110100
000000000000010100
111111111110000110
000000001010010111
111111111110110101
111111111011111100
111111111101101001
000000000111011111
111111111100001111
111111111111111100
111111111111100011
000000000011010100
111111111100111000
000000000000100000
000000000011011010
111111111010111101
000000000010101111
111111110110011111
111111111110111010
111111110111111100
111111111110001101
000000000010000010
000000000000011000
111111111001110010
000000000001110010
111111111101110011
111111111111100110
000000000001000011
111111111000100001
111111111111110111
000000000110001111
000000001000001010
111111111011010000
000000000011011100
000000000100110010
111111111010000010
111111111101111000
111111111101010001
111111111100010010
000000000110110001
000000000100100011
000000000001001001
000000000110111001
000000000111000111
111111111110010000
000000000001001001
111111111100000000
111111111011110011
111111110110100101
000000000110110110
111111111101111110
111111110101011110
000000000100111000
000000000000100011
111111111101001111
000000000010001110
000000000011111100
000000000000001010
000000000011101001
000000000001011100
000000000000110111
111111110110110000
111111111111001011
000000000000000011
111111111101001001
111111111111111011
111111111011100011
000000001000111101
111111111111111100
000000000101101011
000000001000101010
111111111101000101
000000000100011100
000000000011001010
111111111101100000
000000000011111000
000000000001011101
000000000001101110
000000000101010100
111111111111101101
000000000111000100
000000000110001001
000000000110011011
111111111100110011
111111111100110001
000000000111100101
000000000001000101
000000000011001000
111111110010111011
000000000010111100
111111111011001000
000000000000010011
111111111111100010
111111111101001011
111111111101101101
000000000110100001
000000000100000111
000000000000001110
000000000001000010
111111111110110001
111111111110010111
111111111101111011
111111111101000011
111111111101111111
111111111100001000
111111111110111000
111111110001010001
111111111100110111
000000000001111111
000000000000010000
000000000111110001
111111111001010011
000000000110000101
111111110011101000
000000000101011111
000000000010001000
111111110111011011
000000000100010010
111111111110001101
000000000000000001
111111111110110011
000000000011010111
000000000101101101
111111111001101110
000000000101011000
000000000000100101
111111111101001111
000000000100000011
000000000011001001
111111111101110001
000000000010001000
000000000001110100
111111111000110011
000000000001000011
111111110111011010
000000000101110010
111111111111100100
111111111010101111
111111111111111000
000000000010001110
111111111101111111
111111111111100101
111111111001101010
111111111110110000
000000000101000011
000000001010001001
111111111100011010
000000000001010011
111111111110010000
111111111110110011
111111111110001011
111111111101001000
111111111010011110
000000000011010001
111111111111000110
000000000110001111
000000000000101111
000000000010111000
000000001000111010
111111111101111000
111111111010010000
000000001001101000
111111111101111011
111111111101100100
111111110101110101
000000000011101110
000000000011101100
111111111110011111
000000000000011101
000000000101000111
000000000100111100
111111111100111011
000000001001011001
111111111110000001
111111111110001110
111111111101101101
111111111101000100
000000000001111110
000000000010110101
111111111111001010
111111111101000101
000000000011101011
000000000100001010
000000000001101101
000000000100011110
111111111001100001
000000001011001101
000000000010101001
111111111000010110
000000000010110110
111111111110100101
000000000001010110
000000000100110101
000000000100011101
000000000000100111
000000000000010001
000000000111000010
000000000101011011
000000000010001001
111111111111110101
111111111110010100
111111110111111010
000000000000101100
000000000010100101
000000000000111111
000000000010011110
111111111110110101
000000000000101001
111111111110011111
111111111101100101
111111111101011001
000000000001001101
111111111100101001
000000000010001110
000000000001000101
000000000010110111
111111111010111011
111111111110101100
111111111111101101
111111111100011100
000000000010110111
000000000010101100
111111111101111100
111111111100101000
000000000111011000
111111110110000110
111111111010010111
000000000000100001
000000000101001010
000000000001011010
000000000100011101
111111111111100001
111111111010010000
000000000000011011
111111111100111101
111111111100100101
000000000010110100
111111111111011000
000000000000001100
000000000000110110
111111111111110001
111111111110100111
000000000001000001
000000000000011111
000000000011000110
000000000001000010
000000000001101011
000000000001101000
000000000001111010
000000000111001111
111111111011111010
111111111011111010
000000000110011000
000000000010101011
000000000100001001
000000000001110000
000000000111100100
111111111100110010
000000000000001010
000000000001111000
111111110101001001
111111111110000000
111111111110101101
000000000000110111
000000000011011000
000000000011001100
000000000010010100
111111111010100011
111111111110110011
000000000100010010
111111111001100111
000000000000001011
111111111101111001
000000000000101011
000000000011100101
000000000101111111
111111111110101110
000000000011011000
111111111111101001
000000000001111000
111111111110000110
000000000010011110
111111111111110101
111111111001111000
111111111111100000
000000000101000110
111111111011001101
111111111100101000
000000000000110000
000000000100101100
000000000001011011
111111111011000010
111111111110000001
111111111111010011
000000000010111110
000000000001101110
000000000100101011
111111111111110010
000000000010100011
111111111111101011
111111111100100111
000000000010110110
000000000000011110
000000000100111100
000000000010000101
000000000101110100
000000000000101010
000000000000000000
000000000100010101
111111111100101010
111111111100111101
111111111111101111
000000000110011101
000000000010000100
111111111101110111
000000000100001101
000000000010010100
000000000101001111
000000000001010101
000000000001100101
000000000101011100
000000000011010000
000000000001101011
000000000000110110
000000000010000110
111111111100111100
000000000100001101
000000000010101000
111111111100010000
000000000101010001
000000000001101011
000000000011010111
000000000010100010
000000000001000011
111111111100000011
000000001000000011
111111111110100101
000000000010100010
000000000000010010
111111111111111010
000000000000010001
111111111100101100
000000000000000001
111111111111000010
000000000001111100
111111111111101000
000000000000001001
111111111110011011
000000000100101101
000000000111001100
111111111001101001
000000000010010111
000000000100111000
000000000100011001
111111111111110010
111111111010010100
111111111101111100
000000000110101011
111111111100110010
111111111010011000
111111111101110100
000000001000011000
000000000001101010
000000000101001100
111111111110010111
000000000111011011
111111111111001001
111111111100011111
111111111110000101
111111111101100111
111111111011010100
000000000100010111
111111111110000011
000000000001100010
111111111111111001
000000000000111110
000000000000101101
000000000001001001
111111111110000111
000000001000100000
000000000110010111
000000000010011111
111111110111010011
000000000000110000
000000000110001000
000000000000001101
000000000101101001
000000000100100001
000000000100110110
000000000111011000
000000000101011000
111111111111101011
111111111101010111
111111110110111110
000000000111101001
111111111101110110
000000000011000100
000000000110111010
111111111010110110
111111111101110101
000000000011111111
000000000011000010
000000000010101111
000000000001000000
000000000100000011
111111111101110000
111111111111011001
111111111111010010
111111111110000101
000000000011010101
111111111011101110
000000000111101010
111111111110100110
000000000011001011
111111111011111100
000000000001010010
000000000101110011
111111111011011001
111111111001110111
111111111001010010
000000000000000011
000000000000010101
000000000001010110
000000000010101100
000000000110110001
000000000001111111
000000000100110100
000000000101000111
111111111011010010
000000000101101010
000000001001110111
111111111110110110
000000000010000011
111111111100011010
000000000110110100
111111111111101010
000000000001011000
000000000001101010
111111111111011011
111111111111010000
000000000000001110
111111111100111011
111111111111111010
111111111101100110
111111111100010010
000000000010000011
000000000101101101
000000000001110111
111111111001101110
000000000100111100
111111111011000001
111111111100001010
000000000010111100
000000000001101110
000000000000010000
000000000100100001
000000000001001011
111111111111010111
000000000010101110
111111111110010111
111111111101110000
000000000010000011
111111111110100000
111111111110011000
000000000001100001
000000000000001100
000000000001000100
000000000000110011
111111111101111100
000000000010011010
000000000100000001
000000000111111000
000000000000110111
000000000000000100
111111111111100101
111111111111100111
111111111111111000
111111111111111100
000000000000010110
111111111111111111
000000000000001001
000000000000000101
000000000000000001
111111111111110111
111111111111101001
000000000000001000
000000000000000011
000000000000010111
000000000000000101
111111111111110101
000000000000010101
111111111111101010
000000000000001011
111111111111100101
111111111111111000
000000000000001000
000000000000001000
111111111111111110
111111111111111110
000000000000001010
111111111111101100
111111111111111101
000000000000000011
111111111111110010
111111111111111001
000000000000001100
111111111111111001
000000000000011110
000000000000100110
000000000000001111
000000000000000000
111111111111111101
000000000000001001
111111111111110011
000000000000000110
111111111111111000
111111111111101011
111111111111110111
000000000000000000
000000000000000101
111111111111101011
111111111111110011
111111111111101011
000000000000000001
000000000000000000
000000000000001010
000000000000010110
111111111111111110
000000000000000101
000000000000000110
111111111111101101
111111111111101110
111111111111101101
000000000000000101
000000000000001110
000000000000010001
111111111111110101
111111111111111010
111111111111111000
111111111111111111
111111111111111011
111111111111111000
111111111111111101
000000000000001110
111111111111111100
000000000000000010
000000000000001011
000000000000010111
111111111111110101
111111111111111011
111111111111101110
111111111111100111
000000000000000000
111111111111111001
111111111111110011
111111111111101100
000000000000001100
000000000000000001
111111111111111101
000000000000001111
111111111111111111
111111111111110100
000000000000000100
111111111111110100
111111111111110010
000000000000000101
111111111111111111
111111111111101101
111111111111110001
000000000000000100
000000000000000000
111111111111111100
111111111111111010
111111111111111001
111111111111111011
111111111111111000
111111111111111011
111111111111111111
000000000000000011
111111111111111011
111111111111111110
000000000000000010
111111111111101111
111111111111101111
000000000000000010
111111111111101101
111111111111101000
111111111111101111
111111111111111110
111111111111111011
000000000000000000
111111111111110011
111111111111111000
000000000000000100
111111111111111110
000000000000000011
000000000000001100
111111111111111001
111111111111101000
000000000000011001
000000000000000101
000000000000001011
111111111111111001
000000000000000001
111111111111111001
111111111111111011
000000000000001100
111111111111111101
111111111111110011
000000000000000011
111111111111111000
111111111111100111
111111111111111001
000000000000001101
000000000000000000
111111111111111101
000000000000000110
000000000000001111
111111111111101110
000000000001011001
111111111111110111
111111111111110100
000000000000001101
000000000000011111
111111111111111111
111111111111111001
000000000000000100
111111111111111101
000000000000010010
111111111111110000
000000000000000110
111111111111110111
111111111111111111
111111111111111001
000000000000001111
111111111111101010
111111111111111010
000000000000000110
000000000000001100
000000000000000000
000000000000000011
111111111111011010
111111111111110100
000000000000001010
000000000000000001
111111111111111000
111111111111111011
111111111111111110
111111111111111101
111111111111110010
111111111111111001
111111111111111101
111111111111111111
111111111111111100
000000000000001001
000000000000010010
000000000000001001
000000000000000110
000000000000011011
000000000000010101
111111111111111010
000000000000000000
111111111111110001
111111111111101000
111111111111111010
000000000000000000
111111111111110111
111111111111110011
111111111111101100
000000000000000100
000000000000000100
111111111111111011
111111111111111111
111111111111111111
111111111111110000
111111111111100110
111111111111100010
000000000000000001
111111111111111111
000000000000000011
000000000000001100
000000000000010010
000000000000001111
111111111111110110
000000000000001010
000000000000010110
000000000000000000
000000000000000110
000000000000001111
111111111111111111
111111111111111000
111111111111110110
000000000000000001
000000000000001010
000000000000000010
000000000000001100
000000000000000001
111111111111110110
000000000000010001
000000000000010100
111111111111100100
000000000000010111
111111111111111000
111111111111110110
111111111111101000
111111111111110110
111111111111110010
111111111111110111
111111111111110110
000000000000010101
000000000000000011
111111111111110001
000000000000000000
000000000000001101
000000000000000111
000000000000001011
111111111111111011
000000000000000011
111111111111111010
111111111111111110
111111111111110101
111111111111110100
111111111111111010
111111111111101101
111111111111100001
111111111111111110
111111111111110011
000000000000001010
111111111111111001
111111111111110100
111111111111111110
000000000000000010
000000000000011000
000000000000010011
000000000000001100
111111111111110100
111111111111110100
111111111111111100
000000000000000110
111111111111111110
111111111111111100
000000000000000010
111111111111111111
000000000000000011
111111111111111101
111111111111110110
000000000000001000
111111111111101100
111111111111111110
111111111111111100
111111111111110110
111111111111110011
000000000000010100
000000000000001010
000000000000011000
111111111111101100
111111111111110001
111111111111111100
111111111111110101
111111111111110110
111111111111101010
111111111111011101
111111111111111111
111111111111000111
111111111111100000
111111111111100101
000000000001010011
111111111111101001
111111111111110101
111111111111111011
000000000000001000
111111111111110100
000000000001001010
111111111111111001
000000000000000001
111111111111111101
111111111111110011
111111111111111010
111111111111111101
111111111111111100
111111111111111000
111111111111111100
111111111111111100
111111111111111110
111111111111110110
111111111111111010
111111111111111000
000000000000000101
111111111111111011
111111111111111101
111111111111111100
111111111111110000
111111111111110001
000000000000000000
000000000000000010
111111111111111101
000000000000000111
000000000000001000
000000000000010000
111111111111111011
111111111111100111
000000000001011001
000000000011010111
000000000010010010
000000000000111000
000000000011011000
000000000100001110
000000000011110011
000000000000011100
111111111111111011
000000000000000000
000000000000000101
000000000000000111
000000000000000000
111111111111111011
000000000000000100
000000000000000111
111111111111111101
000000000000000100
111111111111111101
000000000000001000
111111111111101111
000000000000000010
111111111111110011
000000000001100110
111111111111111011
000000000000010010
000000000000000000
000000000011010111
111111111111110100
111111111111110010
000000000000011011
000000000000011001
000000000001011110
111111111111101000
111111111111110000
111111111111011110
000000000001100010
000000000000001001
111111111111101111
000000000001110011
000000000001110101
000000000100111001
000000000100011000
000000000100010100
111111111111111111
111111111111111000
000000000000000001
111111111111111000
111111111111110101
111111111111110110
111111111111110101
111111111111110100
111111111111110001
111111111111110100
111111111111101101
111111111111110010
111111111111010010
111111111111000010
000000000000000111
000000000001110010
000000000000000010
111111111111011110
111111111111111110
111111111111101000
000000000000010011
000000000000010001
111111111111101010
111111111111111100
111111111111110110
111111111111111010
000000000000000001
111111111111101111
000000000000000010
111111111111111001
000000000000000010
111111111111111101
111111111111111000
111111111111101101
111111111111101111
111111111111101111
111111111111110111
111111111111111001
000000000000000000
111111111111110010
000000000000000010
111111111111111110
000000000000000000
000000000000000010
111111111111110011
000000000000000001
111111111111111101
111111111111111110
111111111111111000
111111111111111011
000000000000000101
111111111111110100
000000000000000000
111111111111110111
111111111111110111
111111111111111100
111111111111111010
111111111111110010
111111111111111101
000000000000000001
000000000000000000
111111111111110010
000000000000000100
111111111111111010
111111111111111100
111111111111110111
000000000000000011
111111111111111001
111111111111110000
111111111111110000
111111111111110110
111111111111111010
111111111111110011
111111111111111100
000000000000001101
000000000000000100
000000000000001000
000000000000000101
000000000000000111
000000000000000110
111111111111111000
000000000000000101
000000000000001011
000000000000000110
111111111111111011
111111111111111101
000000000000000001
111111111111111110
000000000000000010
111111111111111001
111111111111110100
111111111111111110
000000000000000000
111111111111111010
111111111111110111
111111111111111101
111111111111111010
111111111111111000
111111111111111001
000000000000000011
111111111111111100
111111111111110010
000000000000000100
000000000000001000
111111111111111111
111111111111111001
111111111111111011
000000000000010000
