111111111101001101
111111111101100110
111111111100000000
111111111110101100
000000000010111000
000000000101100100
000000000100001100
111111111111100001
000000000011111000
111111111100100101
000000000010101101
111111110111011011
111111111101111111
111111111110010011
111111111000101011
111111110110000011
111111111110100100
000000000000001000
000000001000110110
000000000100010101
000000000010010111
111111110011100101
111111111110011100
111111111100101001
000000000000111111
000000000100100011
111111111111010111
111111111110110111
111111110011011011
000000001010111101
111111101101111101
111111111110110000
111111110111101010
111111100000000001
111111001110010000
111111101111100001
000000000100010001
000000000000100011
111111111110110110
111111110111011101
000000000100010110
111111111001001000
111111111101001010
000000000010000100
000000000011011110
111111111100110101
111111111010100100
000000000011101110
111111111101101001
000000000011010110
000000000101110110
111111111110000001
000000000001000110
000000000100100101
000000000100111100
111111111111110011
111111110110011101
111111111101110010
000000000010110100
000000000100001111
111111111111001111
111111111111000001
111111110011010100
111111111110110010
000000001001011010
000000001001101001
111111111111010000
000000000001000111
111111111111111010
111111111011101000
111111111001011001
111111110110000100
111111110111011111
000000000100110000
111111111101010001
111111111100011110
111111111010110101
000000000110000010
111111111101100011
000000000100010011
000000000001011111
111111111111001100
111111111000011010
000000000111011111
111111111000110000
000000000111010110
111111111101110101
111111111101110101
111111111011001011
000000000010110100
000000000010001010
111111111100111111
000000000101011010
000000000000100010
000000000101111010
000000000101001111
000000000100101011
000000000011001111
000000000111000001
000000001001000011
111111111000110011
000000000010001110
111111111010110000
000000000001110100
000000000000010011
111111111111000100
000000000100000001
111111111101000110
111111111101011011
000000001000000000
000000001100010010
000000000001010010
000000000000110101
000000000101100111
000000000000011101
000000000011100101
000000000011000111
000000000000011111
111111111100011000
000000000010000101
111111111100100101
111111111010010000
000000000001010101
111111111110111100
111111110101100100
000000001010001111
111111111100001101
000000001000001000
000000000001110011
000000000001011111
111111111100111000
000000000011101010
111111111100001001
111111111001100111
111111110111001000
111111111100110011
111111111011111001
111111111011101111
000000001000010100
111111111100101100
000000000101100000
111111111110110010
000000000011111000
000000000100011111
000000000100100000
000000000110000010
111111111111010101
000000000110000101
111111111110100111
000000000100111000
000000000001111111
000000000010011111
111111111001011011
000000000100110101
111111111011010111
111111111110001011
000000000000010001
111111111001100111
000000000011011111
000000000111011101
111111111111100000
000000000101111111
000000000101100111
111111111100110001
111111111010011110
000000000100000010
111111111111110101
000000000110111011
000000000010010001
000000000100010000
111111111110100101
111111111100100110
000000000011101010
111111111100010000
000000000000100011
000000000000000011
000000000100000011
111111111101001011
000000000110110000
000000000001011001
111111111110000101
000000000000010110
000000000000111010
111111111001100100
111111111100001011
000000000011101001
111111111111011001
111111111011000110
000000000010011011
000000000001010111
111111111110001000
111111111011001001
000000000000001010
000000000000111000
111111110110100110
000000000010011001
000000001000101010
111111111011100101
111111111000111011
000000001010000010
111111111100110101
000000000111111011
111111111010000001
000000000000110010
111111111100110111
000000000001011001
000000000010100101
000000000000000101
000000000011000001
111111111111100010
000000000101100011
000000001010001111
000000000110111111
000000000010011001
000000000110110110
000000001001010101
000000000011110011
111111111110011101
000000000011101110
111111111110100001
111111111111011001
000000000011111001
111111111111000010
000000000101101111
000000000101001110
000000000110010011
111111111100111111
111111110101001100
000000000101011000
111111111110010001
000000000010001000
111111110101010000
111111111011001100
000000001001000011
111111111100010110
111111111110010111
111111111111010001
111111111100100011
000000000101010100
000000000001110100
000000000010010011
111111111100011011
000000000001101001
000000000011110010
000000000000001101
000000000100110101
111111111110011100
111111111011010001
111111110110111011
111111111100000001
111111111110011001
000000000000011100
000000001001000010
000000000011010001
000000000101000010
000000000100001000
111111110101011101
000000001000001000
111111111011111001
111111111100010010
111111111111101010
000000000001011100
000000000001011110
000000000110101100
111111111111110000
000000000100101000
111111111000100100
111111111101100111
111111111101100000
000000000000011111
000000000101101110
111111111000111110
000000001000000011
000000001000001011
000000000001011100
111111111111010111
000000000100100111
000000000000001011
000000000010110101
000000000110101111
000000000110001000
111111111100111111
000000000001111000
111111111101101100
111111111111000011
111111111011111110
000000000001100111
111111110110010101
000000000000111001
000000000111101110
000000000010111001
111111111101101111
000000000110010010
111111111110001101
000000000011011010
111111111111110111
111111111001011001
111111111101101101
111111111001101110
111111110011000000
000000001000011111
111111111101000100
000000000011110110
111111111001010011
111111111110111110
000000001100111110
111111111111010010
111111111110000011
000000000000111001
111111111110001100
000000000001101101
111111110111110100
000000000001010111
111111111110111010
111111111111110001
111111111101010000
000000000010110100
000000000100010010
000000000111101011
000000000001101001
111111110110110011
000000000011101001
111111111101110000
000000000100001000
111111111111011111
111111111111011111
000000000000011100
000000000001110001
111111111101000001
000000000000000101
000000000000010100
111111111110001111
000000000000110000
111111110110010100
111111111101000110
000000000000000011
000000000000000010
111111111111001001
000000000000000001
000000000010110110
000000000000000100
000000000011111111
111111111100110010
111111111110100000
111111111110000111
111111111011111010
111111111111101110
000000000011101011
000000000000110000
111111111111010111
111111111111000101
000000000000011010
000000000000100001
000000000000000011
111111111110001110
111111111011000011
111111111001011110
111111111100101111
111111111110010010
000000000011100111
111111111111101001
111111111100011111
000000000010001101
000000000010111101
000000000000111101
111111111101101111
111111111110000000
000000000100101001
111111111001011000
000000000001001111
000000000100110010
111111111110111100
111111111111110000
000000000010110011
000000000011001011
111111111101010110
000000000011001001
111111111111101010
111111111101100011
111111111100001100
111111111110100101
111111111101101000
111111111111011000
000000000000100011
000000000001001010
111111111111100000
000000000010000110
111111111111100000
000000000001001001
000000000001011111
111111111011011010
000000000000111111
000000000001110011
111111111111011011
000000000010111000
111111111110010001
111111110111001000
000000000100101101
111111111010100010
000000000000001001
111111111111011100
000000000000110000
111111111100110100
000000000001101110
111111111111000000
111111111100111111
111111111110001010
000000000010000010
000000000000001101
111111111111000000
000000000010100001
111111110111011000
000000000010100000
000000000001101100
111111111110011001
111111111100001000
111111111111101000
000000000010101100
111111111111001100
000000000010111011
000000000010110010
000000000000001000
111111111111111010
111111111011011011
111111111010101111
111111111110010010
111111111111001111
111111111110000100
000000000000001100
111111111011110000
111111111111011101
000000000000010011
000000000010110010
000000000101000110
000000000110110100
000000000100000100
000000000011001100
000000000101001111
000000000001000110
000000000001100000
111111111111000010
000000000010011111
111111111101001101
111111111010001100
111111111110001001
000000000101000001
000000000010010000
111111111010100010
111111111110000100
111111111111100101
000000000001010111
000000000011010101
000000000111011011
000000000010011101
000000000011111010
000000000110100101
000000000010100100
000000000100001110
000000000100001000
000000000011000101
111111111110111000
000000000000001110
000000000010001010
111111111111010000
000000000001010111
111111111101101001
000000000010011111
111111111001101111
000000000000110101
111111111110110001
111111111110110011
111111111110100000
000000000000011001
000000000000000100
000000000001001100
000000000000101111
111111111101101011
000000000001001000
000000000000110000
111111111100010001
000000000011010111
000000000011000101
000000000101001111
000000000001110101
111111111100100010
111111111010010001
111111111110111001
111111111100001101
111111111011010011
000000000010100000
000000000000001010
000000000001000111
111111111011110100
111111111111011011
111111111111101011
111111111101111011
111111111010100001
111111111101110000
111111111101100010
000000000000010001
000000000011110001
000000000001000110
000000000000101001
000000000000100101
000000000010011011
111111111111110111
111111111000101011
111111111100010101
000000000000010001
000000000000010001
000000000000100000
111111111111000111
111111111101001111
000000000011001111
000000000010101111
111111111111010111
000000000001111111
000000000000101100
000000000100110010
000000000010000110
000000000001001000
111111111110010100
000000000010101111
000000000001100100
000000000101000001
000000000010010010
000000000100000000
000000000001001001
000000000001010111
000000000011100110
000000000100001110
111111111111101111
111111111101011100
111111111111011100
111111111010001010
000000000000011110
111111111101110100
000000000011101000
111111111100110001
000000000000110010
000000000011011000
000000000010010100
111111111111101101
111111111111110011
000000000010000100
000000000010100010
111111111000010000
000000000100010100
000000000001011000
111111111110100011
111111111110010000
111111111101111011
000000000001100000
000000000001011001
111111111110000100
000000000001101101
000000000000010110
111111111011000000
000000000001111001
000000000001100011
000000000010101101
000000000011101111
000000000001010110
111111111110110100
000000000000101000
111111111001110000
111111111111100001
111111111111110011
000000000001000000
000000000010111100
000000000001101111
000000000001000100
111111111111110001
111111111011100111
111111111111100111
111111111000110010
111111111100010001
000000000010011100
111111111100010101
000000000000000010
111111111101010100
000000000011101001
000000000010110011
111111111100101011
000000000001100101
000000000011000011
111111111101011101
000000000010100010
000000000001010011
111111111101011111
111111111100000000
111111111101011000
000000000000111000
000000000000010011
000000000011001010
000000000001110001
000000000001101110
000000000000111100
000000000011000111
111111111110111001
000000000001100100
111111111111101100
111111111100111010
000000000000010110
111111111110011101
000000000010010000
111111111110001010
000000000010010101
000000000000100111
111111111110101110
111111111111001100
000000000001101110
000000000000010100
000000000000011110
000000000000001101
111111111111110010
000000000000001011
000000000000001001
111111111111111110
111111111111111110
111111111111110111
000000000000000001
111111111111111111
000000000000001110
000000000000000010
111111111111110011
111111111111101010
000000000000000011
000000000000000001
111111111111111111
111111111111111101
000000000000000101
111111111111111011
000000000000001000
000000000000001101
111111111111110001
000000000000011111
111111111111111111
000000000000011010
000000000000000110
111111111111111100
000000000000001010
111111111111110100
000000000000001001
000000000000001010
000000000000000010
000000000000000010
111111111111110110
000000000000001000
000000000000001100
000000000000010100
000000000000001110
111111111111111110
000000000000000110
000000000000001001
111111111111110111
111111111111111001
111111111111110011
000000000000010000
000000000000000100
000000000000001001
000000000000000000
111111111111110110
111111111111101110
111111111111110001
000000000000001010
000000000000001001
000000000000001110
000000000000010010
000000000000000101
000000000000000100
111111111111111100
000000000000010111
000000000000011010
000000000000001011
000000000000000001
000000000000001110
000000000000000100
000000000000001111
000000000000001101
000000000000000100
111111111111110100
111111111111110111
111111111111101100
000000000000001101
111111111111110010
111111111111110110
111111111111110100
111111111111110001
111111111111100111
111111111111101101
111111111111111111
000000000000000010
111111111111110011
111111111111110100
111111111111101110
111111111111110100
111111111111111001
000000000000000001
000000000000000001
000000000000010010
000000000000010110
000000000000001000
111111111111111001
000000000000000100
111111111111111010
111111111111111101
111111111111100110
000000000000001010
111111111111111001
111111111111110110
111111111111110110
111111111111111111
000000000000001111
111111111111111110
000000000000000101
000000000000000001
111111111111101101
111111111111101111
111111111111111000
000000000000000000
111111111111101101
000000000000000110
111111111111110011
000000000000001110
000000000000011001
000000000000010100
000000000000010100
111111111111111010
000000000000001010
111111111111111001
000000000000000111
000000000000000001
000000000000001100
000000000000000010
000000000000000100
000000000000000111
000000000000000011
000000000000010011
111111111111111110
111111111111111101
000000000000000001
111111111111110100
000000000000001110
111111111111111001
000000000000000100
111111111111110101
111111111111110101
000000000000001000
111111111111101011
000000000000000000
000000000000010011
000000000000010000
111111111111111001
111111111111111000
000000000000010011
000000000000010100
000000000000001110
111111111111011010
000000000000001101
111111111111110010
000000000000100000
000000000000100000
000000000000000101
000000000000001100
000000000000011000
111111111111111000
000000000000001010
111111111111101101
111111111111111110
000000000000000011
000000000000000100
000000000000001100
111111111111110011
111111111111111000
111111111111111101
111111111111111111
111111111111111110
000000000000001100
000000000000001101
111111111111110111
111111111111111010
000000000000011010
111111111111110101
111111111111111010
111111111111111110
000000000000001001
111111111111110001
111111111111101110
111111111111101001
111111111111111111
000000000000000000
111111111111101110
111111111111111100
111111111111100011
000000000000000001
111111111111101111
111111111111111010
111111111111111000
000000000000000101
000000000000001000
111111111111101110
111111111111101101
000000000000001000
000000000000000111
000000000000001000
111111111111111111
000000000000001111
111111111111110101
111111111111101001
111111111111110101
000000000000001110
000000000000000110
000000000000011100
111111111111111111
111111111111111010
000000000000010111
111111111111110000
111111111111111011
000000000000000111
111111111111111010
111111111111111001
000000000000000001
111111111111111011
111111111111110011
000000000000001110
111111111111111101
111111111111100101
111111111111111011
111111111111011101
111111111111111001
111111111111100101
111111111111111101
000000000000001000
111111111111111001
111111111111100111
111111111111101010
000000000000010001
111111111111111000
000000000001101011
000000000000000001
000000000000000011
000000000000000000
111111111111110111
111111111111111111
111111111111110101
111111111111111110
111111111111111001
111111111111111111
111111111111111001
111111111111111111
111111111111110000
111111111111110000
111111111111100111
111111111111101101
000000000000001011
111111111111110101
000000000000001000
000000000000000000
000000000000000001
000000000000000110
111111111111110011
111111111111101101
111111111111110100
000000000000010100
000000000000000110
000000000000001010
000000000000000001
111111111111111110
000000000000000000
000000000000000111
000000000000000011
111111111111110100
111111111111111001
000000000000000111
111111111111111001
000000000000000111
000000000000000111
000000000000000000
000000000000000100
000000000000000000
111111111111110100
000000000000000000
111111111111110010
111111111111111000
111111111111111000
000000000000000100
000000000000000111
111111111111101101
111111111111100111
000000000000000001
000000000000010101
000000000000100010
000000000000011001
000000000000010111
000000000000000011
000000000000010100
111111111111111000
000000000000010011
000000000000000111
111111111110110101
000000000000101011
000000000000101111
111111111111101111
000000000000010011
000000000000101110
000000000001000001
000000000001100101
111111111111010110
000000000000011100
000000000000101100
111111111110111110
111111111111111101
111111111111110100
111111111111110110
111111111111110101
111111111111110110
111111111111110111
111111111111111000
111111111111110100
000000000000000101
000000000000000101
000000000000000110
000000000000000100
000000000000000010
111111111111111101
000000000000000001
111111111111110111
111111111111111110
111111111111111010
000000000000000000
111111111111111111
111111111111111111
111111111111111111
000000000000000101
000000000000000010
000000000000100011
111111111111110111
000000000000001111
000000000000100000
000000000010100011
000000000100011110
000000000001000001
111111111110111101
000000000010010011
000000000100001100
000000000001101011
000000000000001111
000000000000000011
000000000000000000
000000000000000100
000000000000001010
000000000000000011
111111111111111110
000000000000000100
000000000000000000
111111111111111010
111111111111110100
000000000000000010
111111111111111100
111111111110111011
000000000000000011
000000000100011101
000000000000100010
111111111111011001
000000000001000100
000000000000100010
000000000010111101
111111111111011010
111111111111110100
111111111111010100
111111111111011010
111111111111000101
000000000000011010
000000000001100101
000000000000000010
000000000010110001
000000000000010000
000000000010100001
000000000000001100
000000000000100111
000000000011110101
000000000100101000
000000000011000100
111111111111111100
111111111111110110
111111111111110011
111111111111110100
000000000000000110
111111111111111100
111111111111111110
111111111111111000
111111111111111101
000000000000000001
000000000000000001
000000000000000000
111111111110111000
000000000001010110
000000000001010110
000000000000010100
111111111111101111
111111111111111011
111111111110111110
111111111111010001
000000000000101110
111111111111100100
000000000000101101
111111111111101010
111111111111111101
111111111111110110
000000000000000000
111111111111110110
111111111111111001
111111111111111100
000000000000000001
000000000000000110
111111111111110110
111111111111110101
111111111111110101
111111111111111001
000000000000000001
000000000000000011
000000000000000111
000000000000000111
111111111111111101
111111111111111011
111111111111110001
111111111111110011
000000000000001000
111111111111111110
111111111111111110
000000000000000111
000000000000001001
000000000000000100
000000000000000010
000000000000000000
111111111111111000
111111111111111100
111111111111111010
111111111111111100
111111111111110110
000000000000000100
111111111111111111
111111111111111000
111111111111110111
111111111111111101
111111111111111100
111111111111111000
111111111111111010
111111111111111001
111111111111110111
111111111111101111
111111111111111000
111111111111110111
000000000000000001
000000000000000110
111111111111110110
000000000000000110
000000000000000011
000000000000000011
000000000000000001
000000000000000010
000000000000000011
000000000000000001
111111111111111111
111111111111111111
000000000000000101
000000000000001000
000000000000000011
000000000000000010
000000000000000001
000000000000000100
111111111111111101
000000000000000001
000000000000000011
000000000000000010
111111111111111101
111111111111101111
111111111111111110
000000000000000000
111111111111111011
000000000000000010
000000000000000011
000000000000010001
111111111111111010
000000000000000100
111111111111111011
000000000000000001
111111111111111100
111111111111111100
000000000000000000
000000000000000011
