111111111000111001
000000000101010000
111111110011000010
111111111101001000
111111111011111100
111111111011010101
000000000010111011
000000000010010011
000000000000110001
000000000111111101
111111111000011110
111111111100010011
000000000010000100
111111111001001000
000000001101110001
111111110011011000
111111110001010101
000000001010011101
000000000001100000
111111111101000000
111111111111011000
000000000001100011
111111111100001110
000000000110001010
111111111111100000
111111111111101001
000000000000101101
111111111111110001
000000000001010001
111111111001000010
000000000010010011
000000000101100110
000000000010011101
111111111001001100
000000000111111000
111111111110110100
000000000000000000
000000000000000000
000000000000000000
000000000000000000
000000000000000000
000000000000000000
000000000000000000
000000000000000000
000000000000000000
000000000000000000
000000000000000000
000000000000000000
000000000000000000
000000000000000000
000000000000000000
000000000000000000
000000000000000000
000000000000000000
000000000000000000
000000000000000000
000000000000000000
000000000000000000
000000000000000000
000000000000000000
000000000000000000
000000000000000000
000000000000000000
000000000000000000
000000000000000000
000000000000000000
000000000000000000
000000000000000000
000000000000000000
000000000000000000
000000000000000000
000000000000000000
000000000000000000
000000000000000000
000000000000000000
000000000000000000
000000000000000000
000000000000000000
000000000000000000
000000000000000000
000000000000000000
000000000000000000
000000000000000000
000000000000000000
000000000000000000
000000000000000000
000000000000000000
000000000000000000
000000000000000000
000000000000000000
000000000000000000
000000000000000000
000000000000000000
000000000000000000
000000000000000000
000000000000000000
000000000000000000
000000000000000000
000000000000000000
000000000000000000
000000000000000000
000000000000000000
000000000000000000
000000000000000000
000000000000000000
000000000000000000
000000000000000000
000000000000000000
000000000000000000
000000000000000000
000000000000000000
000000000000000000
000000000000000000
000000000000000000
000000000000000000
000000000000000000
000000000000000000
000000000000000000
000000000000000000
000000000000000000
000000000000000000
000000000000000000
000000000000000000
000000000000000000
000000000000000000
000000000000000000
000000000000000000
000000000000000000
000000000000000000
000000000000000000
000000000000000000
000000000000000000
000000000000000000
000000000000000000
000000000000000000
000000000000000000
000000000000000000
000000000000000000
000000000000000000
000000000000000000
000000000000000000
000000000000000000
000000000000000000
000000000000000000
000000000000000000
000000000000000000
000000000000000000
000000000000000000
000000000000000000
000000000000000000
000000000000000000
000000000000000000
000000000000000000
000000000000000000
000000000000000000
000000000000000000
000000000000000000
000000000000000000
000000000000000000
000000000000000000
000000000000000000
000000000000000000
000000000000000000
000000000000000000
000000000000000000
000000000000000000
000000000000000000
000000000000000000
000000000000000000
000000000000000000
000000000000000000
000000000000000000
000000000000000000
000000000000000000
000000000000000000
000000000000000000
000000000000000000
000000000000000000
000000000000000000
000000000000000000
000000000000000000
000000000000000000
000000000000000000
000000000000000000
000000000000000000
000000000000000000
000000000000000000
000000000000000000
000000000000000000
000000000000000000
000000000000000000
000000000000000000
000000000000000000
000000000000000000
000000000000000000
000000000000000000
000000000000000000
000000000000000000
000000000000000000
000000000000000000
000000000000000000
000000000000000000
000000000000000000
000000000000000000
000000000000000000
000000000000000000
000000000000000000
000000000000000000
000000000000000000
000000000000000000
000000000000000000
000000000000000000
000000000000000000
000000000000000000
000000000000000000
000000000000000000
000000000000000000
000000000000000000
000000000000000000
000000000000000000
000000000000000000
000000000000000000
000000000000000000
000000000000000000
000000000000000000
000000000000000000
000000000000000000
000000000000000000
000000000000000000
000000000000000000
000000000000000000
000000000000000000
000000000000000000
000000000000000000
000000000000000000
000000000000000000
000000000000000000
000000000000000000
000000000000000000
000000000000000000
000000000000000000
000000000000000000
000000000000000000
000000000000000000
000000000000000000
000000000000000000
000000000000000000
000000000000000000
000000000000000000
000000000000000000
000000000000000000
000000000000000000
000000000000000000
000000000000000000
000000000000000000
000000000000000000
000000000000000000
000000000000000000
000000000000000000
000000000000000000
000000000000000000
000000000000000000
000000000000000000
000000000000000000
000000000000000000
000000000000000000
000000000000000000
000000000000000000
000000000000000000
000000000000000000
000000000000000000
000000000000000000
000000000000000000
000000000000000000
000000000000000000
000000000000000000
000000000000000000
000000000000000000
000000000000000000
000000000000000000
000000000000000000
000000000000000000
000000000000000000
000000000000000000
000000000000000000
000000000000000000
000000000000000000
000000000000000000
000000000001101110
000000001010101100
111111111100100010
000000000010011010
000000000010011110
111111111100110010
000000000100101001
111111110101010011
111111111111001010
111111111011011110
000000000011100010
111111111011001111
111111111100111111
111111111110101100
111111111110100000
000000000001010001
000000000001011000
000000000000010110
000000001101101110
111111111111110011
111111111011110101
111111111101110000
000000000011001110
000000000000100111
111111111111001111
111111111101010110
111111111011011101
111111111110000001
000000000000111101
111111110101101101
000000000010100000
000000000100101101
000000000100011010
111111110011100011
000000000011000110
000000000100010000
000000000001000001
111111111011011010
111111111010000101
111111111110100011
000000000011011011
000000000001110110
000000000110110110
000000001000010000
000000000001100110
111111111011001101
111111111001111001
000000000000001110
111111111110001010
111111111001111010
000000000111001010
111111111001000100
000000000101100100
111111111100100010
000000000101110010
111111111101001011
000000000011101001
000000001101011011
000000001000010010
000000000001100011
111111111111100101
000000000000101011
000000000100111000
111111110111011111
111111111110101111
111111111110011111
111111111011000101
111111111111100001
000000000101100001
000000000010101000
000000001000011101
111111111111110011
111111110101111111
000000000101101100
111111111100101101
111111111101111100
000000000101011001
111111111101111101
111111111111010011
000000000110000011
000000000001011000
111111111110010101
111111111011001100
000000000110010011
000000000001101001
111111111010001110
000000000000011100
000000001000000001
111111111110000001
111111111101110001
000000001000001011
111111110111111001
000000001001111100
111111111011011000
111111111101001011
000000000010100110
000000000010011001
000000000110100011
000000000100011000
000000000001000001
000000000010100000
111111111001100110
000000000010011001
000000000100011111
000000001000001010
000000000101000011
000000000110010101
000000000011001100
111111111001101100
000000000011110110
111111110110100001
000000001101010000
111111111100100010
000000000001110100
000000000110100011
111111110101010110
000000000010010000
000000000000000001
111111111000100100
111111111110010011
111111111011111110
111111111111011110
111111111111010011
000000000001001010
111111111001101110
000000000010100000
000000000000001011
111111111010101111
000000000010111010
111111111100101001
111111111101010011
111111110111011101
111111111110100110
000000000001011011
000000000000110100
000000000000100010
000000000000101010
111111111110010011
000000000001011010
111111111110000101
111111111111110001
111111110111000101
111111110111000001
000000000100000011
111111111110101011
111111111110101010
000000000000111010
111111111111000011
111111111110111000
111111111111000110
111111111000001110
000000000000000011
000000000101000000
111111111110110011
111111111001000011
000000000100101111
000000000111110110
111111111000110100
000000000011010110
111111111110101010
000000000010110010
111111111100110000
000000000010101000
111111111100100010
111111111010010111
111111111101001010
000000000101001000
111111110110001101
111111110110000001
111111111111111110
000000000010011101
000000000011001000
000000000001110010
000000000100000011
000000000011110111
000000000110010000
000000001010010101
000000000001010101
000000000110010000
000000000101000100
000000000001000101
111111111100110111
111111111100110101
000000000100111111
000000000001010000
000000000111111010
000000000101001011
000000000001101101
000000000010000110
000000000011110010
111111111111010111
111111111101100000
111111111101010111
111111111101101100
000000000110101011
111111110001011001
000000000101010000
111111111110011001
000000000001010100
000000000100011001
000000000101010011
000000000011010000
111111111111110100
111111111111110101
000000000000101100
000000000000001101
111111111111110110
000000001000100100
111111111011011111
111111111011001110
000000000001100100
000000000010011100
000000000010101111
111111111011011100
000000000010111111
000000000000101000
111111111001001101
111111111101000011
000000001100110010
111111111100110111
000000000001101101
111111111100001110
000000000100100100
111111110100001011
000000000100001101
111111111001100111
111111111111000100
111111111111001110
111111111101000010
111111111001110010
000000000100101110
000000000110101111
000000000011101001
111111111101110101
000000000111001111
111111110110001010
000000001000111001
000000001010100010
000000000010011001
000000000101010110
000000000100011011
111111111101110100
111111111111010000
000000000110101011
111111111110101010
111111110111001101
000000000011110111
111111111111000111
000000000010010010
000000000001101010
111111110111000000
000000000010101001
000000000010011111
000000000001010101
000000000000001011
000000000000111110
111111111000100010
000000000110110100
111111111100101100
000000000000001011
111111111101101110
000000000001010110
000000000000001101
111111111100010100
111111111011101001
111111111001001000
000000000010011100
111111111111100001
000000000101010011
111111110110000010
000000000001111000
000000000000110000
111111111100010010
111111111110100111
000000000100110101
000000000001111001
111111111110111100
111111111111111101
000000000100001100
000000000000101010
000000000011110101
000000001001000110
000000000101100101
000000000101001010
111111111100110100
000000000000101011
000000000000111000
111111111011111110
111111111011111110
111111110111100100
000000000001101110
111111111110011100
000000000111000000
000000000000111010
000000000100000110
000000000011000011
111111111111111010
000000000001000110
000000000100101010
000000001000000101
000000000000101011
111111111111011100
111111111100101110
000000000001010001
111111111010110010
111111111110011100
000000000010011000
000000000101111010
000000000001100100
000000000000011110
111111111100110001
000000000001100011
111111111100000110
111111111101001101
111111111010011011
000000000000110110
111111111011111111
111111110110001000
000000000000101111
000000000000001101
000000000011010111
111111111101111000
000000000001100100
000000000110001101
111111111110101100
111111111110011100
000000000010001000
111111111011110110
000000000100001000
000000000001001000
000000000011101000
000000000001000011
111111111111100110
000000000000101010
111111111111110101
000000000000110001
000000000001110100
000000000110010101
000000000011011011
000000000110011111
111111110111111010
111111111100010111
111111111110110100
000000000011000001
111111110101110011
000000000010111000
000000000000100001
000000000100011101
000000000001000010
000000000000110010
111111111111110100
111111111100100001
111111111110100111
000000000101111101
111111111100000111
000000000100111010
111111111100100100
000000000011001101
000000000011111110
000000000100011110
000000000010110110
000000000010011000
111111110110111011
000000000010101101
000000000000000111
111111111011100110
111111111101001111
000000000000001100
000000000100100110
111111111011110000
000000000000010100
000000000000111101
000000000100011101
111111111010110111
000000000100100111
111111111110111001
111111110001010001
111111111000111110
111111111011001010
111111111110001101
111111111100110101
000000000010011100
111111111111100100
111111111110100010
111111111000000010
111111111100001000
000000000100011001
111111111111001100
111111111101000000
111111111110100011
111111111111001010
111111111000100011
111111111101001010
000000000110001011
000000000001110011
111111111001100001
000000000010111110
000000000011010111
111111111110000001
000000000110101011
000000001010101110
111111111101100001
000000000101001110
000000000011000011
000000000001110101
111111111111100101
111111111000101111
111111111010010111
000000000001001110
000000000000100110
000000000010100100
111111111110010010
000000000010001001
000000000010111101
111111111000110010
000000001010100000
111111111011110010
000000000101111111
000000000011110110
000000000010101010
000000000011111010
000000001010101000
000000000101001010
111111111100111101
111111111010101110
111111111101110001
000000000000001001
000000001000010101
111111111011100001
111111111110000110
111111111100010101
111111111000001101
111111111001110110
000000000100111000
111111111100000010
111111111111000100
000000000011011011
000000000011001001
111111111111000101
111111111001100101
000000000111100010
111111111110100111
111111111111010011
111111111001100010
111111111011100101
000000000010000011
000000000000011010
000000000010110101
111111111011010001
000000000101010101
111111111110010000
000000000010100000
000000000011100001
000000000100111011
111111111101010001
111111111011110001
000000001001011100
000000000011100000
000000000010101101
111111111001100101
000000000010111010
000000000110011011
111111111001000001
111111111101001001
000000000001110101
000000000101110111
000000000011010110
000000001001101010
000000000100101011
000000000000100011
111111111010001101
000000000000110010
000000000010001010
000000000001010110
111111111010011111
111111111110101000
111111111101100100
111111111110010000
000000000011101001
111111111101110100
000000000010111111
111111111111010001
000000000111011011
000000000101000111
000000000101100101
111111111101010011
000000001000100011
000000000101001100
000000000001000000
000000000110010110
000000000100111001
000000000110001001
000000000111000001
111111111100101110
000000000111001110
111111111110011110
111111111111100110
111111111010101010
000000000010010110
000000000011011011
000000000011000101
111111111111110110
111111110110110100
000000000010011110
111111111000111101
000000000011011010
111111111101000011
000000000000010001
111111111111111011
000000000000100111
111111111101001000
000000000001100010
111111111110100111
111111110101000110
111111110111011011
111111111100001000
111111111111001111
111111111011001110
111111111110100110
000000000000011110
000000000010100100
000000000011011000
000000000010101010
111111110111111000
000000001001101011
000000000011001010
000000000110011110
111111111111001101
000000000110100010
000000000000100101
111111111101111001
111111111101011000
111111111100100001
111111111100110111
000000001000010101
000000000000010000
000000000000010100
000000000111111001
111111111010000111
111111111111011001
111111111101010101
000000000001010101
111111111101000101
111111110111110100
111111111101110111
000000000101001101
000000000100010011
111111111110100110
000000000001001001
111111111101001101
111111111110001011
000000000001011011
111111111101100110
000000000001100011
000000000011110111
111111111111100111
000000000000111000
000000000111101100
111111111111110100
000000000011011110
000000000000010101
000000000110011101
111111111110001011
111111111101100111
000000000001100101
000000000000010010
111111110110001111
000000000000001101
111111111101100010
000000000110110111
000000000000010010
000000000001010000
000000000111011100
000000000011010101
111111111010111111
111111111101011011
000000000000010001
111111111111111110
111111111111110100
000000000000000011
000000000000000000
000000000000000010
000000000000010100
111111111111111010
111111111111101011
000000000000010100
000000000000000011
111111111111110011
111111111111111001
111111111111110100
000000000000001000
000000000000001001
000000000000000000
000000000000010110
111111111111110011
111111111111111001
111111111111110111
111111111111110010
000000000000011000
000000000000001000
111111111111111011
000000000000000110
000000000000001001
111111111111111000
000000000000000001
000000000000001001
111111111111110101
000000000000001010
000000000000000010
111111111111111100
000000000000000101
000000000000010101
000000000000010000
000000000000001000
000000000000000011
000000000000001011
000000000000000001
000000000000001100
111111111111111000
111111111111111010
000000000000001110
000000000000010100
000000000000000100
000000000000000010
111111111111110010
000000000000000111
000000000000010010
000000000000001010
111111111111111011
111111111111110001
000000000000000100
000000000000001100
000000000000000011
000000000000001101
000000000000000110
000000000000000110
000000000000001101
000000000000001010
000000000000001101
111111111111110110
000000000000010001
000000000000001100
000000000000001110
000000000000010001
000000000000000001
111111111111111001
000000000000001011
111111111111100010
000000000000010000
000000000000001000
000000000000000101
111111111111111110
000000000000000000
111111111111110001
000000000000010111
000000000000000000
111111111111101100
111111111111110110
111111111111111110
000000000000001111
000000000000000010
000000000000000100
000000000000001100
111111111111111001
000000000000001011
000000000000001011
111111111111111110
000000000000001000
111111111111111010
111111111111111011
000000000000000111
111111111111111100
000000000000001000
000000000000001000
111111111111111011
111111111111110000
111111111111111010
111111111111110011
111111111111111100
000000000000000100
000000000000000110
000000000000000110
111111111111110011
000000000000000100
111111111111111010
111111111111111101
000000000000000010
000000000000010011
000000000000001100
000000000000000011
111111111111110100
111111111111111111
111111111111110010
111111111111110000
111111111111111101
000000000000001011
111111111111111011
111111111111111100
111111111111111100
000000000000000100
111111111111101001
111111111111111100
000000000000001101
000000000000000101
000000000000001011
111111111111111011
111111111111111100
111111111111111100
111111111111110001
000000000000010000
111111111111110111
111111111111110111
000000000000001011
111111111111111000
111111111111101001
111111111111111111
000000000000001010
111111111111111010
000000000000000010
000000000000001101
111111111111101110
111111111111101111
000000000000110110
000000000000000100
111111111111111001
000000000000000110
000000000000011100
000000000000000111
000000000000010100
111111111111110111
000000000000000100
111111111111110011
111111111111110010
000000000000001010
000000000000000001
111111111111110100
111111111111111011
000000000000010110
111111111111100001
111111111111110011
000000000000000011
000000000000000111
000000000000000100
000000000000000110
000000000000010101
111111111111110100
000000000000011010
111111111111100101
111111111111110100
111111111111111011
111111111111111111
000000000000010010
000000000000000011
111111111111110101
111111111111110111
000000000000000011
111111111111110100
000000000000000111
000000000000001100
000000000000100110
111111111111110110
111111111111111001
000000000000001101
000000000000000000
000000000000010010
111111111111100110
111111111111101011
000000000000001100
000000000000010000
111111111111110010
000000000000001010
111111111111100100
000000000000000000
000000000000001111
000000000000010000
000000000000001011
111111111111111001
000000000000000000
111111111111111100
111111111111100110
111111111111110100
000000000000010010
000000000000001101
000000000000001001
000000000000010011
000000000000001010
000000000000001101
000000000000010001
000000000000010001
000000000000010000
000000000000000011
000000000000001111
111111111111111101
000000000000000001
000000000000001001
000000000000001010
111111111111111101
000000000000000000
000000000000010011
111111111111101101
000000000000000110
000000000000110111
111111111111111110
111111111111111110
111111111111110101
000000000000000000
000000000000000101
111111111111110111
111111111111101111
000000000000000001
111111111111110110
000000000000000101
000000000000001011
000000000000000110
000000000000001100
111111111111111010
111111111111110101
000000000000000001
000000000000010001
000000000000001101
000000000000000110
111111111111101101
000000000000000100
111111111111111101
111111111111101111
111111111111101010
111111111111100110
111111111111100010
000000000000000100
000000000000000000
111111111111111111
111111111111111101
111111111111111001
111111111111111011
000000000000001011
000000000000010001
000000000000010100
111111111111111001
111111111111110110
111111111111111100
000000000000000101
000000000000001010
000000000000000011
111111111111111001
111111111111111110
000000000000000100
111111111111111010
111111111111111110
111111111111110001
000000000000000100
000000000000010000
111111111111101111
111111111111101011
111111111111011111
111111111111110101
000000000000001001
000000000000000101
000000000000001000
000000000000000101
000000000000001001
000000000000010111
000000000000001001
000000000000001000
111111111111111111
000000000000000000
000000000000000000
000000000000000000
000000000000000000
000000000000000000
000000000000000000
000000000000000000
000000000000000000
000000000000000000
000000000000000000
000000000000000000
000000000000000000
000000000000000000
000000000000000000
000000000000000000
000000000000000000
000000000000000000
000000000000000000
000000000000000000
000000000000000000
000000000000000000
000000000000000000
000000000000000000
000000000000000000
000000000000000000
000000000000000000
000000000000000000
000000000000000000
000000000000000000
000000000000000000
000000000000000000
000000000000000000
000000000000000000
000000000000000000
000000000000000000
000000000000000000
000000000000000000
000000000000000000
000000000000000000
000000000000000000
000000000000000000
000000000000000000
000000000000000000
000000000000000000
000000000000000000
000000000000000000
000000000000000000
000000000000000000
000000000000000000
000000000000000000
000000000000000000
000000000000000000
000000000000000000
000000000000000000
000000000000000000
000000000000000000
000000000000000000
000000000000000000
000000000000000000
000000000000000000
000000000000000000
000000000000000000
000000000000000000
000000000000000000
000000000000000000
000000000000000000
000000000000000000
000000000000000000
000000000000000000
000000000000000000
000000000000000000
000000000000000000
000000000000000000
000000000000000000
000000000000000000
000000000000000000
000000000000000000
000000000000000000
000000000000000000
000000000000000000
000000000000000000
000000000000000000
000000000000000000
000000000000000000
000000000000000000
000000000000000000
000000000000000000
000000000000000000
000000000000000000
000000000000000000
000000000000000000
000000000000000000
000000000000000000
000000000000000000
000000000000000000
000000000000000000
000000000000000000
000000000000000000
000000000000000000
000000000000000000
000000000000000000
000000000000000000
000000000000000000
000000000000000000
000000000000000000
000000000000000000
000000000000000000
000000000000000000
000000000000000000
000000000000000000
000000000000000000
000000000000000000
000000000000000000
000000000000000000
000000000000000000
000000000000000000
000000000000000000
000000000000000000
000000000000000000
000000000000000000
000000000000000000
000000000000000000
000000000000000000
000000000000000000
000000000000000000
000000000000000000
000000000000000000
000000000000000000
000000000000000000
000000000000000000
000000000000000000
000000000000000000
000000000000000000
000000000000000000
000000000000000000
000000000000000000
000000000000000000
000000000000000000
000000000000000000
000000000000000000
000000000000000000
000000000000000000
000000000000000000
000000000000000000
000000000000000000
000000000000000000
000000000000000000
000000000000000000
000000000000000000
000000000000000000
000000000000000000
000000000000000000
000000000000000000
000000000000000000
000000000000000000
000000000000000000
000000000000000000
000000000000000000
000000000000000000
000000000000000000
000000000000000000
000000000000000000
000000000000000000
000000000000000000
000000000000000000
000000000000000000
000000000000000000
000000000000000000
000000000000000000
000000000000000000
000000000000000000
000000000000000000
000000000000000000
000000000000000000
000000000000000000
000000000000000000
000000000000000000
000000000000000000
000000000000000000
000000000000000000
000000000000000000
000000000000000000
000000000000000000
000000000000000000
000000000000000000
000000000000000000
000000000000000000
000000000000000000
000000000000000000
000000000000000000
000000000000000000
000000000000000000
000000000000000000
000000000000000000
000000000000000000
000000000000000000
000000000000000000
000000000000000000
000000000000000000
000000000000000000
000000000000000000
000000000000000000
000000000000000000
000000000000000000
000000000000000000
000000000000000000
000000000000000000
000000000000000000
000000000000000000
000000000000000000
000000000000000000
000000000000000000
000000000000000000
000000000000000000
000000000000000000
000000000000000000
000000000000000000
000000000000000000
000000000000000000
000000000000000000
000000000000000000
000000000000000000
000000000000000000
000000000000000000
000000000000000000
000000000000000000
000000000000000000
000000000000000000
000000000000000000
000000000000000000
000000000000000000
000000000000000000
000000000000000000
000000000000000000
000000000000000000
000000000000000000
000000000000000000
000000000000000000
000000000000000000
000000000000000000
000000000000000000
000000000000000000
000000000000000000
000000000000000000
000000000000000000
000000000000000000
000000000000000000
000000000000000000
000000000000000000
000000000000000000
000000000000000000
000000000000000000
000000000000000000
000000000000000000
000000000000000000
000000000000000000
000000000000000000
000000000000000000
000000000000000000
000000000000000000
000000000000000000
000000000000000000
000000000000000000
000000000000000000
000000000000000000
000000000000000000
000000000000000000
000000000000000000
000000000000000000
000000000000000000
000000000000000000
000000000000000000
000000000000000000
000000000000000000
000000000000000000
000000000000000000
000000000000000000
000000000000000000
000000000000000000
000000000000000000
000000000000000000
000000000000000000
000000000000000000
000000000000000000
000000000000000000
000000000000000000
000000000000000000
000000000000000000
