000000000101000101
111111110110101011
000000000001010011
111111111001010001
111111111010111001
000000000111111010
111111111000011101
111111111111100100
111111111001001110
000000000010100010
111111110001110101
000000000110111101
000000000010110010
111111110100111010
111111111101101111
000000001110011000
111111111100000010
000000000011001011
111111111010010100
111111110011000110
000000000010000011
000000000100000001
111111111110000101
111111111010110001
000000000010110011
000000000011000110
111111111011010011
111111100110011011
111111010110001001
111111111100001000
000000000101001110
000000001001111101
111111111000100101
111111111111011110
111111111000110110
000000001000011101
000000000100100001
111111111001011010
111111111110111110
111111111010111101
000000001000001011
000000000001101101
111111111100010001
000000000010101100
000000000011110011
111111111010010011
000000000001101010
111111111100111000
000000001000010110
111111111001000000
111111111111100100
000000000100000000
111111110101100101
111111111011011100
111111111101101000
111111111000110110
000000000110101010
111111111101110100
000000000001101011
000000000011111011
111111111000000101
111111111011111000
111111111100000110
111111111101100010
000000000000101000
000000000111110010
000000000100100110
000000000110000000
000000001000011010
111111111101010110
111111111111110000
111111111110000100
000000000000101100
000000000001001110
000000000000100011
000000001101110110
111111111111101110
111111111001101101
111111111111001110
000000000001000101
000000000001011010
111111111111110010
111111111100010101
000000000100001011
111111111010111000
000000000010110100
000000000100101111
111111111111100001
111111111000111000
111111111010111111
000000001000010101
111111111111010000
000000000001100000
000000000111000111
000000000101001111
000000000110010001
000000000011100000
111111111001101010
000000000110011011
000000000001011001
000000000010000010
000000000000110011
111111111011100111
000000000000101101
000000000111000010
111111111100111100
000000000101110010
000000001000100010
111111111010101010
111111111011110101
111111111010001001
000000001001001001
000000001000011101
111111111100001110
000000000111011100
000000000100100001
000000000110001010
000000000110000101
000000000010010110
000000000011001011
000000001001010101
000000000001101100
111111111001100110
000000000011110001
111111111001011011
111111111110010011
000000000101111100
111111111101100101
111111110110001111
111111111010101010
000000000100000100
111111111101010100
000000000010010110
000000000001011001
000000000000110011
000000000001101011
111111111001100101
000000000001111110
000000000101110011
111111111111011011
000000000010111100
111111111110010100
111111111101001100
000000000011111111
111111111101111111
111111111110010000
000000000001001100
111111111100011000
111111111111011101
000000001001000000
000000000000011111
000000000111100100
111111111011000010
111111110110100010
111111111110110111
111111111000010011
000000001011000011
111111111010111111
000000000000110100
111111111100111110
000000000100010111
111111111100010010
111111111000100101
000000000101110101
111111110110100100
000000000011111001
111111110111011100
000000000100011001
111111111100110000
000000000010111111
000000000001001001
111111111010111001
000000000111101000
111111111010111010
111111111001000111
000000000000010100
111111111011101111
111111111011011101
000000000111111000
111111111010001010
111111110011011111
000000000110010000
111111111111111000
000000000000101110
111111111101100001
111111111101001011
111111110111101010
000000000110000100
111111111011110100
111111111001011010
111111111000111110
000000000101001001
111111110100000000
111111111100101110
000000001011101011
000000000000101000
111111111110110011
000000000100001110
000000000001100100
111111111100101101
111111111110000100
000000000101100000
111111111011111100
000000000001100010
000000000100110000
111111111010010110
111111111110100011
000000000101010111
000000000010101000
111111111110100011
000000001001010001
000000000011110011
000000001000000000
000000000100000100
000000000000110101
000000000100000011
000000001101011100
000000000000101010
000000000100000011
000000000110111000
000000000001010001
000000000100100010
000000000100101001
111111111110101000
000000000000101010
111111111110111100
111111111110100010
000000000010010011
111111111111010011
111111111110101011
111111111101100101
111111111011001001
111111111101101110
111111111111110000
111111111111101100
000000000011010111
000000000011110000
111111111010100010
000000000000111000
000000000011100110
111111110101101111
000000000010101110
111111111100111101
111111111111111110
000000000001111110
000000000101100100
000000001001001111
000000000101101001
000000000001011011
000000000011101111
111111111011101111
111111111110100101
000000000001000110
111111111100110110
000000000010000110
111111111000101110
111111111111100110
000000000110001100
111111111100011011
000000000110101100
111111111111001110
111111111111011100
000000000011100111
000000000101100110
000000000000010111
111111111000111011
000000000111110100
111111111100110101
111111111100110010
000000000010110001
111111111110110100
000000000001111001
111111111010110000
000000000111010011
111111111111101001
000000000111001010
000000000100111101
111111110111001001
000000000011011001
111111111110011110
111111111011100100
000000000111000000
111111111010111000
000000000110100101
000000000101110111
111111111011100110
111111111110101011
000000001000001111
111111111000110100
000000000010110111
111111111111111110
111111110101110000
000000000010000110
000000000001000000
111111111010110100
111111111111101000
000000000000011110
111111111100110111
000000000010001111
111111111010101100
000000000000000101
111111111000111001
000000000011100111
000000000001000010
111111111011000100
000000000010100001
000000000001010000
111111111101010000
111111111101001011
111111111111111100
000000000111010010
000000000101000011
111111111100000001
111111111000000111
000000000110100101
000000000110010011
000000000110000010
111111111100111101
000000000110011010
111111111101011111
000000001000101000
000000000001111111
111111111001110011
000000000010000111
111111111111101110
000000000010001100
111111111111100111
000000000010111011
000000000001010110
111111111111110001
111111111011011100
000000000000101111
111111111100001100
111111111101100100
000000000101011111
000000000001010100
111111111101000101
111111111111111100
111111111101000110
000000000000011010
111111111101111001
000000000001110011
111111111100010101
111111111110011011
000000000101001011
111111111101001111
111111111001001010
000000000100110001
111111111100101110
111111111011101000
111111111110010011
000000000000011011
111111111111000110
111111111111101111
111111111011001110
000000000010111011
000000000010100101
000000000000010111
111111111110100110
000000000000000110
000000000000001111
111111111010101111
111111111110111010
111111111010001001
111111111111001000
111111110111100101
111111111110010110
111111111011000111
000000000010110011
000000000000111010
111111111111000010
000000000101101110
000000000001010011
111111111010101101
111111111101100110
000000000001110001
000000000001000001
000000000000011000
111111111111110111
111111111101001111
111111111011010111
111111111100001000
000000000000110001
111111111101010110
000000000011001111
000000000011011001
111111111101100011
111111111101110011
000000000000011111
111111111110011110
111111111110001010
000000000010010111
111111111101100000
111111111110111101
111111111111000100
000000000011000001
111111111100011000
000000000000111110
111111111000100010
111111111100111010
000000000000100011
111111111001100001
111111111011001111
111111111110100101
111111111100111001
111111111111000010
111111111101011001
000000000100011111
111111111000111000
111111111111110000
111111111111110110
111111111000100011
111111110101011001
111111111110101000
111111111011001010
111111111101100110
111111111110110010
111111111011110100
111111111101000111
111111111101111000
111111111001011000
111111111111110010
111111111101001010
111111111000100100
111111111110111001
000000000000101110
000000000000011001
111111111100000011
111111111110100100
111111111111110101
000000000100111001
111111111110010100
000000000101101100
000000000011010001
000000000010110000
000000000101111011
000000000011110111
000000000101010000
000000000100001101
000000000101000011
000000000110010010
111111110110110000
111111111110001100
000000000000001100
111111111101111001
111111111011000110
111111111010101000
111111111011010001
000000000110001011
000000000111011000
111111111101001000
000000000001101100
000000000110011110
000000000011001000
000000000110011010
000000000110101000
000000000111001111
000000000101100110
000000000011010100
000000000101100000
000000000100010011
000000000000101000
000000000000011010
000000000010101100
111111111111001010
000000000011000000
000000000011001110
111111111111111011
000000000001010111
111111111100000011
111111111010000001
111111111001000000
111111111100000100
111111111011110000
000000000000111110
111111111001101110
000000000000110111
111111111011000011
111111111110101011
111111111100000010
111111111101000111
111111111111001100
000000000100001001
111111111101110010
000000000010101010
111111111101000000
111111111111100000
000000000010111101
111111111011101011
111111111101100000
000000000000010001
000000000010011101
000000000100100010
000000000011111111
111111111111001011
000000000010011010
000000000100101111
000000000010001111
000000000011110111
000000000000100101
111111111010001111
000000000001100000
000000000010101000
111111111110011111
000000000001111011
111111111110101011
111111111110010010
111111111110011111
111111111110101001
000000000001000001
111111111010011101
000000000010011111
111111111100010001
000000000010110110
000000000101100001
111111111111110001
111111111100111010
000000000110010100
000000000100001101
111111111111000011
000000000000010000
111111111110110111
000000000101101000
000000001001001010
000000001000000101
000000001010001011
000000000101101111
000000000011000110
000000000001001101
111111111100111101
000000001000100100
000000000001000001
111111111100110011
111111111110010011
000000000001001010
111111111111100010
000000000001101011
111111111111001010
111111111101011101
000000000010001010
000000000000010100
111111111110111011
111111111011101111
000000000001000101
111111111010011101
000000000000011011
111111111011001000
111111110110010011
111111111010111010
111111110110101011
111111111001000011
111111111100100101
111111111111000001
111111111101100011
111111111110101001
000000000001000001
111111111111111111
111111111110111100
000000000010011001
000000000001101011
111111111010110101
111111111111111100
111111111100011111
111111111110101010
000000000101001110
111111111110010001
000000000000111001
000000000010101100
000000000011010010
000000000001101101
000000000011000101
000000000010000101
000000000001101111
111111111111011000
111111111100000100
111111111110101101
111111111110010011
111111111111011010
111111111010001011
111111111010111010
000000000000110001
111111111111001010
000000000010110110
000000000011001111
000000000001010101
000000000011010110
111111111100011110
111111111000111011
111111111110100010
000000000010111101
111111111110011101
111111111010101001
111111111011101101
000000000000111101
000000000010001110
111111111100010111
000000000010111001
000000000001011000
000000000010100010
111111111111000101
111111111101111110
000000000100101000
111111110111010000
000000000001001110
111111111001000000
000000000011000010
111111111111001110
000000000001011101
111111111010010010
111111111101111011
000000000001001011
111111111101100010
111111111110010101
000000000010100111
000000000001011001
000000000010001100
111111111110110110
000000000001000100
111111111111001001
111111111101011001
111111111110010000
000000000001110101
000000000000100110
111111111110110010
000000000001011111
000000000000100011
000000000001000000
111111111110100100
000000000000000101
111111111100010110
000000000001010110
000000000010001001
111111111111101110
111111111101010100
000000000001010010
111111111111011001
111111111110010101
111111111111001001
111111111110011001
000000000001000101
000000000000001000
111111111111010001
111111111000000101
111111111010110110
111111111011001110
000000000000000101
000000000011000000
111111111101011100
000000000001010001
111111111111000111
000000000000111000
111111111111011100
111111111100101011
111111111110011000
000000000011011100
000000000010001011
111111111100100001
000000000001100101
111111111100110011
000000000000000000
111111111101111011
111111111110110001
111111111111000100
111111111100110110
111111111111100001
111111111111110100
000000000000011111
000000000000001000
111111111100001011
111111111111100000
000000000001100110
000000000001011111
000000000001010101
111111111011100011
111111111111001001
111111111111010110
111111111111010001
000000000001101110
111111111101111011
000000000000110110
000000000000101100
000000000000001110
000000000000000001
111111111101011110
111111111111101011
000000000010010010
000000000000001000
111111111101000010
000000000000110000
000000000000111001
111111111110110010
111111111101100010
111111111111111000
111111111111110100
111111111101011101
000000000000101000
111111111111000001
111111111100100101
000000000000111011
111111111111001100
000000000010010000
111111111110101000
111111111110001100
000000000001011101
111111111111010100
111111111111011111
111111111110100111
111111111110111010
111111111110010111
111111111111110111
000000000000011100
111111111111111001
000000000010000101
000000000001000100
000000000000110011
111111111111001010
111111111110010110
111111111110011110
000000000000010010
111111111111100101
000000000011011110
111111111110010110
111111111110111110
111111111111000101
111111111110001110
000000000000001100
111111111111000100
111111111111000000
111111111100100111
111111111100011101
111111111100001000
000000000010110000
111111111100011100
000000000000111011
111111111110111001
000000000000110001
111111111111011111
111111111110111101
111111111111011100
111111111111100110
111111111111111010
000000000001011100
111111111011111100
111111111101101011
000000000001010100
111111111111011110
111111111101011111
000000000001100110
111111111111011110
111111111101100011
111111111111111000
111111111101101001
111111111110000110
000000000011110100
000000000000110000
111111111101111011
000000000101000011
000000000100111001
000000001000110001
000000000110010011
000000001001011010
000000001000000111
000000001000000111
000000001001100110
000000000100111101
000000000001100110
000000000001000101
111111111111110010
111111111110100000
000000000000110010
111111111101110101
000000000000010100
000000000001110100
111111111110011011
111111111101110100
111111111101110010
111111111011010010
000000000010001101
000000000000001010
000000000010101100
000000000101001101
000000000011110100
111111111101111111
000000000010010100
111111111111101011
111111111110101111
111111111111101011
111111111101000110
000000000010000001
000000000000011001
000000000001010000
111111111111110010
111111111111000001
111111111111100001
111111111101111001
111111111110101001
000000000001000011
111111111111101101
000000000010011111
111111111100100000
000000000010000010
111111111110111011
111111111110010110
000000000000111100
111111111010011011
000000000000101100
111111111101100011
111111111101101111
111111111110110100
111111111110000110
111111111110000010
111111111100111101
111111111011100011
111111111110101001
111111111110111001
000000000010101101
000000000000000001
111111111110100101
111111111111011100
000000000000110101
111111111111101000
111111111111100110
111111111100001100
111111111111111111
111111111110101111
111111111110100011
111111111110101000
111111111110100000
000000000000111001
111111111110001000
111111111111011100
111111111101110000
000000000011010110
000000000001000110
111111111100111011
111111111100101001
000000000001100110
000000000110000100
000000000100101110
000000001010111011
000000000100110010
000000001000100100
000000000100000111
000000000101101110
000000000011111101
000000000100001100
111111111101100001
111111111110111010
000000000001000010
000000000001001110
111111111101000011
111111111100110101
111111111101110001
111111111111011000
111111111110010000
000000000000111100
000000000001001110
111111111101011100
111111111100011111
111111111011101101
111111111111001101
000000000000100110
111111111111010110
000000000000101000
111111111111010011
111111111110011001
111111111110010101
000000000000001110
111111111110011110
111111111111100100
000000000001000000
000000000001000000
000000000011001010
111111111101001110
111111111101100100
111111111101010100
111111111111100111
111111111111010100
111111111101111110
000000000000001110
111111111110010010
111111111111001111
000000000001010111
111111111110111110
000000000000010000
111111111111100101
111111111110110011
000000000010101110
111111111100010110
111111111111000001
111111111110010010
000000000000010001
000000000000100001
000000000001011101
000000000000011010
000000000000011110
000000000001010111
111111111110100001
111111111101010011
111111111011000000
000000000000110110
111111111111000100
111111111111101000
111111111111010110
111111111111100001
111111111111000001
111111111101010001
000000000010101011
000000000001101000
111111111111000011
000000000000110111
111111111110000000
111111111111111001
000000000000000010
111111111111110011
111111111111111010
000000000000000110
111111111111111111
000000000000000010
111111111111111011
111111111111111001
111111111111111010
111111111111111001
111111111111101111
111111111111111110
000000000000000101
000000000000000010
111111111111111110
000000000000000011
111111111111111111
111111111111111111
111111111111111000
000000000000000110
000000000000000010
000000000000001010
111111111111111101
000000000001100011
111111111111011000
111111111111110110
111111111111101010
000000000100001010
000000000100001000
000000000011101100
000000000010000100
000000000101000000
000000000101011010
000000000011010000
000000000001010100
000000000000001001
000000000000000101
000000000000001010
000000000000001100
111111111111110101
000000000000000000
000000000000000100
000000000000000110
000000000000000010
000000000000001010
000000000000000111
111111111111111110
111111111111001001
000000000000001010
000000000000000001
000000000000101111
111111111111011110
000000000000011111
111111111111111000
000000000010111110
000000000000100000
000000000000000000
000000000000100011
000000000001101110
000000000001101010
000000000000010000
111111111111011100
000000000000000101
111111111111110101
111111111111010110
000000000000111101
111111111111111110
000000000010011111
000000000100100011
000000000010111101
000000000010101000
000000000000010001
000000000000001111
000000000000001100
000000000000010001
000000000000000010
000000000000001010
111111111111111111
000000000000000000
000000000000000000
000000000000000101
000000000000000001
111111111111111001
111111111111001000
111111111111110000
000000000000100010
000000000000001111
111111111111101001
111111111111010000
000000000001011000
111111111111011111
000000000000111100
000000000000000000
111111111111100010
111111111111111011
000000000000001100
000000000000000011
111111111111111011
111111111111111011
111111111111111110
111111111111111000
111111111111111001
111111111111110011
111111111111111101
111111111111110000
111111111111110110
111111111111110100
000000000000000000
000000000000000000
111111111111110001
111111111111101100
111111111111111011
111111111111111011
111111111111110010
111111111111110100
111111111111111000
111111111111110110
111111111111110001
111111111111110011
111111111111111110
000000000000000100
000000000000000101
000000000000000101
000000000000000100
000000000000001000
000000000000001001
000000000000000001
111111111111111110
000000000000000010
000000000000000100
111111111111111111
000000000000000011
000000000000000111
000000000000001110
000000000000001000
000000000000000101
000000000000000110
000000000000000000
111111111111111100
000000000000000101
111111111111111110
111111111111110111
000000000000000110
000000000000000100
111111111111111010
111111111111110100
000000000000010011
111111111111110111
111111111111111110
111111111111111110
000000000000000111
000000000000000000
111111111111111010
000000000000001100
000000000000000011
000000000000001000
111111111111111111
000000000000000110
000000000000001010
111111111111110010
111111111111111101
111111111111111011
000000000000001010
000000000000000010
111111111111111010
000000000000000110
111111111111110111
000000000000001000
000000000000000111
000000000000001001
000000000000010010
111111111111111011
111111111111111101
000000000000000101
000000000000001100
111111111111111110
111111111111111101
000000000000000100
000000000000001000
