000000000000000010
111111111111100101
000000000110001100
000000000001100110
111111111100011110
000000000010000100
000000000001101011
000000000110110000
111111111001101111
000000000110000001
000000000011100001
111111111101110100
111111110110010010
111111110011111110
000000000010100000
111111111010101100
000000000001100101
000000000011011101
111111111000011100
000000000010001010
111111111001000010
111111111111011111
111111111111111110
111111111111011110
111111111110011101
111111111001100111
000000000011110011
111111111011101000
111111101010111111
111111100100111011
111111111010110110
111111101010011011
111111100101000011
111111101100111010
111111100110010000
111111011001001000
000000000100010111
111111111110100100
111111111101001000
000000000000011101
111111111100111100
111111111000101011
000000000110000000
111111111010010100
000000001001000110
111111110110011110
000000000101110010
111111111100011101
111111111101000111
111111111110100001
111111111101111111
111111111011111010
111111111011011100
000000000101110001
000000000101101111
111111110001101011
111111110110010101
111111111101100001
000000000101010001
000000000100100101
111111110110111001
111111111010111011
000000000100101100
111111110101111000
000000000010000101
111111111101000101
111111111110111010
111111110010010011
111111111011000000
111111111011111100
111111111110010011
000000000100110100
000000000100000010
111111111011101111
111111111000010001
000000000111011010
000000000101001110
000000000110100101
000000000101001100
000000000011001101
000000000011011111
111111110010100000
000000000000011000
111111111011001110
111111111110011001
000000000111110111
111111111110100010
000000000001111011
111111111110000010
111111111001010110
111111111010101001
000000000011100000
000000000100100000
111111111111100101
111111111110111010
000000001011000000
000000000111010010
000000000100001111
000000000110110001
000000000010111000
111111111100011000
111111110110110001
111111111000011101
000000000010101000
000000000010001101
111111111010110111
000000000001001101
000000000000110100
000000000010011011
000000000010100111
000000000100111010
000000001000001111
111111111110101011
000000000000101111
000000000100101101
000000000101000010
000000000100111000
111111111100111110
111111111110000011
111111111001100001
000000001011001100
000000000000101101
111111111010100110
000000000110111101
111111111110001110
111111111100110001
000000000101101000
111111111111100100
111111111100000100
000000000010100101
111111111011111001
111111111011110111
111111111111111111
000000001010100110
000000000000001101
111111111011100000
111111111010010100
000000000101000011
000000000100001110
111111111001110011
000000000110001001
000000000100111010
000000000001111111
000000000011111110
000000000010001010
111111111011000101
000000000010010000
111111111101011111
111111111110000001
111111111111111101
000000000010000010
000000000100100011
000000000010111000
000000000010001001
111111111100100010
111111111010111000
111111111101011011
111111111000101100
111111111011111011
111111111101001011
111111110111100110
111111111010000000
000000000001001001
111111111010001001
000000000010000000
111111111011110111
111111111110101110
111111111101111111
111111111111011100
000000000011011000
111111110110100001
000000000100010000
000000000000000101
000000000000010000
000000000010111100
111111110111000010
000000000101110001
111111110011110001
111111111100010011
000000000011011101
111111111110110101
111111110110100011
111111110100111101
000000000110110011
111111111000110101
000000000000100000
111111111111010011
111111111110101100
111111111001111110
111111110110101100
000000000110110111
000000000000010000
000000000011101110
000000000110001001
000000000010100011
111111110111111100
111111111010010010
111111110100101110
000000000010010001
111111111111000110
000000001000101000
111111111111110010
111111111011101011
000000000000001111
000000000100011010
000000000000101000
000000000011000100
111111111110101111
000000000111011100
000000000111101011
000000000000100101
000000000100101110
000000001101101010
000000000101000101
000000000001000011
000000000110010101
000000000100001101
111111111111111111
000000000111110100
000000000001110101
111111111101011001
000000000100111011
000000000000111010
000000000001000011
000000000110001001
111111111110011001
000000000110000001
111111111110100010
111111111100111000
111111111110011100
000000000000000010
111111111110110001
111111110110101010
000000000001011011
111111111010111111
111111111100101101
000000000001000110
111111111110100001
000000000000101011
111111111111110001
000000000001000110
111111111011111101
000000000001110100
000000000001111111
000000000000011000
000000000011111100
111111111101110110
111111111011001110
111111111101111001
000000000111001010
111111111101101110
000000000101101111
000000000000010010
111111111100011100
111111111011000000
111111111111101000
000000000000000100
111111110111100001
000000000010001100
000000000100110011
111111111100010111
111111111111101100
111111111110111110
111111111010100011
000000000000011100
111111111100011110
000000000001101001
111111111111010111
111111111110011110
000000000111001000
111111111010011001
111111111111001011
000000000100001010
000000000000001010
111111111111000001
111111111111100101
000000000101011110
000000000001110010
000000000010010001
111111111001111110
111111111011010001
000000000001000001
111111111110101000
111111111101010110
000000000000101100
000000000001001010
000000000100000111
000000000001010110
000000000010010011
000000000100111110
111111111100111100
111111110110010100
000000000011111110
000000000100000111
111111110110100111
000000000010000001
000000000111111000
111111111110001100
000000000111010000
000000000001010001
000000000000111110
000000000001110111
000000000011110111
111111111011011111
000000000011101001
000000000001110110
000000001000000101
111111111101010000
000000000100011110
111111111011111110
111111111111001110
111111111101101111
000000001000010111
000000000001101111
111111111010101000
111111111011100101
111111111100111110
000000000101111001
000000000010010000
000000000101101111
000000000011011101
000000000011100010
000000000100100000
111111111110111110
111111111110110011
000000000001010001
000000000001010000
111111111110101011
000000000000101100
111111111010110100
111111111010011110
111111111101111111
000000000100100010
000000000001000000
000000000110011011
000000000010001110
000000000000000101
000000000000110101
111111111101001110
111111111111001000
111111111110110111
111111110110110010
111111111101110011
111111111111100101
111111111011110111
000000000001111111
000000000000111100
000000000100100111
111111111001011011
000000000010001110
111111111101000010
000000000000000001
111111111111101010
000000000001110011
111111111010011100
111111111010010101
111111111101101010
111111111010111001
111111111110000011
111111111110101011
111111111001101000
000000000000000010
000000000010010111
000000000010111101
000000000010011111
111111111110001100
111111111001111101
111111111101000111
111111111110001101
000000000001000000
000000000100110010
000000000001010101
000000000001111010
000000000100001101
000000000000010010
111111111101111011
111111111100110110
000000000000101100
000000000011011110
000000000001001100
111111111110001100
111111111110100110
000000000101001101
111111111101100010
111111111110101101
000000000010100111
111111111010000010
111111111100000101
111111111100011000
000000000010011011
111111111110011000
000000000010001010
000000000001110001
000000000010010010
111111111111010011
111111111101011011
111111111100101111
111111111111111111
000000000000000110
111111111011101100
111111111111000010
111111111000111110
111111111000000001
111111111101101100
000000000000110110
111111111010000011
111111111111101000
000000000001110011
000000000010011100
000000000000010101
000000000001010010
111111111010100101
000000000000011010
000000000001000100
000000000100100000
000000000000011111
000000000001001010
111111111111000100
000000000011000000
111111111101100011
111111111100111000
111111111110111110
000000000000101010
000000000100011101
000000000010101001
111111111011101011
111111111111111111
000000000011110110
000000000001100001
111111111110000000
111111111110011001
111111111001010110
000000000010111011
000000000000101011
000000000110001010
000000000111111100
000000000010101001
000000000111010000
111111111110111101
000000000000110011
111111111111110100
000000000000111000
000000000010011101
000000000011100101
111111111111101101
000000000000101101
111111111101111101
000000000110100101
111111111111101001
000000000000100100
000000000101011000
111111111111011001
000000000011000101
000000000100111110
000000000111010111
000000001000100101
000000000100110110
000000000000100001
000000000001110100
000000000010011011
111111111010101110
111111111111010011
000000000010000000
111111111010000110
111111111110011001
000000000100001001
000000000001110001
111111111010001010
000000000010011010
111111111010110111
111111111111000101
000000000010001001
000000000011100010
000000000001111011
111111111001000001
000000000000011111
111111111101011101
000000000100100111
111111111011101000
000000000001111011
000000000101100110
111111111101001000
111111111010000110
111111111111100110
111111111100110000
111111111110001110
111111111110010101
111111111010111111
111111111111100011
111111111110010100
000000000010100011
000000000010001011
000000000001110000
111111111111011111
000000000000100111
000000000101101001
000000000000100110
111111111110001000
111111111001000011
111111111111001000
000000000001111001
000000000001101000
000000000010011011
111111111000110001
000000000001101100
111111111101101011
111111111011011010
111111111100010011
000000000100100101
111111111011111101
000000000010101001
111111111111001000
111111111010100110
000000000011011011
000000000000010010
111111111111100000
000000000011001100
000000000011110100
111111111100111010
000000000010111100
111111111111000111
000000000000001011
000000000111110011
000000000100111100
000000000011100101
000000000101110000
000000000011001011
000000000001001111
000000000100100011
000000000001010011
111111111101011111
000000000001000011
111111111010010000
111111111101111001
111111111111111011
111111111100100011
111111111111000111
111111111110100010
111111111101000101
000000000000000000
111111111000110010
000000000011000010
111111111110100100
111111111100111101
000000000100010001
000000000001011110
111111111100110101
000000000010010001
000000000001001101
111111111111100010
000000000001000101
111111111100101010
000000000000101011
000000000010111110
111111111100101111
111111111111000011
111111111101001000
000000000000110100
000000000011010010
000000000011001001
111111111111001010
111111111111000101
111111111101111101
111111111111101101
000000000000111011
000000000101010001
000000000101010000
000000000010000000
000000000000111001
000000000010001001
000000000011000101
111111111111001010
000000000001000010
000000000011010001
000000000010011110
111111111110101100
111111111111111001
000000000000010101
111111111111011111
111111111110010011
111111111111011000
000000000001111100
111111111101011011
000000000010110001
000000000000100101
111111111100110011
000000000110100001
111111111111001011
000000000011101100
111111111010011110
111111111110011000
111111111001010110
000000000000100100
000000000100101111
111111110111001100
111111111001010001
111111111110101101
111111111111100001
111111111011011001
000000000001101100
111111111000101111
000000000011111000
111111111111000001
000000000010000111
000000000001101000
000000000001111110
111111111110111011
000000000010010000
000000000100001101
000000000101011111
111111111101000111
111111111100001010
000000000000000010
111111111111101100
111111111111100001
000000000000001101
000000000000000010
000000000000001011
000000000000011001
111111111111110110
000000000000000111
111111111111110101
111111111111101011
000000000000010000
111111111111101101
000000000000010101
000000000000110011
000000000000011000
000000000000001000
000000000000001100
111111111111111100
111111111111110110
000000000000100100
111111111111111000
000000000000100111
000000000000100000
000000000000000011
000000000000000101
111111111111110001
111111111111110110
111111111111111110
111111111111100100
000000000000010010
000000000000000001
111111111111101110
000000000000011001
000000000000001110
000000000000001110
000000000000001111
000000000000001010
000000000000001000
000000000000001011
000000000000001011
000000000000000001
000000000000001100
000000000000010000
000000000000010111
111111111111111001
111111111111111000
111111111111111101
000000000000000011
000000000000001110
000000000000001011
000000000000100000
000000000000000100
000000000000010111
000000000000000100
000000000000000010
000000000000001110
000000000000001001
000000000000001001
111111111111111111
111111111111110001
111111111111111110
111111111111111110
111111111111101111
111111111111111100
000000000000011010
000000000000001110
000000000000001111
111111111111111010
000000000000000111
000000000000001001
111111111111111010
000000000000001001
000000000000010000
000000000000011001
000000000000010001
000000000000001001
000000000000011010
000000000000001101
000000000000010000
000000000000010110
111111111111101110
000000000000001100
000000000000001010
000000000000000110
111111111111111000
000000000000000111
000000000000100000
111111111111110001
111111111111100111
000000000000001110
111111111111111100
000000000000001000
000000000000011101
000000000000001101
000000000000011011
111111111111110010
000000000000010100
000000000000010010
000000000000010110
000000000000010001
000000000000010100
111111111111101101
111111111111110010
111111111111110110
111111111111111110
111111111111101100
111111111111101000
111111111111111101
000000000000000001
000000000000010000
000000000000001110
111111111111111100
000000000000000100
000000000000010111
000000000000010010
000000000000010001
000000000000001001
000000000000010011
111111111111110111
111111111111111111
000000000000000110
000000000000001111
000000000000010000
000000000000010000
000000000000101010
000000000000000100
111111111111111101
000000000000010010
111111111111111001
000000000000000110
111111111111110000
000000000000000110
000000000000010000
111111111111111100
000000000000001010
000000000000000011
111111111111111011
000000000000000010
111111111111111101
000000000000000000
000000000000000111
000000000000000011
000000000000000011
000000000000011111
111111111111111100
111111111111111001
000000000000100110
111111111111111010
000000000000000101
000000000000011010
000000000000101101
000000000000100010
000000000000010011
000000000000000010
000000000000000010
000000000000001101
000000000000000101
000000000000000001
000000000000000001
111111111111111101
000000000000011000
000000000000001110
111111111111111010
111111111111110111
000000000000001111
111111111111111101
111111111111110011
111111111111110111
000000000000010011
000000000000000111
000000000000010011
000000000000010101
000000000000001001
000000000000001000
000000000000010100
111111111111111011
000000000000010010
111111111111010110
111111111111110001
000000000000000100
111111111111110000
111111111111111001
000000000000000001
111111111111101101
111111111111001100
111111111111110101
111111111111110011
111111111111111010
000000000000011001
000000000000000100
000000000000001010
111111111111101110
111111111111110001
000000000000010000
111111111111101111
000000000000001111
000000000000001100
000000000000010001
000000000000000011
000000000000010110
111111111111111001
000000000000000011
000000000000011000
000000000000001001
000000000000010010
000000000000010000
000000000000001110
000000000000000001
111111111111111000
000000000000001101
000000000000001100
000000000000000011
111111111111110000
111111111111110111
111111111111111010
000000000000000000
000000000000011111
000000000000010010
000000000000001110
000000000000000111
000000000000010001
000000000000000100
000000000000011100
000000000000001101
000000000000010110
000000000000100000
000000000001001011
000000000000010101
000000000000011001
000000000000011011
000000000000011101
000000000000001001
000000000000011100
000000000000010101
000000000000001100
111111111111110010
000000000000000101
000000000000000110
000000000000001000
111111111111111011
000000000000011011
111111111111111111
111111111111110001
111111111111111011
111111111111111000
111111111111110101
000000000000000100
000000000000000110
000000000000001110
000000000000001101
111111111111111110
000000000000000110
000000000000000010
000000000000000100
000000000000001101
000000000000001010
000000000000000001
000000000000011010
111111111111111111
000000000000010001
000000000000011010
000000000000011010
000000000000100001
111111111111111000
111111111111111101
111111111111110000
111111111111101000
111111111111110101
111111111111101001
000000000000100001
000000000000001110
000000000000011000
111111111111111110
111111111111101110
111111111111111001
111111111111111001
000000000000001001
000000000000010100
111111111111111100
111111111111110000
111111111111011100
111111111111111011
111111111111110011
111111111111101011
000000000000001111
111111111111110010
000000000000000111
000000000000000000
000000000000000000
000000000000000000
000000000000000000
000000000000000000
000000000000000000
000000000000000000
000000000000000000
000000000000000000
000000000000000000
000000000000000000
000000000000000000
000000000000000000
000000000000000000
000000000000000000
000000000000000000
000000000000000000
000000000000000000
000000000000000000
000000000000000000
000000000000000000
000000000000000000
000000000000000000
000000000000000000
000000000000000000
000000000000000000
000000000000000000
000000000000000000
000000000000000000
000000000000000000
000000000000000000
000000000000000000
000000000000000000
000000000000000000
000000000000000000
000000000000000000
000000000000000000
000000000000000000
000000000000000000
000000000000000000
000000000000000000
000000000000000000
000000000000000000
000000000000000000
000000000000000000
000000000000000000
000000000000000000
000000000000000000
000000000000000000
000000000000000000
000000000000000000
000000000000000000
000000000000000000
000000000000000000
000000000000000000
000000000000000000
000000000000000000
000000000000000000
000000000000000000
000000000000000000
000000000000000000
000000000000000000
000000000000000000
000000000000000000
000000000000000000
000000000000000000
000000000000000000
000000000000000000
000000000000000000
000000000000000000
000000000000000000
000000000000000000
000000000000000000
000000000000000000
000000000000000000
000000000000000000
000000000000000000
000000000000000000
000000000000000000
000000000000000000
000000000000000000
000000000000000000
000000000000000000
000000000000000000
000000000000000000
000000000000000000
000000000000000000
000000000000000000
000000000000000000
000000000000000000
000000000000000000
000000000000000000
000000000000000000
000000000000000000
000000000000000000
000000000000000000
000000000000000000
000000000000000000
000000000000000000
000000000000000000
000000000000000000
000000000000000000
000000000000000000
000000000000000000
000000000000000000
000000000000000000
000000000000000000
000000000000000000
000000000000000000
000000000000000000
000000000000000000
000000000000000000
000000000000000000
000000000000000000
000000000000000000
000000000000000000
000000000000000000
000000000000000000
000000000000000000
000000000000000000
000000000000000000
000000000000000000
000000000000000000
000000000000000000
000000000000000000
000000000000000000
000000000000000000
000000000000000000
000000000000000000
000000000000000000
000000000000000000
000000000000000000
000000000000000000
000000000000000000
000000000000000000
000000000000000000
000000000000000000
000000000000000000
000000000000000000
000000000000000000
000000000000000000
000000000000000000
000000000000000000
000000000000000000
000000000000000000
000000000000000000
000000000000000000
000000000000000000
000000000000000000
000000000000000000
000000000000000000
000000000000000000
000000000000000000
000000000000000000
000000000000000000
000000000000000000
000000000000000000
000000000000000000
000000000000000000
000000000000000000
000000000000000000
000000000000000000
000000000000000000
000000000000000000
000000000000000000
000000000000000000
000000000000000000
000000000000000000
000000000000000000
000000000000000000
000000000000000000
000000000000000000
000000000000000000
000000000000000000
000000000000000000
000000000000000000
000000000000000000
000000000000000000
000000000000000000
000000000000000000
000000000000000000
000000000000000000
000000000000000000
000000000000000000
000000000000000000
000000000000000000
000000000000000000
000000000000000000
000000000000000000
000000000000000000
000000000000000000
000000000000000000
