111111111110000111
111111111101010001
111111111110101000
000000001000001001
000000000011010010
000000000011001111
000000000010100001
000000000100110001
000000000011101011
000000000111110100
000000000001001000
111111111111011001
111111110110000010
000000010100101011
111111111100101100
000000000110100111
111111111010110010
000000011000001001
111111111110111100
111111111101111111
111111111110100111
111111111101111010
111111111100100111
111111111111001001
111111111101110101
111111111111111110
111111111111101101
000000000001111000
111111111110100100
111111110100011010
111111111111011100
000000000011011010
000000010111000011
111111110001110100
000000000000110100
111111110001110001
111111111101001110
111111111111010111
000000000100011010
111111111111011101
000000000010100011
111111111110110001
111111111111101001
111111111100010111
111111111111001001
111111111100101101
000000000100011100
111111111010011010
000000000000000100
000000000010011011
111111111111000011
000000000101111110
000000000100011011
111111110110111100
111111111001110000
000000000001101000
111111111001111000
000000000011100000
000000000001011011
111111111100110100
111111111101001111
111111111100111111
111111111010010000
111111111011111101
111111110110101110
111111110101001011
000000000001001110
111111111010000001
000000000100110111
000000001000000100
000000000001110010
000000000000001110
111111111001001100
111111111100110011
000000000000001110
000000000101110101
000000000011110100
000000000010011100
000000001000100010
000000000101001111
000000000001001001
111111111111000011
111111111110011101
111111110110000110
000000000001001011
111111111110011010
000000000001101010
000000000010111001
000000000101110011
111111111100101101
111111111101011101
111111111110001000
000000000101000111
000000000111111000
000000000110110101
000000000100011011
000000001001100001
000000000000100100
000000001001010011
111111111011111111
000000000001111111
111111111110101100
000000000000110001
000000000100000011
111111111110001100
000000000100000101
000000000101111010
000000000010001100
111111111111100001
111111111101001000
111111111011011000
000000000100111010
000000000001111011
000000000101001101
000000001010000111
000000001001000111
000000000101110001
000000000011010000
111111111011001010
111111111100001011
111111111110001110
111111111111100101
111111111001010000
000000000000111000
000000000011011011
000000000101011101
111111110110101111
000000000001000001
111111111001010000
111111110110010101
000000000110000111
000000000110000001
000000000110000010
111111111110000000
111111111010100010
000000000001011101
111111110000100001
111111110111010100
000000000100001001
000000000011000110
000000000100011011
000000000111100011
000000000101111101
000000000111110101
000000000000010000
000000000000011110
111111111010101011
000000000100001101
000000000000010110
111111111111111101
000000000001001100
111111111101011111
000000000010101000
111111110111000101
000000000000111011
111111111011000111
000000000001111001
111111111000101101
111111111101001101
111111111111100001
000000000100011000
111111111110001100
111111111100101010
000000000100001111
111111111111010010
000000000000000010
000000000000100101
111111111011011001
000000001001101000
000000000010101100
111111111101000000
111111111111110000
000000000000110101
111111111101000010
000000001011000000
000000000001101011
000000000011010010
111111111011000000
111111111011101111
111111111111010001
111111110001001101
000000000110101101
111111110110010111
000000000000110001
111111111110111000
111111111110100000
000000000101010011
000000000010000001
111111110111101000
000000000101001010
111111111010111110
000000000101010001
111111111111110101
111111111101010110
000000000001010011
111111110000010111
111111110110111111
111111111111111011
000000000000001011
000000000001111100
000000000001000011
000000000000001101
111111111110110111
111111111011100111
111111111110101010
000000000110000000
111111111111111101
000000000011101110
111111111111101001
000000000110101010
000000001000100011
000000000101111001
000000001000101010
000000001110010010
000000001111011011
000000001011111011
111111110011000010
111111111100101011
111111111011101011
000000001000011110
000000000101101000
000000000011010001
000000000111110011
000000001011100100
000000000110010100
000000000000010010
111111111001010101
111111111100100110
000000000001101001
000000001010000111
000000000011100100
111111111100110010
000000001011111000
000000000001000101
111111111101110010
111111111111000101
000000000011011000
111111111100011011
111111111111010110
111111111110110000
111111111010010100
000000000100001111
000000001000110010
111111111011010101
111111111111101011
111111111100001010
111111111111011010
111111111111110101
000000000001010000
111111111101100101
000000000001000110
111111111100101101
111111111101001110
000000000100110010
111111111111101001
111111111111100000
111111111111001110
111111111100100000
000000000101000100
111111111010110011
111111111110000010
000000001001100110
111111111010001101
000000000010011101
000000000000110001
111111111111100101
000000000000010001
111111111001111100
000000000110010111
111111110101010010
111111110010011101
111111110110000110
000000000101010100
000000001000000110
000000000101001111
111111111111110100
000000000100000100
000000000001010000
000000001001010011
111111111110001111
111111110101000111
000000000001110001
111111111110010011
111111111110100000
111111110001101000
111111111101001011
000000000100100010
111111111101011111
000000000001111000
000000000000100111
111111111101110111
111111111111111111
000000000001111101
000000000010100010
000000000000011101
111111111101011001
000000000101100010
111111111110010110
111111111111101000
000000000010100001
111111111011110000
111111111011100010
000000000100010000
111111111000111100
000000000110101001
000000000010010110
000000000010011011
111111110111000100
000000000000101110
111111111011111101
111111111111001000
111111111110011111
000000001100010010
000000000011100010
000000000001111011
000000000000001100
111111111101011111
111111111110000001
000000000101011001
000000000001110001
000000000010101010
000000000001100111
000000000101111101
000000001010101001
111111111001110101
111111111111101110
000000000100000001
111111111110010110
000000000011001110
111111111011111110
111111111010011110
111111110101001001
111111110110111001
000000000110111100
000000000101011011
111111111111100000
000000000001000010
000000000001000110
000000000010011001
000000000000000010
000000000001110010
000000000000101001
000000000000110100
000000000000100011
000000000100011111
111111111011010001
000000000000001010
111111111110010010
111111111110001011
111111111010000001
000000000010110000
111111110111001101
111111111111011100
000000000011010101
000000000000011110
000000000000101100
111111111110010100
111111111010000111
111111111111010010
111111111111110010
000000000000000100
000000000000001100
111111111111110001
111111111110011111
000000000001011110
000000000000000100
111111111110110011
111111111110111001
000000000001001011
000000000110001110
000000000011100111
111111111110110000
111111111110010001
111111111001111001
000000000000100000
000000000010111110
111111111101111110
000000000101100010
000000001011010101
000000000100010101
111111111110100100
000000000001110100
000000000000111100
000000000010000111
000000000011011100
000000000011101011
111111111100111011
000000000100001100
000000000011000001
111111111111011011
000000000100111110
111111111011010000
000000000100011110
000000000000010011
000000000001101111
000000000100110101
111111111101110010
111111111100110000
111111111101101110
000000000100010110
111111111101111011
111111111111000011
111111111111001110
000000000011100100
000000000100110000
000000000000000000
111111111110001011
000000001001100111
000000000001110111
111111111111100001
111111111011100010
111111111111010110
000000000000011101
111111111110001010
111111111011010101
111111110011110110
111111111111010111
000000000011100111
000000000010010000
000000000011000010
000000000010000011
111111111001111011
000000000000111100
111111111100110110
000000000100011101
000000000001000010
111111111100101100
000000000100001110
111111111110000001
000000000100111110
000000000110110000
000000000000001111
000000001000001001
000000000100010000
000000000011110011
000000000101000010
000000000011011001
111111111110110001
000000000001011001
000000000011000110
000000000001100101
000000000000010111
000000000011110000
111111111100110110
000000000011011111
000000000001111011
000000000010101110
111111111101011010
111111111111111010
000000000000101010
000000000011011101
000000000010101011
000000001000001011
000000000110100110
111111111111100010
000000000001000111
111111111111100010
000000000011111011
000000000010101101
111111111101001011
111111111010101111
000000000001111100
000000000100011010
111111111111000001
000000000010011110
000000000100111111
000000000001110101
111111111010001111
111111111100011100
111111111010011110
111111111110010110
000000000000100100
000000000000110101
000000000010101011
111111111111010100
111111111110111110
000000000011001000
111111111100001010
111111111110101001
000000000000011101
000000000100000101
111111111100111101
000000000000100110
000000000010011110
000000000000100010
111111111000011101
000000000000100110
000000000010010100
000000000110010101
111111111100111100
000000000101111111
111111111101111010
111111111011001110
000000000101100001
000000000010101101
000000000001010011
000000000101111111
000000001001000100
000000000000010011
111111111011101111
111111111101001010
000000000100111010
111111111110101100
000000000001010010
111111111110011001
000000000011001001
000000000100001010
000000000100010100
111111111110011001
000000000100001001
000000000011101000
111111111110010000
111111111111000011
000000000011100000
111111111010101111
000000000000101001
000000000011000010
000000001001010011
111111111001110010
111111111010010001
111111111111011100
000000000000000100
000000000111011000
000000000110011011
000000000111011111
000000000011001011
000000000001001101
000000000011010101
000000000001001110
000000000010000001
111111111111111011
111111111011001010
000000000010001110
111111111110001111
000000000000000010
111111111000100101
111111111100101111
000000000011110000
000000000010011000
111111111010001001
111111111100000111
111111111110111100
111111111111100001
111111111001001011
111111111011111101
000000000100010101
000000000001000101
111111111111110011
000000000011010110
111111111011100001
000000000000101110
111111111101001101
000000000000000110
000000000011100001
111111111111010011
000000000000100100
000000000001011000
111111111011110000
000000000111110001
111111111011101100
111111110110000110
000000000000010000
111111111101100010
111111111011100001
000000000111100110
000000000000111000
111111111111111011
000000001001011011
000000001001111011
000000000100001110
000000000001000011
000000000001100110
000000000000110101
111111111100000000
000000000010110010
111111111111001101
000000000000110100
000000000010100100
111111111101010111
111111111111110000
111111111011000011
000000000111110011
000000000001010011
000000000001010010
111111111000011100
111111111111111110
000000000011111110
000000000001001010
000000000000001111
111111111100110110
000000000010011001
000000000010000001
000000000000100001
111111111101010110
000000000010001010
111111111011100110
000000000010111001
111111111110111000
111111111110101111
111111111011000011
111111111110000011
111111111100000110
000000000011100100
000000000011101011
111111111110101001
111111111100111011
000000000110111110
000000000011100001
111111111111111111
111111111101000101
111111111000101001
111111111101101111
111111111101111100
111111111100001001
111111111110110100
000000000010010110
000000000000011100
111111111111010001
111111111111101000
111111111110110101
111111111101111000
111111111100001010
000000000000101101
111111111110111100
111111111111000001
000000000000010110
111111111101011100
111111111101110010
000000000000100111
000000000100000000
000000000000110000
000000000000001100
000000000010001001
111111111110000101
111111111110111101
111111111111011011
111111111111111001
000000000000001101
000000000000011100
000000000001001000
111111110110100011
111111111001011100
111111111100111111
111111111001001111
111111111110000101
000000000010000111
111111111101100000
000000000010011010
111111111101000000
111111111111111010
000000000100111011
000000000001010011
000000000101011110
000000000100010010
000000001000111000
000000000110011001
000000000110001011
000000000000111110
111111111111111001
000000000010000110
000000000001100000
000000000000001000
111111111110110111
111111111100110101
000000000001010001
000000000000110110
111111111110000000
111111111011001110
111111111101110100
111111111111110010
000000000000111010
111111111111010110
000000000001111110
111111111111011110
111111111100001010
111111111010110011
000000000010100011
111111111111011110
111111111110100101
111111111111100110
000000000010110110
000000000010000110
000000000000010111
000000000001000001
000000000010001111
000000000001010101
000000000001100101
111111111010100101
111111111111110110
111111111101110011
111111111111000111
111111111101100000
000000000000111010
111111111010100000
111111111110011111
111111111110001110
000000000010110110
111111111101101101
111111111110010100
111111111101010000
000000000010101001
000000000001000000
111111111011110110
111111111101100101
111111111010010000
111111111100010101
111111111111111101
000000000000010001
111111111000000001
111111111101110010
111111111101110010
111111111110010011
111111111011010100
111111111111100001
111111111110111001
000000000000101101
111111111111111000
000000000000110110
000000000010001000
111111111110000011
111111111101111011
000000000010001001
111111111100010001
111111111110010001
111111111111110010
000000000001010011
111111111110101010
000000000000100111
000000000010101010
000000000000111101
111111111101100000
111111111110110000
000000000000001011
111111111101010000
111111111100100110
000000000000010110
111111111111100101
000000000011000111
111111111100111101
000000000000101100
000000000000010101
000000000000001001
000000000001000111
111111111110110000
000000000010001110
111111111111001000
111111111001000101
111111111110000111
000000000000011001
111111111111101100
111111111111100101
111111111111100111
111111111111010110
111111111011010011
111111111110001110
111111111101001011
000000000101000101
111111111101111111
000000000110100010
000000001011101111
000000001100001011
000000010010011100
000000001011110011
000000001101100001
000000001100101101
111111111101111111
111111111111111100
111111111110111010
000000000001010000
000000000000011100
000000000001010011
111111111110011110
111111110111001101
000000000000110001
000000000000111010
000000000000101111
000000000010001001
111111111011111100
111111111011011011
111111111011111001
000000000011111100
000000000100010000
000000000100011011
111111111101111011
111111111111100101
000000000000011001
000000000001100100
000000000000111111
111111111011111000
000000000001000000
000000000000100010
111111111011101000
111111111100100111
111111111111111110
000000000001001110
111111111100110010
000000000000000001
000000000001000000
000000000001001010
111111111100000001
111111111110001100
000000000000101011
111111111110101101
111111111111111100
111111111110111110
111111111101100000
000000000000011101
111111111100110100
000000000000010000
000000000000100010
111111111111000101
111111111101100111
000000000000101010
111111111111100011
111111111110000011
000000000000011001
111111111111010010
000000000000100011
000000000010011010
000000000011011100
000000000011010010
000000000010010001
000000000001110111
111111111110010111
000000000000011110
111111111111110000
000000000001010101
000000000001111110
111111111111101001
000000000000000000
111111111101001100
111111111111000111
111111111111010100
111111111100000101
111111111011101001
000000000000011101
000000000001010110
111111111111010011
111111111110100011
000000000101001100
000000001011101000
000000001101110011
000000001110100010
000000001001011100
000000000111111101
000000001000011111
111111111110011000
111111111110100101
111111111110111101
111111111101001111
000000000000111011
000000000001110111
111111111110011100
111111111111001000
000000000001001010
111111110111001000
111111111110011010
000000000001001110
111111111111000011
111111111111010000
111111111110101111
000000000000101111
111111111111100011
000000000001110101
111111111010101100
000000000001011001
000000000000011000
000000000010111000
111111111111101011
111111111100111000
111111111101101100
111111111101100001
000000000001111100
111111111101111101
000000000001110111
111111111111011110
111111110101110000
111111111001111111
000000000000010001
111111101010101000
111111111001010101
000000000010011101
111111111011111000
111111111101100010
000000000000110011
000000000000001100
000000000000000011
000000000010000001
111111111111010101
000000000000110011
000000000000100100
111111111110011110
111111111111001111
000000000000000110
000000000001010110
111111111111111011
000000000100010011
111111111110100011
000000000010001000
000000000001110000
000000000000000000
000000000000000000
000000000000000000
000000000000000000
000000000000000000
000000000000000000
000000000000000000
000000000000000000
000000000000000000
000000000000000000
000000000000000000
000000000000000000
000000000000000000
000000000000000000
000000000000000000
000000000000000000
000000000000000000
000000000000000000
000000000000000000
000000000000000000
000000000000000000
000000000000000000
000000000000000000
000000000000000000
000000000000000000
000000000000000000
000000000000000000
000000000000000000
000000000000000000
000000000000000000
000000000000000000
000000000000000000
000000000000000000
000000000000000000
000000000000000000
000000000000000000
000000000000000000
000000000000000000
000000000000000000
000000000000000000
000000000000000000
000000000000000000
000000000000000000
000000000000000000
000000000000000000
000000000000000000
000000000000000000
000000000000000000
000000000000000000
000000000000000000
000000000000000000
000000000000000000
000000000000000000
000000000000000000
000000000000000000
000000000000000000
000000000000000000
000000000000000000
000000000000000000
000000000000000000
000000000000000000
000000000000000000
000000000000000000
000000000000000000
000000000000000000
000000000000000000
000000000000000000
000000000000000000
000000000000000000
000000000000000000
000000000000000000
000000000000000000
000000000000000000
000000000000000000
000000000000000000
000000000000000000
000000000000000000
000000000000000000
000000000000000000
000000000000000000
000000000000000000
000000000000000000
000000000000000000
000000000000000000
000000000000000000
000000000000000000
000000000000000000
000000000000000000
000000000000000000
000000000000000000
000000000000000000
000000000000000000
000000000000000000
000000000000000000
000000000000000000
000000000000000000
000000000000000000
000000000000000000
000000000000000000
000000000000000000
000000000000000000
000000000000000000
000000000000000000
000000000000000000
000000000000000000
000000000000000000
000000000000000000
000000000000000000
000000000000000000
000000000000000000
000000000000000000
000000000000000000
000000000000000000
000000000000000000
000000000000000000
000000000000000000
000000000000000000
000000000000000000
000000000000000000
000000000000000000
000000000000000000
000000000000000000
000000000000000000
000000000000000000
000000000000000000
000000000000000000
000000000000000000
000000000000000000
000000000000000000
000000000000000000
000000000000000000
000000000000000000
000000000000000000
000000000000000000
000000000000000000
000000000000000000
000000000000000000
000000000000000000
000000000000000000
000000000000000000
000000000000000000
000000000000000000
000000000000000000
000000000000000000
000000000000000000
000000000000000000
000000000000000000
000000000000000000
000000000000000000
000000000000000000
000000000000000000
000000000000000000
000000000000000000
000000000000000000
000000000000000000
000000000000000000
000000000000000000
000000000000000000
000000000000000000
000000000000000000
000000000000000000
000000000000000000
000000000000000000
000000000000000000
000000000000000000
000000000000000000
000000000000000000
000000000000000000
000000000000000000
000000000000000000
000000000000000000
000000000000000000
000000000000000000
000000000000000000
000000000000000000
000000000000000000
000000000000000000
000000000000000000
000000000000000000
000000000000000000
000000000000000000
000000000000000000
000000000000000000
000000000000000000
000000000000000000
000000000000000000
000000000000000000
000000000000000000
000000000000000000
000000000000000000
000000000000000000
000000000000000000
