000000000011001100
111111110101110111
111111110010111100
000000000000011000
111111111100111101
111111111110100110
000000000100111100
000000000001111100
000000000000010101
111111111110011110
111111111001000000
000000000010110110
000000000000110010
000000000110110011
111111111010100001
111111111010111000
111111111011110011
111111111100101010
111111111111111100
111111111110001100
000000000001000011
000000001001101000
111111111000111110
000000000000011001
111111111010110000
000000000010011100
111111111110000100
111111111100011111
111111101001010100
000000001000101101
000000000111000110
111111011111100000
111111110011110010
000000000000001011
111111111001000001
111111110100101100
000000000011101100
000000000100100011
000000000100010101
111111111110110010
000000000000101000
111111111111100111
111111111000000010
111111111011110010
000000001010100011
111111110111101001
000000000001101111
000000000100101111
000000000100011001
111111111101010111
000000000000010001
000000000001010100
111111111011111001
000000000000110000
000000000110101011
111111111111111000
000000000010001110
111111111111110001
000000000011100101
000000000010111100
000000000001100110
111111111111110101
111111111110011001
000000000110001001
111111111010110010
111111111010101000
000000000000000001
111111111101010100
000000000010100010
000000000000010011
000000000100001000
111111111110111001
111111111000001001
111111110110010001
111111111100100000
000000000001001101
000000000100011101
000000000001100110
000000000110111010
000000000011101101
111111111110011010
111111111100110010
111111110101101010
000000000101010110
111111111101011101
000000001000101110
111111111011110110
111111111110010011
000000000000111000
111111111010011101
111111110110001100
111111111110010010
000000000011011000
000000000001001000
000000000010100101
000000000010001110
000000000101000011
000000000011000000
000000000010100100
000000000111010111
000000000100011001
111111111011101001
111111111010110011
111111111110001111
000000000101101010
111111111111101100
111111111101101111
111111111110101100
000000000101110101
111111111011111000
000000000010100000
111111111111110001
000000000001001101
000000000001000101
000000000011100101
000000000111001101
000000000111101111
000000000000010001
111111111011001001
111111111101000100
111111111100010000
000000000101100110
000000000001100010
111111110111010110
000000000001011010
000000000101110101
000000000101101000
000000000100101010
000000000001010010
111111111111111011
111111111110110001
000000000100110011
000000000010001101
000000000001001101
000000000101101000
111111110010101000
111111100111100110
111111111001111011
000000000000000001
000000000101000001
000000000000100111
000000000111110011
000000000110010001
111111111100011111
000000000011100111
000000000010001010
111111111001000101
000000000100010110
000000000010011110
000000000000110001
111111111111101001
111111111111001010
000000000101001001
111111111000111010
111111111011011001
000000000000110110
111111111110111100
000000000001011101
111111111011110001
111111111010001110
000000001000011101
111111111101100100
000000000001111000
000000000010011010
000000000011000111
000000000001111111
000000000001000101
000000000010110101
000000000000010011
000000000000011001
000000000011110011
000000000100000011
000000000011011001
000000000011100111
111111111110001101
111111111010111010
000000000110111111
111111111111110000
111111111011000000
111111111111101100
111111111111101100
111111111100101111
000000001000110011
000000000101111110
111111111110111010
000000000000100101
111111111110011010
000000000000000100
000000000001110011
000000000101101011
000000000100000000
000000000110011010
111111111101101000
000000000010110001
000000000010101001
000000000010010011
000000000001100110
111111111010001100
000000000101110011
000000000010010010
111111111101101010
000000000001100111
000000000000011100
111111111001111111
000000000011101010
000000000110001010
000000000011001101
111111111101100000
000000000011000101
111111111111010101
111111111111111110
111111111111101011
000000000101000111
000000000011111001
000000001011100001
000000000110001101
111111110101010101
111111111011110110
111111111101110110
000000000111101101
000000000011101111
000000000000001101
000000000000011101
000000000110000100
000000000011001010
000000000100110010
111111111101101100
000000000001111011
000000000101100001
000000000010001000
111111111101000100
111111111100110001
111111111001101111
000000000101001101
000000000101111111
000000000110001110
000000000101011011
000000000000010001
000000000010110111
111111111110111110
111111111010101001
000000000011100011
111111111010011100
000000000100101111
000000000001111110
111111111101000011
000000000000000111
111111111110111001
111111111100101100
000000000100101010
000000001011011111
111111111001001010
000000000000011101
111111111110001000
000000000000111111
111111111011000001
000000000000100111
111111111111101110
111111111111010001
000000000100001101
111111111000101100
000000000111001000
000000000110011011
111111111100000111
111111111110100110
111111111110001111
111111111101010000
000000000000111011
111111111011001010
111111111110000100
111111110000010101
111111111001010111
000000000001111010
000000000011111101
111111111111001001
111111111011100011
000000000111100101
000000000100100011
000000000010001000
111111111000100110
000000000001110001
000000000000000010
000000001000110011
111111111101001000
111111111111001111
000000000000010010
111111111111100001
111111111011100001
000000000101110101
000000000010010111
111111111011110111
000000000001110101
000000000011111100
000000000001001010
000000000010000101
000000000000011000
000000000000111110
000000000100101000
111111111110001111
000000000100101001
000000000010001101
000000000001000111
111111111111110100
000000000010010010
111111111010101101
111111111111100100
000000000100110001
000000000000110001
111111111101110110
000000000011110010
000000000000111111
111111111100110110
000000000101111000
111111111111101100
000000000010001111
111111111011000101
000000000010000110
000000000100000010
000000000010011100
000000000011101001
111111111100010101
000000000001111101
000000000111010000
000000000010110101
000000000010010001
111111111111101001
000000000000000111
111111111000101001
000000000001001111
111111111110011001
000000000100101001
111111111010110010
111111111010111110
000000001001000111
000000000101100101
111111111010110001
111111111010011000
000000000001000111
111111111110010101
000000000010101010
000000000010110001
111111111110010000
000000000000110011
000000000000010101
111111111110101110
111111111001100100
111111111110011100
111111110110001100
000000000001011001
111111111101110110
000000001000000001
000000000000000100
111111111110001111
000000000001010010
000000000110111101
111111111111010011
111111111001111000
111111111100000110
000000000000000111
111111111100110000
111111111110101100
111111111011100000
000000000001110000
000000000001110011
000000000010100000
111111110111101101
000000000001000100
000000000000010010
111111111101111101
111111111101110101
111111111110100100
000000000101000100
000000000000011101
111111111101100011
000000000011010101
111111111111111101
111111111110111100
000000000000011100
000000000000000110
000000000001001001
000000000010011011
000000000010110101
111111111110001011
000000000001111010
111111111110011100
000000000101110011
000000000000000100
111111111101100101
000000000101101001
000000000011000100
000000000000101100
111111111111001001
111111111111100001
111111111100011001
000000000001000000
111111111011110011
111111111100011001
000000000001101100
111111111101001110
111111111110001011
000000000001100101
000000000011010010
000000000000010101
000000000000010011
000000000010110000
111111111011001100
111111111011010111
000000000101010001
111111111111010110
111111111111001100
000000000000111010
000000000000101110
000000000101001010
000000000000000111
000000000010001010
000000000011110011
000000000110111011
111111111111111010
111111111110111100
000000000010111110
000000000001010100
111111111111101001
000000000100011010
000000000000010110
111111111110100001
111111111100101111
111111111111110011
000000000000010000
111111111111001011
000000000101110111
000000000011111001
111111111100011001
000000000101000100
000000000101110100
000000000100000010
000000000000010100
000000000011001101
111111111111110111
000000000010101100
000000000011000111
000000000001011010
000000000100001000
111111111101101100
000000000100100110
000000000101011010
000000000000001111
000000000010100010
111111111100000011
111111111101111110
111111111110100111
000000000100101011
000000000111001100
000000000101010101
000000000011101001
000000000111010111
000000000010101101
000000000100111001
000000000010111000
111111111110001000
111111111101101101
000000001010000000
000000001000000000
111111111110010100
111111111111100100
000000000100111111
000000000010101100
111111111011011010
111111111111011101
111111111011111000
111111111101011100
000000000001100011
111111111111101101
111111111101001000
111111111101010101
000000000001001101
000000000010001110
000000000011000111
000000001001001000
111111111100011010
000000000000111010
000000000000011010
111111111111010111
000000000100010111
111111111011110101
000000000001110100
000000000001011011
000000001000100111
000000000011001010
000000000100111101
111111111001000111
111111111110000000
111111111100110000
000000000100001000
111111111111010010
000000000011001111
000000000000001011
000000000110001110
000000000001110011
000000000001001010
000000000000010011
111111111100111111
000000000101000101
000000000100100011
111111111111000110
111111111001111001
111111111011001100
111111111111000100
111111110110101010
000000000011110110
000000000000101001
111111111100000111
111111111110110000
000000000010101011
111111111111111000
000000000011010101
000000000000000100
111111111111111001
111111111011010101
000000000100001001
111111111110001010
111111111100000000
111111111011010110
000000000110000100
000000001000001000
000000001000011011
000000000001110100
000000000001100101
000000000100001010
000000000000011111
000000000100011111
000000001000001010
111111111111010110
111111111101111100
000000000100011001
000000000000010000
111111111100011101
111111111010101110
000000000011000000
111111111100001011
000000000010100101
000000000001010100
111111111111101000
111111111101010110
111111111101010011
111111111101101000
000000000010001110
000000000010011011
000000000001100011
000000000001100010
111111111000100111
111111111110010011
000000000010011001
000000000000011111
111111111110100001
000000000001111100
111111111101100110
000000000000001010
000000000000100011
111111111100010000
000000000001100110
111111111100110011
000000000011000001
000000000101010010
000000000010000010
000000000001000110
111111111101110011
111111111111000110
000000000101011100
000000000101000110
000000000111001110
000000000010101110
111111111111000101
111111111110100100
111111111000100001
000000000101010101
111111111011010011
111111111000100100
111111111101110001
111111111001101000
000000000010001110
111111111111010101
000000000000000111
111111111100100111
111111111111011011
111111110110110000
000000000010111101
111111111010111010
111111111101111000
111111111101101101
111111111101100110
000000000010001000
111111111011110000
000000000100010001
111111111011001110
111111111110110001
111111110111010101
000000000011010100
000000000001001101
000000000010011001
000000000001001111
000000000011000111
111111111110100001
111111111101001101
111111111100100111
111111111110011011
000000000110101110
000000000100110100
111111111101110010
000000000100000011
111111111111011100
000000000011100101
111111111111000000
111111111111110101
111111111111110100
111111111111101111
000000000000001011
111111111111111000
000000000000001100
000000000000000100
111111111111110000
111111111111111001
111111111111111010
111111111111111001
000000000000001100
000000000000000110
000000000000001000
000000000000000100
000000000000010001
111111111111110111
000000000000001011
000000000000001001
000000000000000101
000000000000011001
111111111111110111
000000000000000000
111111111111110110
111111111111111100
111111111111110011
111111111111100001
111111111111110011
000000000000001110
111111111111111001
111111111111110000
000000000000001000
000000000000001001
111111111111101110
111111111111100110
111111111111110100
111111111111111101
000000000000000110
000000000000000010
000000000000001001
000000000000000101
000000000000001001
000000000000000110
111111111111111100
000000000000001101
111111111111110000
111111111111110011
111111111111110100
111111111111111000
000000000000001001
111111111111111101
111111111111111111
111111111111111011
000000000000010001
000000000000001000
111111111111111111
111111111111111111
111111111111111101
000000000000000011
111111111111101010
000000000000000101
000000000000010011
000000000000001010
111111111111101111
111111111111110000
000000000000000110
111111111111111101
000000000000001000
111111111111111110
000000000000001110
000000000000011100
111111111111111000
000000000000000000
000000000000000100
000000000000001010
111111111111111001
111111111111111001
111111111111111111
000000000000000000
111111111111110011
111111111111111000
111111111111110101
111111111111110011
111111111111111011
000000000000001000
111111111111111000
000000000000001001
111111111111111101
111111111111111011
111111111111110110
111111111111110011
111111111111101110
111111111111111011
000000000000000101
111111111111110100
111111111111111010
111111111111111110
111111111111111111
111111111111111001
000000000000000010
111111111111101110
111111111111101111
111111111111110000
111111111111110011
111111111111110011
111111111111111010
111111111111111000
000000000000000111
111111111111111010
111111111111101011
000000000000010110
111111111111101111
111111111111111111
000000000000001110
000000000000010111
111111111111111100
000000000000000110
111111111111111110
000000000000000001
111111111111101111
111111111111111100
111111111111111100
111111111111111000
111111111111110010
111111111111101100
000000000000000011
000000000000000110
111111111111110111
000000000000000011
111111111111110010
000000000000000000
111111111111111101
111111111111110000
000000000000000101
111111111111110100
111111111111111010
111111111111101101
111111111111101010
111111111111111001
111111111111111101
111111111111111001
111111111111101010
111111111111101101
111111111111110111
000000000000110111
000000000000000000
000000000000011111
000000000000010010
111111111111010010
000000000000001100
000000000000110001
000000000000010000
000000000000010110
000000000000000111
000000000000001000
000000000000010101
000000000000010110
000000000000010001
000000000000001010
000000000000001011
000000000000010001
000000000000011001
111111111111110011
111111111111110100
111111111111111011
000000000000000100
000000000000001001
000000000000000101
000000000000000000
000000000000000010
111111111111101010
111111111111111110
000000000000000011
000000000000001110
111111111111110110
000000000000000111
111111111111111000
111111111111111010
111111111111101010
000000000000001101
000000000000001110
000000000000001100
000000000000001100
111111111111111110
000000000000000011
000000000000001100
111111111111110011
000000000000001011
000000000000010001
000000000000000101
111111111111110110
111111111111110100
111111111111111001
111111111111101111
111111111111111101
111111111111101011
111111111111111010
111111111111101111
000000000000000000
111111111111110000
111111111111111100
000000000000011101
000000000000000011
111111111111111110
000000000000000011
111111111111111110
000000000000000111
000000000000010000
000000000000001111
000000000000001110
000000000000010000
000000000000010001
000000000000000110
000000000000010010
000000000000000011
000000000000011011
000000000000001101
000000000000010011
000000000000001001
111111111111110010
111111111111110101
000000000000001101
111111111111111001
000000000000000001
111111111111110100
111111111111111000
000000000000000010
111111111111111111
111111111111111001
111111111111111100
000000000000001011
111111111111011010
111111111111111110
000000000000000111
000000000000000111
000000000000001011
111111111111111110
111111111111111110
111111111111111100
111111111111111010
111111111111111111
000000000000010000
111111111111110101
000000000000000000
000000000000001001
000000000000000000
000000000000000101
111111111111111110
111111111111110110
111111111111111011
000000000000001000
000000000000000000
111111111111111100
111111111111111011
111111111111111011
000000000000000110
000000000000000100
000000000000001000
000000000000001010
111111111111111101
000000000000000110
000000000000000000
111111111111110110
111111111111111111
111111111111111000
111111111111101111
111111111111110010
111111111111110111
000000000000000001
111111111111111100
000000000000001011
111111111111110001
111111111111100111
111111111111110101
111111111111111010
111111111111101101
111111111111110100
000000000000001111
111111111111111101
000000000000000001
111111111111111011
000000000000000100
000000000000011110
111111111111110100
111111111111111000
000000000000010100
111111111111111001
111111111111111100
111111111111000001
111111111111110010
000000000001110010
000000000000000011
111111111111001011
111111111111100011
111111111110100010
000000000010111010
000000000000010010
000000000000000010
111111111110011111
000000000001011001
000000000000000110
000000000000000000
111111111111111110
000000000000000010
000000000000000010
000000000000000011
000000000000000100
000000000000000100
111111111111111100
111111111111111111
000000000000000010
000000000000000011
111111111111111010
000000000000000000
111111111111110100
111111111111111110
111111111111111110
111111111111111101
000000000000000101
000000000000001010
000000000000000010
000000000000000000
111111111111111100
000000000000001001
111111111110101000
111111111111100100
000000000000010101
000000000001100000
000000000101111011
000000000100110110
000000000011111111
000000000000101111
000000000011011010
000000000101000110
000000000100100101
000000000000000001
111111111111111011
111111111111111010
000000000000000000
000000000000000010
111111111111110111
000000000000000001
111111111111111110
000000000000000111
000000000000000000
000000000000000001
000000000000000110
111111111111111011
111111111111100000
111111111111011011
000000000000001100
111111111111110111
000000000000011001
111111111111111011
111111111111111000
000000000100010010
111111111111100101
111111111111111001
111111111111011101
000000000000101010
000000000010000010
111111111110110001
000000000000001011
111111111110101100
111111111111110001
111111111111010010
000000000001010000
111111111110001111
000000000001010101
000000000101001110
000000000011010000
000000000010011110
111111111111110011
111111111111111010
111111111111110110
000000000000000010
111111111111110110
111111111111111011
111111111111111011
000000000000000000
111111111111111010
000000000000001000
000000000000000111
000000000000000001
111111111111100001
000000000000010111
111111111111101111
000000000001110100
111111111111111101
000000000000101110
000000000000000101
000000000000000100
000000000000000100
000000000000000000
111111111110111100
000000000000100101
000000000000000111
000000000000000010
111111111111111011
000000000000000010
000000000000000001
000000000000000100
000000000000000100
111111111111111000
111111111111111000
111111111111111101
111111111111110011
000000000000000101
000000000000000011
000000000000000011
111111111111111001
111111111111111011
000000000000000000
000000000000000011
111111111111111011
000000000000000001
111111111111111011
111111111111111110
111111111111111111
111111111111111011
000000000000000011
000000000000000001
111111111111111100
111111111111111001
000000000000000010
000000000000000011
111111111111111111
000000000000000111
000000000000001000
111111111111111011
000000000000000010
111111111111111010
111111111111110111
000000000000000010
000000000000000001
000000000000000001
111111111111111100
000000000000000001
111111111111111111
000000000000000100
111111111111111111
111111111111111010
111111111111111101
111111111111111101
000000000000000101
000000000000000010
111111111111111100
000000000000000010
111111111111111100
000000000000000000
000000000000000111
111111111111111101
000000000000001110
000000000000000111
111111111111110111
000000000000010001
111111111111111110
000000000000000101
111111111111111010
000000000000000001
000000000000000010
111111111111111111
000000000000000101
111111111111111010
111111111111111000
000000000000000101
111111111111110010
000000000000001110
111111111111111111
000000000000000010
000000000000000101
000000000000000000
000000000000000011
111111111111111101
000000000000000011
000000000000000101
111111111111110111
000000000000000011
111111111111111110
000000000000000110
