000000000000111110111111111100100100000000000001010011000000000001000001111111111101110101000000000110101010000000000011111001000000000101100111111111110000111011
000000000010000101111111111001001111111111010110010001111111111001010100111111111001000101000000000010111110000000000011111010000000001101010100111111001001110110
111111111011110100111111111111011100000000000001011101000000000000010001000000000011100001111111111011000000000000000001000101111111111111111001111111111100010011
000000001110110110000000000011010110111111111000111100000000000100110101000000000000010110111111110101101100000000000011010100000000000000101001111111101101111011
000000000000000000000000000000000000000000000000000000000000000000000000000000000000000000000000000000000000000000000000000000000000000000000000000000000000000000
000000000000000000000000000000000000000000000000000000000000000000000000000000000000000000000000000000000000000000000000000000000000000000000000000000000000000000
000000000000000000000000000000000000000000000000000000000000000000000000000000000000000000000000000000000000000000000000000000000000000000000000000000000000000000
000000000000000000000000000000000000000000000000000000000000000000000000000000000000000000000000000000000000000000000000000000000000000000000000000000000000000000
000000000000000000000000000000000000000000000000000000000000000000000000000000000000000000000000000000000000000000000000000000000000000000000000000000000000000000
000000000000000000000000000000000000000000000000000000000000000000000000000000000000000000000000000000000000000000000000000000000000000000000000000000000000000000
000000000000000000000000000000000000000000000000000000000000000000000000000000000000000000000000000000000000000000000000000000000000000000000000000000000000000000
000000000000000000000000000000000000000000000000000000000000000000000000000000000000000000000000000000000000000000000000000000000000000000000000000000000000000000
000000000000000000000000000000000000000000000000000000000000000000000000000000000000000000000000000000000000000000000000000000000000000000000000000000000000000000
000000000000000000000000000000000000000000000000000000000000000000000000000000000000000000000000000000000000000000000000000000000000000000000000000000000000000000
000000000000000000000000000000000000000000000000000000000000000000000000000000000000000000000000000000000000000000000000000000000000000000000000000000000000000000
000000000000000000000000000000000000000000000000000000000000000000000000000000000000000000000000000000000000000000000000000000000000000000000000000000000000000000
000000000000000000000000000000000000000000000000000000000000000000000000000000000000000000000000000000000000000000000000000000000000000000000000000000000000000000
000000000000000000000000000000000000000000000000000000000000000000000000000000000000000000000000000000000000000000000000000000000000000000000000000000000000000000
000000000000000000000000000000000000000000000000000000000000000000000000000000000000000000000000000000000000000000000000000000000000000000000000000000000000000000
000000000000000000000000000000000000000000000000000000000000000000000000000000000000000000000000000000000000000000000000000000000000000000000000000000000000000000
000000000000000000000000000000000000000000000000000000000000000000000000000000000000000000000000000000000000000000000000000000000000000000000000000000000000000000
000000000000000000000000000000000000000000000000000000000000000000000000000000000000000000000000000000000000000000000000000000000000000000000000000000000000000000
000000000000000000000000000000000000000000000000000000000000000000000000000000000000000000000000000000000000000000000000000000000000000000000000000000000000000000
000000000000000000000000000000000000000000000000000000000000000000000000000000000000000000000000000000000000000000000000000000000000000000000000000000000000000000
000000000000000000000000000000000000000000000000000000000000000000000000000000000000000000000000000000000000000000000000000000000000000000000000000000000000000000
000000000000000000000000000000000000000000000000000000000000000000000000000000000000000000000000000000000000000000000000000000000000000000000000000000000000000000
000000000000000000000000000000000000000000000000000000000000000000000000000000000000000000000000000000000000000000000000000000000000000000000000000000000000000000
000000000000000000000000000000000000000000000000000000000000000000000000000000000000000000000000000000000000000000000000000000000000000000000000000000000000000000
000000000000000000000000000000000000000000000000000000000000000000000000000000000000000000000000000000000000000000000000000000000000000000000000000000000000000000
000000000000000000000000000000000000000000000000000000000000000000000000000000000000000000000000000000000000000000000000000000000000000000000000000000000000000000
000000000000000000000000000000000000000000000000000000000000000000000000000000000000000000000000000000000000000000000000000000000000000000000000000000000000000000
000000000000000000000000000000000000000000000000000000000000000000000000000000000000000000000000000000000000000000000000000000000000000000000000000000000000000000
000000001001110010111111111110101000111111111111101110111111111101001101000000000001110011000000000010010011111111110011011001111111111010110100111111111101101011
000000000011000111111111111010101001000000000001110001000000000010111100111111111111001110000000000111010010111111110011010011000000000001100111000000000001101001
111111111011111011111111111110011000111111111110010011111111111001111110111111111110000110000000000110011110111111110111010010111111110101000011111111111101110001
000000001000000000111111111110100111000000000101001000111111111001110010111111111001010000000000000111010001111111111101010100000000000011010101111111111100011100
000000000100101100000000000010000011000000000101001011000000000100010101000000000101110001000000000110110000111111111101011011000000000000100101111111111111101110
000000000011000110111111111111010000111111111001001001000000000100011001111111111100011010000000000000101110000000000110100111111111111111010100111111111101111101
000000000111111000000000001010010111000000000011010000000000000111001010000000001001001000000000000110110000000000000010001001000000000001110111111111111111110100
000000000110110000000000000101101100000000001000000010000000000100000101000000000000110001111111111110010010111111110101000011000000000001011100000000000011001100
000000000111010011000000000110100000000000001010101010000000000010111110000000001011000010000000000100011001000000000101010011000000000101111111000000000000110011
000000001010101100000000000000101011000000000000111000000000001010001100000000000110110010111111111111001100000000000110100001000000001001000001000000001000110010
111111111100010000000000000110111000000000000110001010000000000000100011000000000001111001000000000011000111111111111110000111111111110111110001000000000100111100
111111111111100111000000000001010000000000000010001011000000000011111111000000000001100010000000000110000000111111110111010110000000000011110011111111111101111000
111111111011000011000000001001110110000000000010011101111111111101100101111111111100110100000000000100110101111111111010100111111111111110010100000000000010001001
000000001001110001000000000001010000000000000011010101111111111000110011000000000010000000000000000001110000111111111111011001111111111011100010111111111110101011
000000000001000110000000000110101011000000000101110101111111111110100100000000000100011110111111111101010111111111110101010011000000000000000011000000000101001110
111111111000101100000000000111101010000000000101010100111111111110010000111111111110010000000000000100011101000000000000011010111111111010010110111111111101011110
000000000111000001000000000011111111111111111110111010111111111101000111111111111101011001111111111111111011000000000010000000111111111001110100000000000000011100
111111111111100101111111111010001110111111111100101110111111111110101010111111111110100000111111111001001111000000000101011011000000000000110011000000000010011000
000000000011001101000000000010001111000000000010101100111111111010011100000000000000100011111111111111011111000000000111001110111111111100101111000000000010111110
000000001111001010000000001111001101000000001010001111000000001011001110000000001011100011000000001011111011000000000111110011000000000101101001000000000011010000
000000001001010111000000001001000111000000000110011100000000000101101101000000001000001000000000000111010001000000000010010011000000000101111010111111111101000110
000000000001111001111111111100110101000000000101001010111111111110100000111111111110100001000000000101100111111111111001110101000000000001100110111111111110001101
000000000010111000000000000101001001111111111111011101111111111101011011000000000010000110000000000000101010111111111101111101000000000110001101111111111011000000
000000000111011101000000000011000010000000000101100100111111111001110100111111110111010111111111111100110101000000000110000101000000001000010110111111111110000101
000000000110011101111111111110100100000000000011110011111111111011111011000000000010000001111111111010111001111111111000100010000000000110010101111111111011111110
000000000110100010111111111001111110111111111011111111111111111011010101111111111011110110000000000011111001000000000011011001111111111010010111000000000100000010
000000000110111000000000000011010101000000000011001001000000000000011111000000000010110100000000000011100101000000000000110100000000000100001111111111111110110100
000000000010001010000000000001001011000000000000101011000000000000110100111111111001011010111111111110011100000000001001000101111111111100011101111111111001000110
000000000010110101000000000011010010000000000000100011111111110101101111111111111101101110000000000100110100111111111011101000111111111111110111111111111110111001
000000001010110110111111111101010101111111110100001100000000000000001000000000000100001011111111111100011101000000000010111000111111111111001111000000001010001100
000000001001101011000000000111101000000000000011000101111111111100011111111111111010011110000000000000110001111111111011111110111111111000110011111111110111100000
000000001000101010000000001100111101000000000101000001000000000000000100000000000011000111000000000100010100111111111110100101000000000101101011111111111101101101
000000000011111111000000000000001001111111111101110100111111110111101100000000000110000111000000000000100101000000000110100000111111111011100101111111111101010010
000000000000011110000000000101001000111111111000000011000000000010101111111111111111100100111111111111011001111111111111011001111111111001101011000000000001110100
000000000000001000111111110110011110111111111101000010111111111100000100111111110110111010000000000000110010111111111011101100000000000001100000111111111010001000
111111111100001010000000000100101010111111111011010111000000000011011011111111111111011001111111111101000000000000000001011100000000000000111111000000000000101100
000000000010000110111111111110011111111111111110111111111111111011000011111111111101001000000000000000111010111111111011110011111111111110000011000000000101011011
111111111110000111000000000010101000000000001000011011111111111101110110111111111100011101000000000001000100000000000000010100000000000010011110111111111111100010
000000000000100000111111111101111101000000000010111101111111111010010101111111111111001110000000000011110111000000000011001010111111111101111001111111111100111101
000000000011000011000000000000110001111111111101110110111111111100100101111111111110000101111111111100101101000000000010101101000000000001011101111111111101001101
000000000011010110000000000000000000111111111101111111000000000010100100111111111110100011000000000001001101111111111000000110111111111110110001111111111101000001
111111111110100111000000000001011100111111111011011100000000000001011000000000000000100110111111111110011011111111111111111001000000000010000101111111111110010000
111111111110100000111111111011100101111111111011000001111111111100100100000000000011101000111111111101011110111111110111011101000000000100011001111111110111110011
111111111110110000111111111111101011000000000001011000000000000011001101000000000001011101111111111110110011000000000000010000000000000001010101111111111111010000
111111111111111111000000000010010011111111111111001111000000000010010110000000000011100101000000000011100001000000000001100111000000000110110100111111111110110100
000000000100110011111111111111001010111111111111000111000000000001000000111111111110100010111111111101111010111111111000101001111111111110010111000000000000111101
000000001000100001000000000001111001111111111110110000000000000100011010000000000101111111000000000101111111000000000100111000000000000001000100000000000101100011
000000000101100001000000000000111110111111111100011011111111111110001010000000000000010000000000000010001100000000000110000001111111111101000110111111111101001000
111111111110100000000000000001001111000000000011000111000000000101101111111111111011111101111111110111100001000000000100011001000000000001110100111111111111001010
111111111110101100000000000011011001000000000001101101000000000000110100000000000000001101111111111101001100000000000001010101000000000000011100000000000000110111
000000000010010100000000000000000111000000000100001100000000000111100001000000000110011111000000000101101000000000000010000000111111111001011101000000000001000011
000000000011101110000000000001100010000000000011011101000000000101100011111111111110110110000000000100000111000000000001100100000000000000000101111111111101000110
000000000011101011111111111110011111000000000110001111000000000010010010111111111101101010000000000011110010000000000010110010111111111011100001111111111001011010
000000000101011101111111111111011001111111111100000100000000000100011111111111111111011011111111111111001011000000000110000000000000000000110100111111111100101100
000000000011000000000000000001100100000000000010010010000000000111010100000000000100000111000000000011111001000000001000111111000000000001111101000000000011011011
111111111011110010000000000000001011111111111101101111000000000010001010111111111110011010111111111011101011000000000010100011111111111110011101111111111110111101
000000000010011000000000000101000001000000000101010111111111111101111111111111111111011100111111111111011110000000000010110110111111111100011010111111111111011010
111111111101001100111111111101011111111111111111111000000000000010001010111111111111000001000000000001100111111111111111010101111111111111000010111111111111100111
000000000000100011000000000100001000000000000001010000000000000010100110000000000001010010000000000001000011000000000011011001000000000011010101000000000011110111
000000000011111010000000000000001110000000000011000110000000000011010000111111111111111111111111111101000000111111111100101001000000000100011000000000000001111000
111111111100010001000000000101111011111111111011010111111111111110101110000000000010011011111111111100100000111111111110011001111111111100001011111111111000100010
000000000001000000111111111111000111000000000110010110111111111111011100111111111111111011111111111110100101111111111011011111111111111111001011111111111111111001
000000000001111111000000000000000101111111111011110010000000000010001000000000000000000101000000000010110100111111111001011110000000000110001100000000000100001100
000000000011010101000000000000000110000000000101111010000000000000101111000000000100010100000000000011110011000000000001011010111111111001010110000000000010001100
111111111111110011000000000000000111000000000000001110000000000000000100111111111111110000111111111111100110111111111111101010000000000000001100111111111111110100
000000000000011110111111111111101011111111111111110001111111111111111000111111111111011110111111111111111001111111111111100111111111111111111110111111111111111001
000000000000001111000000000000011001000000000000000011000000000000010110000000000000000001000000000000100100111111111111111111000000000000001111000000000000100001
111111111111101001000000000000000100000000000000001010111111111111111110000000000000010000111111111111111100000000000000001101000000000000000011111111111111110110
000000000000000101000000000000000011111111111111110101000000000000010000000000000000000100000000000000000111000000000000000101111111111111111111000000000000000110
111111111111111101111111111111111001111111111111110010000000000000000111111111111111110111111111111111110111111111111111101000000000000000001100000000000000100100
000000000000001011000000000000000010000000000000001011111111111111101101111111111111110111111111111111110000000000000000001111111111111111111001000000000000000010
111111111111110100000000000000000001111111111111110111000000000000000011111111111111111011111111111111111010111111111111010111111111111111111101000000000000010000
000000000000000001000000000000000000000000000000010010111111111111111011000000000000001010000000000000001100000000000000001100000000000000000100000000000000010101
000000000000000101000000000000001001000000000000000111000000000000001100000000000000001100111111111111111001000000000000000111111111111111100011111111111111111011
000000000000000010000000000000001001000000000000000010111111111111101001111111111111111111111111111111111001111111111111110101111111111111110011111111111111110011
111111111111110111111111111111110101111111111111111100000000000000000001111111111111110010000000000000000000111111111111110111111111111111111000000000000000000000
000000000000010011000000000000001011000000000000000001000000000000001011000000000000000010111111111111111011000000000000001111000000000000000010111111111111111111
111111111111111000111111111111111011000000000000000101000000000000000111000000000000000111000000000000000000111111111111111111111111111111111000111111111111110011
111111111111111011111111111111110110000000000000010010111111111111110011000000000000001101111111111111101100000000000000000000000000000000000001111111111111111100
111111111111110101111111111111111101111111111111110101111111111111110101000000000000000110111111111111101101111111111111101010111111111111111011111111111111111001
000000000000000010000000000000001110111111111111111111000000000000011001000000000000000100000000000000000101111111111111011101111111111111111001000000000000000100
000000000000000110111111111111111010000000000000010110000000000000010001000000000000001010000000000000000110111111111111110101000000000000011000111111111111110111
000000000000001100111111111111111010000000000000000100000000000000000100111111111111111111111111111111111101000000000000000011111111111111111100111111111111110001
111111111111111011000000000000001110000000000000000011111111111111111001000000000000000001111111111111110010000000000000000010111111111111111001111111111111111010
111111111111111111000000000000001111000000000000000000111111111111110101000000000000001001000000000000001011000000000000001101111111111111110110000000000000001000
111111111111111101000000000000001001111111111111101111111111111111110000000000000000000010000000000000001101000000000000000111000000000000001100111111111111101101
000000000000011010000000000000010001000000000000001010000000000000001010000000000000001010000000000000100100000000000000010000000000000000010010111111111111111110
111111111111100001000000000000000111000000000000011000000000000000001010000000000000001010111111111111111111111111111111111110000000000000011001000000000000000111
111111111111111100111111111111110110111111111111111001000000000000000010000000000000001010000000000000001100000000000000001101111111111111110110111111111111110101
111111111111111000000000000000010000111111111111111111000000000000001110111111111111110110000000000000001110000000000000010111000000000000000101000000000000001010
111111111111101010111111111111100011111111111111100010000000000000000011111111111111111110111111111111111111111111111111100110111111111111110110000000000000000101
111111111111111001111111111111110111111111111111110010000000000000000001111111111111111110000000000000000101111111111111111000000000000000000010111111111111111110
111111111111111100111111111111111100000000000000001111111111111111111100111111111111111100111111111111101111000000000000010101000000000000010010000000000000010011
000000000000000001000000000000000011111111111111111111111111111111110100111111111111111111111111111111111100111111111111111111111111111111111010111111111111110011
111111111111111010111111111111100001000000000000001011111111111111111000111111111111111110000000000000000000000000000000010011111111111111111111000000000000000110
111111111111110000000000000000001000111111111111111011000000000000000010000000000000001101111111111111101101000000000000010111000000000000011111000000000000010101
111111111111010111000000000100101001000000000100101110000000000100001010111111111100101111111111111111100000000000000000000111111111111111011001000000000000000111
111111111111111100000000000000000000000000000000001010000000000000001001000000000000011000000000000000000101111111111111111011111111111111101100000000000001111100
000000000000001000000000000000010001000000000000010000111111111111111111111111111111111101111111111111111010111111111111111000111111111111111011111111111111111100
111111111111111001111111111111111100111111111111110100000000000000000100000000000000000001000000000000000101111111111111110001111111111111110101000000000000010000
000000000000000100111111111111110101000000000000000111000000000000000011000000000000010111000000000000000010000000000001000010111111111111110110000000000000001010
111111111111110010111111111111110000000000000000010011000000000000001000000000000000000101000000000000010000111111111111101111111111111111011001000000000001011111
000000000101010111000000000101010100000000000101010100000000000000001000111111111111111111111111111111111101000000000000000111111111111111110100111111111111111001
000000000000011000111111111110110110111111111111111010000000000000000100111111111111100111000000000001101101000000000000011100000000000000001010000000000011011101
111111111111111011111111111111111100111111111111111011111111111111111110111111111111111010000000000000001000000000000000001100000000000000001001000000000000000101
000000000000000101111111111111111011000000000000000100000000000000001001000000000000000011000000000000010011000000000000000101111111111111110101111111111111111001
111111111111111101000000000000000011111111111111110101000000000000000010111111111111110110111111111111111111000000000000000010000000000000000010000000000000000011
000000000000000000111111111111111011111111111111111101111111111111111001000000000000000100000000000000000000000000000000000110111111111111111011000000000000000100
000000000101100010000000000011110111000000000011111100000000000011001000000000000000011001111111111111010010000000000000100010000000000000111100111111111100111011
000000000000000111000000000000000101000000000000000011000000000000000010000000000000000000000000000000000010000000000010101111000000000010000011000000000000111010
000000000010100001000000000011010010000000000101000101000000000000000000111111111111110101111111111111111101000000000000000000000000000000000000111111111111111011
000000000001101000111111111111011101111111111111111000000000000000010100000000000010011110000000000010111111111111111111011101000000000000000101000000000001111010
111111111111110111111111111111111110111111111111111010000000000000000010000000000000000011000000000000000110111111111111111011111111111111111101111111111111111100
111111111111111000111111111111101011111111111111111101000000000000000110000000000000000101111111111111111100111111111111111101000000000000000100111111111111111101
111111111111111000111111111111111110000000000000000010000000000000000110111111111111111111111111111111111101000000000000000001111111111111111000111111111111110010
000000000000000111000000000000000000000000000000000011000000000000000000111111111111111110000000000000000011111111111111111000111111111111111011000000000000000011
000000000000000111000000000000000100000000000000000111000000000000001001111111111111111010000000000000010101000000000000001001000000000000010010000000000000001111
000000000000000000000000000000000000000000000000000000000000000000000000000000000000000000000000000000000000111111111111110100111111111111111100111111111111111000
000000000000000000000000000000000000000000000000000000000000000000000000000000000000000000000000000000000000000000000000000000000000000000000000000000000000000000
000000000000000000000000000000000000000000000000000000000000000000000000000000000000000000000000000000000000000000000000000000000000000000000000000000000000000000
000000000000000000000000000000000000000000000000000000000000000000000000000000000000000000000000000000000000000000000000000000000000000000000000000000000000000000
000000000000000000000000000000000000000000000000000000000000000000000000000000000000000000000000000000000000000000000000000000000000000000000000000000000000000000
000000000000000000000000000000000000000000000000000000000000000000000000000000000000000000000000000000000000000000000000000000000000000000000000000000000000000000
000000000000000000000000000000000000000000000000000000000000000000000000000000000000000000000000000000000000000000000000000000000000000000000000000000000000000000
000000000000000000000000000000000000000000000000000000000000000000000000000000000000000000000000000000000000000000000000000000000000000000000000000000000000000000
000000000000000000000000000000000000000000000000000000000000000000000000000000000000000000000000000000000000000000000000000000000000000000000000000000000000000000
000000000000000000000000000000000000000000000000000000000000000000000000000000000000000000000000000000000000000000000000000000000000000000000000000000000000000000
000000000000000000000000000000000000000000000000000000000000000000000000000000000000000000000000000000000000000000000000000000000000000000000000000000000000000000
