1111111001100001
1111111111100010
0000000000100010
0000000011101101
1111111000101110
1111110110011000
1111110111101111
1111110011111110
0000000011000100
0000000010000100
0000000101010000
1111111010001110
1111110100011111
0000000100110011
0000000010010111
0000000111001001
0000000110010001
1111101101010001
1111111000110011
1111101011100101
1111111001010100
1111100001010000
1111111100011011
1111111100110110
1111111101010011
1111111100110101
1111111101101001
0000000011101110
1111110100100000
1111110111011111
0000000100110010
0000000101110010
1111110101011011
1111111010101110
1111011001111101
1111111101010110
1111110101110010
1111111100000010
0000001001111010
0000000010000100
0000000001000101
0000000111110101
1111111011001101
1111110100011010
1111111011001111
1111111100100100
0000000101101000
1111111110011100
1111110110110001
0000000100000111
1111111011110111
1111101110101000
0000000111100010
0000000110000010
1111111100000111
1111111101011100
1111111101011101
0000000000011111
1111111101000001
0000000110010100
0000000000001110
1111111000110010
1111110111101011
0000000001000110
1111111100010100
1111111110010000
1111111011100010
1111111110111101
1111110010001111
0000000000011110
0000000001011000
1111111100110110
0000000111100100
0000000100010010
1111111110001010
0000001000101001
1111111011110101
0000000001100001
0000000001010101
0000000000110110
0000000101111111
1111111000011111
0000000001000100
0000000010110010
0000000000110001
1111111010101111
0000000010000101
1111111011110110
0000000101001100
0000000010000111
1111111110100110
0000000001000000
0000000011001001
0000000011011101
0000000110000000
0000000101000001
0000000010001110
0000000010101001
0000000100100001
0000001001001100
1111110111001010
0000000101100000
0000000101100101
1111111100111010
0000000011101111
1111111011110001
1111111101001011
1111111111111010
0000000011111001
0000000000111101
0000001011010000
0000000101001011
0000001000000001
0000000010100111
0000000101000100
1111111111100010
0000000100111001
1111111110000100
0000000101011011
0000000011000011
0000000111000000
0000000010000001
0000000100111111
1111111101000111
1111111101111000
1111111110011110
0000000110100111
0000000100011011
1111111000100110
0000000000000101
0000000100010101
0000000101101100
0000001001000010
1111111100001110
0000000011110010
1111111111101000
0000000001101110
0000000010110011
0000001000001011
0000000111111011
1111111100001010
0000000101100011
1111111101000101
1111111101000110
0000000000100101
1111111101010111
0000001001010111
1111111001011001
1111111110000100
1111111011111110
0000000001100011
1111111100110010
1111111100110010
0000000111001011
0000000101011101
0000000100000101
0000000011100111
1111111111111010
1111110111111000
1111111100101011
1111111011111000
0000000100100100
0000000111111011
1111110101111110
0000000110010111
1111111111101001
0000000110110000
1111111101100011
1111110110111101
0000000000111101
1111111011000000
0000000010100110
1111111010101100
1111111110010101
1111111110100001
0000000011000010
0000000110001101
0000000001001111
0000000010011100
1111110111101110
0000000000001110
0000000001101001
0000000010001101
0000000001001100
0000000010001100
1111111101110010
0000001000101100
0000000001011110
1111111110110100
0000000000111011
0000000101000000
1111111101011010
0000000001010111
0000000010010111
1111110010010101
0000000011110010
1111111011100011
0000000100101000
0000000110000000
0000000100000110
0000000100001000
0000000010101111
0000000100111011
1111111010111001
0000000010111111
1111111010011111
1111111110111000
0000010010110010
0000001110111100
0000000111001011
0000000011110011
0000001010010100
0000001001000001
0000000001011100
0000000100111001
0000000011100111
0000001010010101
0000000111000010
0000000001100101
0000001000101100
0000000001110101
0000000111011111
1111111111101100
0000000100000001
1111111100111101
0000000010001110
0000000001110101
1111111100011111
1111110110010100
0000000000011101
0000000011001100
1111111011101110
0000001001010110
1111111101001100
1111111010010101
0000001011001010
0000001010101101
0000000000010011
1111111110001001
0000000011010000
1111111011110000
1111111110000010
0000000001100100
1111111010101110
0000000010001111
1111111000111101
0000000000110001
0000000110000101
0000000001010000
0000000101110011
1111110011010010
1111111100000011
1111111111011110
0000000011101000
0000000000101111
1111111100000000
1111111010010100
1111111011100010
1111111110000111
1111111100100101
1111111010101101
1111111110000111
0000000010101100
1111111000111101
1111110101001110
0000000011011111
0000000101010010
1111111100100100
0000000111111001
1111111101111111
0000000000001100
0000000001010111
1111111111110010
0000000010000111
0000000101100101
0000000100011111
1111111100010111
1111111111100110
1111111101011111
1111111101100110
1111111110001001
1111101111110001
1111111010010110
1111110101100111
0000000011000001
0000000101110111
0000000001100101
0000000010010011
0000000100110101
0000000000010011
1111111010110011
0000001000001100
1111111010100010
1111111100100010
0000000001001101
1111111111010101
1111111111100100
0000000001111111
0000000011110100
1111111100000011
1111111110011000
0000000000000101
0000001000100101
1111111101110110
0000000000100111
1111111111111001
1111111001011001
1111111010111001
1111111101010101
1111111010100111
1111111111010010
0000000001000011
0000000001110110
0000000010001110
1111111111100111
0000000001000111
0000000101100001
0000001001001111
1111111011100010
0000001100010011
0000000000111110
1111111111000100
0000000111000100
0000000110011110
0000000100000100
0000000011100000
1111111110000011
0000000001000010
0000000011001001
0000000010101011
0000000110010110
1111111001010011
1111111101111011
1111111011110000
0000000010011000
0000000100000010
1111111001111101
0000000100001100
1111111110101000
1111111100110000
1111111110111111
0000000001110011
1111111110110111
1111111110011101
1111111111101110
1111111001000011
0000000001110010
1111111101010110
0000000000010111
0000000011000001
1111111001101000
0000000010000000
1111111111100110
1111110101110110
0000000011111011
1111111101110010
1111111100100011
1111111100110011
1111111110111101
1111111010100001
1111111010010100
0000000001010111
0000000001111100
1111111101101101
1111111101011000
1111111100001111
1111111110011110
0000000101100001
1111111111000001
0000000001101111
1111111101111000
1111111110101011
0000000100100011
0000000101110111
1111111110111000
0000000101101101
0000000011010111
1111111101101011
1111111110011100
0000000011010110
1111111100100100
0000000010101001
0000000100111011
0000000001100110
0000000101000101
0000000010111110
0000000000100100
1111111111011110
1111111000001010
0000000101000100
0000000010100001
1111111110011111
0000000011100111
1111111011000101
0000000010011010
1111111010110001
1111111100100010
1111111101111011
1111111001101001
1111111001100101
1111111110010001
0000000110100000
1111110110111111
1111111111001000
0000000011111010
1111111111101001
0000000001000010
1111111010100010
1111111110001001
0000000101011110
0000000001101101
0000000010100110
1111111110110010
1111111010110001
1111110110000101
1111111101010110
0000000000110011
1111111010010010
1111111011001111
1111111010011011
1111111110111101
1111111101010110
1111111101000010
0000000101110111
1111111100111001
0000000101001110
0000000001110001
0000000000010011
0000000111110010
0000000010001001
0000000001100110
1111111100011010
0000000100100010
0000000111101000
0000000010100101
0000000000001111
0000000100001101
0000001001010001
0000000101101100
1111111110100110
0000000100010101
0000000001010001
0000000001010100
1111111011001011
0000000000100111
0000000001010001
1111111110010110
1111111010110100
1111111000100101
0000000000101111
1111111001010011
1111111110111001
0000001011001111
0000000111011000
0000000011011111
0000000101111101
0000000111011000
0000001001001001
0000000010001010
1111111000001100
0000000011011110
1111111011001101
0000001000000010
0000000010010011
0000000111100110
0000000100111111
1111111100010110
0000000111000001
0000000001101111
1111111110011011
0000000000010110
1111111110101001
0000000011100110
0000000010100010
0000000000100011
1111111001110111
0000000110100010
1111110110100100
1111111101101010
0000001000101111
0000000100000010
1111111110001001
1111111000111110
1111111011010111
1111111101110000
0000000101110011
1111111011000101
0000000100000100
1111110111011111
1111111110101001
1111111100110011
0000000001000100
0000000100010010
0000000100000001
1111111111010000
0000001000111110
1111111100000001
1111111111100001
0000001000111010
1111111110001111
0000000010001010
0000000100010111
0000000110101110
1111111110001000
0000000001101100
1111111111011111
1111111110111100
1111110111111001
1111111111101110
0000000000011011
1111110100001001
1111111100001001
0000000000000100
0000000101011100
0000000001010011
0000000011101000
1111111111000110
1111111101011001
1111111101111100
1111111111100010
0000000111111011
1111111111010100
0000000100110100
0000000011001100
0000001011001101
0000000110101100
0000000110000100
0000000011010011
0000000011100001
0000000001011100
1111111111110011
1111111101110110
1111111110111010
1111111110101011
1111111111001001
1111111111100010
0000000010110111
1111111100100011
0000000000001101
1111111111011001
1111111111010011
1111111000101100
0000000011100101
0000000000001111
1111111101101101
0000000001101011
1111111001001000
1111111111010101
1111111000011001
0000000101010110
1111111001001010
1111111111101010
1111111011101111
0000000000010000
0000000010110100
1111111100001011
1111111100010011
0000000110011110
0000000001010100
0000000001110101
1111111110011010
0000000001010000
0000000010110101
1111111100100011
1111111010001000
0000000001100011
1111111101110111
1111111111010000
0000000011100011
1111111101000110
1111111111001100
0000000101110100
0000000011110000
0000000011010010
0000000011000101
1111111011110111
1111111111011011
0000000010010010
0000000100011110
0000000101011110
1111110101101000
1111111100010101
1111111100111110
0000000100111010
0000000000001001
1111111101011100
1111111011001011
0000000000100000
1111111100101111
1111111111011011
0000000000101000
1111111101011111
0000000000110000
0000000000000011
1111111001100001
1111111010110110
0000000110110010
0000000110111011
0000000101010000
0000000001111111
0000000010010111
1111111101010101
1111111011011000
1111111111010000
0000000001001000
0000000111100011
0000000010100111
1111111101111111
0000000011010110
1111111110110010
0000000001111110
1111111010101010
1111111101111111
1111111101111110
1111111101110011
0000000010010111
1111111101110000
0000000011100010
0000000001001010
1111111110011010
1111111100110111
1111111011100000
1111111111011111
0000000001000100
1111111100110011
0000000010000010
0000000000110110
1111111111000011
0000000000110110
0000000001001100
0000000000111001
0000000010110011
1111111110111110
1111111111000100
0000000000101100
1111111101011111
1111111111010001
1111111111101000
1111111100100001
0000000010101001
1111111110000000
0000000001010101
1111111111011011
0000000000111100
1111111110010010
0000000000000111
1111111111001101
1111111101111000
0000000001110001
1111111111101000
1111111111011101
0000000010110101
1111111101110100
0000000010111011
0000000000110111
0000000001010100
0000000001001001
1111111110010111
1111111100010011
1111111011010100
0000000001101000
0000000000001110
0000000001001110
1111111111001110
1111111101010010
1111111111110011
1111111111001000
0000000001000111
0000000000000000
1111111100110101
0000000000010111
1111111111100111
0000000000000010
1111111110100110
1111111010010010
0000000011001010
0000000000101101
1111111110101100
1111111101101101
0000000100001111
1111111111111011
1111111111000101
0000000001011110
1111111111101001
1111111101101110
0000000000000010
0000000000010111
0000000000011000
0000000010101001
1111111100000001
0000000001101100
0000000010101111
0000000010111110
1111111100101000
1111111100110110
0000000000001010
1111111101011111
1111111111011011
1111111110110011
1111111111001010
1111111101010110
1111111111010100
1111111100100100
1111111110111001
1111111110001101
1111111100110011
1111111110001110
1111111111001100
0000000000110110
1111111110110000
0000000010111001
1111111110100111
0000000001011011
1111111100100001
0000000001000000
1111111110010110
1111111111110001
0000000000101100
1111111111011000
1111111111000110
1111111101111010
0000000001001100
1111111101011111
0000000010011110
0000000000101011
0000000100110100
1111111111001101
0000000000101001
1111111111001011
0000000000011010
0000000000011110
1111111101010000
1111111111101010
1111111110001000
1111111110111111
1111111010100011
1111111110000100
1111111110110001
1111111110100000
0000000000011100
1111111100011110
1111111110001011
1111111110100101
1111111101110100
0000000000001111
1111111101101101
1111111111100011
0000000010110010
1111111111011111
0000000000100011
0000000001110111
1111111111111101
1111111100101110
0000000000000000
1111111011101110
1111111110111001
0000000001111000
0000000111001100
0000001011111100
0000000111011001
0000000101100111
0000001001100100
0000000100100001
0000000101100101
0000000110010110
0000000000010000
1111111110001101
0000000001101011
0000000100001000
1111111111110000
1111111111000010
0000000011111111
1111111110011101
1111111111010100
1111111111111000
0000000001000000
1111111110110111
0000000001000111
0000000000010001
1111111101100101
0000000001010110
1111111111100111
0000000000001011
1111111111001100
0000000010000101
1111111101001111
0000000001101010
1111111110110001
1111111111101000
1111111111000001
1111111111101001
1111111011001101
0000000010000100
1111111101110111
0000000011000000
1111111111101000
1111111110000001
1111111111101011
1111111111110011
1111111111010100
0000000011001111
0000000001110001
1111111111100010
0000000000011010
0000000001010110
0000000001011110
0000000001000110
1111111110011110
1111111110110010
1111111110100001
1111111100111000
0000000000000010
1111111110111000
0000000001000100
0000000010001111
1111111010100000
1111111100011010
0000000001110011
0000000000110111
0000000000100100
1111111100101111
1111111111000110
1111111110111011
0000000000111001
1111111110001010
0000000000000101
0000000010101111
1111111100100111
1111111110100111
0000000010110101
1111111111001110
0000000001111101
1111111101010111
1111111111010110
1111111110101110
1111111111001111
0000000010100010
0000001000011100
0000000110110001
0000001010101010
0000000010111000
0000000011001101
0000000111111000
0000000010011100
0000000010100000
0000000101001011
0000000000100011
0000000000010000
0000000001100011
1111111110101001
1111111110010010
1111111101010011
0000000010000101
0000000000000101
1111111110010010
1111111101011101
1111111110111100
1111111101011110
1111111100110111
1111111100110011
0000000000111101
1111111101010101
1111111100001001
0000000010110111
0000000001010110
0000000001010011
1111111110110010
1111111111111000
0000000010110110
1111111110011101
1111111110110010
1111111111001001
0000000010111110
0000000001001111
1111111111101010
1111111101100010
0000000000111111
0000000000001110
1111111110100011
0000000001111100
1111111110000101
0000000100000111
1111111111010111
1111111111110001
0000000011111011
1111111111011110
1111111101101100
1111111100100010
0000000010000011
1111111101100101
0000000000110000
1111111100111100
1111111100011101
1111111101110011
1111111101111011
0000000011010111
1111111111001001
0000000000011011
1111111100111001
1111111110111101
1111111111110010
1111111111001100
1111111111111110
1111111111110001
0000000000000110
0000000011110010
0000000100011100
0000000010111010
0000000000010001
0000000000000001
0000000000000001
0000000000111001
1111111111111001
1111111111110111
1111111111110110
1111111111111010
0000000000000001
1111111111111010
1111111111111100
1111111111111011
0000000000000011
1111111111111110
1111111111111100
1111111111110000
0000000000000011
1111111111111101
0000000000000010
0000000000000000
1111111111110101
1111111111110001
1111111111111100
0000000000000001
0000000000000011
1111111111110110
1111111111101111
1111111111110110
1111111111110000
1111111111100101
0000000000100100
1111111111111000
0000000001000001
1111111111010101
1111111111101000
0000000000001000
0000000001010100
1111111111100011
0000000001001110
1111111111101110
0000000000000101
0000000000000111
1111111111111011
1111111111111100
1111111111111000
1111111111110110
1111111111111010
1111111111111000
0000000000000011
1111111111110000
1111111111110001
0000000000001010
0000000100111111
0000000101010010
0000000101111110
0000000011111010
1111111111111011
0000000000111100
0000000010111011
0000000000111000
0000000000010011
0000000001101110
0000000000010101
1111111111100001
1111111111111110
0000000000000011
0000000000000001
0000000000001001
0000000000000100
1111111111111010
1111111111111011
1111111111111010
0000000000000110
0000000000001000
1111111111111100
1111111111111110
1111111111111011
1111111111111100
0000000000000010
1111111111111011
1111111111111101
1111111111111110
0000000000000010
1111111111110111
0000000000000100
1111111111111001
1111111111111000
0000000000010010
1111111111111010
1111111111111101
1111111111110110
0000000000000110
1111111111111100
0000000000000100
1111111111111011
1111111111110101
1111111111111011
0000000000000111
1111111111111101
1111111111111010
1111111101110101
0000000000000111
1111111111110100
0000000000110011
1111111111101101
0000000010000010
0000000011101111
0000000010110101
0000000001011111
0000000011000011
0000000010011111
0000000101001111
0000000000001001
0000000000000000
0000000000000100
1111111111111100
1111111111111001
1111111111111011
1111111111111011
1111111111111011
1111111111111000
1111111111110011
1111111111101100
1111111111111011
0000000011010101
0000000100110111
0000000010110010
0000000010101010
0000000000011101
0000000001011011
1111111111011001
0000000000011110
0000000000100100
1111111111001000
1111111111101110
0000000001101001
0000000000000100
0000000000000100
1111111111111111
1111111111110011
0000000000000111
0000000000000000
0000000000000001
1111111111111101
1111111111111111
1111111111110111
0000000000001100
0000000000001010
0000000000000001
1111111111111011
0000000000000000
0000000000000011
0000000000000101
1111111111111101
0000000000001001
1111111111111110
0000000000000101
0000000000000010
0000000000001000
0000000000001110
0000000000000010
0000000000000101
0000000000001010
0000000000000110
0000000000000001
0000000000000001
0000000000000000
0000000000000011
0000000000000000
0000000000001010
1111111111111000
0000000000001101
0000000000000000
0000000000000100
1111111111111101
0000000000000000
1111111111110011
1111111111110100
1111111111110101
0000000000000110
1111111111111101
1111111111110010
1111111111111010
1111111111101111
