1111111110000111
1111111100110010
0000000001011001
0000000001101100
0000000010100100
1111111010001111
0000000001011110
0000000111011111
1111110111100010
0000000001010110
0000000001010100
1111111011010001
1111111110100110
0000001001100110
1111111100010010
0000001000010011
0000001001110001
1111111110111111
1111111110111011
1111111110011101
1111111111001010
0000000000111010
1111111111100101
0000000010010011
1111111110000011
0000000001001101
1111111111001111
0000000010100010
1111010100100101
1111101011010011
0000000100100010
0000001011010010
1111101011111110
1111111100000000
1111100010010011
1111101000010000
1111111111111111
1111111001010010
0000000001100110
0000000011010001
1111111010011001
0000000110111011
0000001001001010
1111110111000000
0000000001110000
0000001000111011
1111110011010111
0000001000011001
0000000010011100
1111111110110111
0000000011001011
0000000001001101
1111111110010000
0000000000000001
1111111000010000
1111111110000101
0000000100010010
1111111110111110
1111111111000000
1111111110110000
0000000101111010
0000000000101011
0000000001111101
1111111101100110
1111111100000111
1111111110110010
1111111101110000
0000000000011100
1111110100110100
1111111100110101
0000000100111101
0000000010110101
1111111101011001
0000000001000100
1111110110000001
0000000110011110
0000000000111111
1111111110101110
0000000001110111
0000000110011000
0000000100100001
0000000000100000
0000000000100100
0000000010100111
1111111010111000
0000000001011111
0000000010001010
0000000010001001
0000000100101101
1111111101101000
0000000000011000
0000000100000111
0000000100010010
0000000110010101
0000000010000001
0000000011000110
0000000011010101
0000000001011101
0000000010010110
1111111000000111
0000000011100010
1111111100001010
0000000100101010
1111111111010001
0000000000011010
1111111000101101
0000000010100110
0000000110100001
0000000100101001
1111111000111001
0000000001100011
0000000100100111
0000000101001100
1111111111011110
0000000001100011
0000001100100001
0000000011111010
1111111101100000
0000000010101001
0000000100000001
1111111111101000
0000000001100000
1111111010110011
0000000101101000
1111111111100010
0000000100101110
1111111111101010
1111111110100101
1111110111100011
1111111111100100
1111111101000001
0000001000011011
0000000000001001
0000000001100001
0000000001100111
1111111110110101
1111111001101011
0000000001110001
0000000100111100
0000000000101000
0000000001110000
1111111110101110
0000000011010000
1111111101101100
1111110100110010
0000000100101100
0000000010100001
1111111111111011
1111110100111110
0000000001011101
0000000000010010
1111111011111100
0000000111010001
0000000000000111
1111111110011001
1111111110100101
0000000100100111
0000000000111000
1111111010111100
0000000100110101
0000000000101010
0000000010001111
1111111110101111
0000000010001011
1111111110010111
1111111111101100
0000000000010111
0000000011000111
0000000000010000
1111111010001111
1111111100110110
1111111100110111
0000000000111110
0000000010001101
0000000100101000
1111111011110101
0000000011011111
0000000010011110
1111110111101110
0000000101011000
1111111011010111
0000000010010011
1111111101010000
0000000100000110
1111111101111001
1111111110111110
1111111010110011
0000000010011000
0000000010111100
0000000001010111
0000001000100101
1111111100111110
1111110001000111
0000000011101010
0000000001001111
1111111110000000
0000000010100000
1111110111100001
0000001011000101
1111111100011000
1111111100001011
0000000001001111
0000000100000001
1111111001010010
0000000011101010
0000000010001000
0000000000101111
1111111100011100
0000000010101111
1111111111000010
0000000011111000
0000000010010010
0000000100001111
0000000101111011
0000001000011111
0000000010010110
1111111101010001
0000000100001001
0000000100110001
0000000100010110
0000000100101100
1111111111011000
0000000100010110
0000001010010011
0000000010001001
1111110011010111
1111111111011010
1111111100001001
1111111100010011
0000000011101111
0000000010101101
0000001100111101
1111110101111111
0000000000001101
0000000011001011
1111111010011111
0000000011010000
0000000110101100
0000000000001100
1111111100111111
0000000110011111
1111111100001101
0000000001100000
0000000000110110
0000000011101100
1111111101000000
1111111110111101
1111111101010001
1111111101101010
1111111000011010
0000000101010010
1111111000101000
1111111000101110
0000001011010000
1111111111011001
1111111000110111
0000000010111100
0000000100011111
1111111110000100
0000000000010011
1111111100101001
0000001000101011
1111101110101011
0000000001110010
0000000110000100
1111110101010111
0000000010111010
0000000011011110
1111111011111000
0000000011101010
1111111010001010
0000000010011010
1111111000111101
0000000110001000
0000000001100101
1111111111011111
0000000000111101
0000000010100101
0000000000101010
1111111000101110
0000000101011101
1111111110101010
1111111110011101
1111111011101011
0000000111010000
1111111000011101
1111111111001000
1111111101100011
1111111100000100
0000000001110101
0000000000111000
1111111111101000
1111111110101000
1111111011011110
1111111001010001
0000000001111011
0000000010100101
1111111101111010
0000000010001001
1111111100110101
1111111111110100
0000000010110111
1111111110001010
1111111111010101
0000000010100111
0000000000101110
1111110111111010
0000000000000100
0000000101000000
1111111011011010
1111111101100000
1111110110111101
0000000000001011
1111111001100010
0000000011110010
0000000011001110
1111111111110100
0000000100010010
0000000001010011
0000001010110000
0000000000101001
0000001010111110
1111111111010110
1111110111110110
0000000110001010
0000000001100111
0000000011010111
1111111010000100
1111111001110001
1111111010101110
1111111101101111
1111111111110110
0000000000110110
0000000000111110
0000000011011011
1111111111100010
1111111110111100
0000000001100110
1111111111011000
0000000000101001
0000000001001001
1111110111101110
0000000110111010
1111111100100011
1111111011100101
1111111100010011
1111111000111001
0000000010001110
1111111110110111
1111111110110100
1111111011100101
1111111101110110
0000000000011010
0000000001100001
1111111111101010
0000000010101100
0000000000110100
1111111110111100
0000000001100101
0000000100001000
1111111111100100
1111111011001101
1111110100010110
1111111111010001
0000000010110010
0000000000000110
1111111100011000
1111111011001000
0000000000110110
0000000001111101
1111111001111100
0000000011011101
0000000011111100
1111111010011110
1111111011001000
0000000001001010
0000000000010100
1111111111000011
0000000011000110
0000000100011000
0000000001111110
1111111011111101
1111111111100110
1111111111011001
1111111100010011
0000000001110011
0000000011011001
1111111100010000
1111111101101101
1111111100010010
0000000001000001
0000000001110011
0000000011001111
1111111110101011
1111111010010001
1111111111010101
1111111110100101
0000000001100011
0000000000000101
0000000100010110
0000000010011000
1111111100011010
0000000010111011
1111111111010011
0000000111111011
1111111101000101
1111111110110001
0000000001111011
1111111111101111
1111111100001100
1111111111000010
0000000000101011
0000000000111000
0000000000010000
1111111000111010
1111111110100011
1111111111111110
1111110101001000
0000000010100111
1111111000000100
1111111010011101
1111111011100001
0000000100000110
1111111110101000
0000000000100100
1111111110100011
1111111111100101
0000000000010100
0000000001001100
1111111111001110
0000000000000011
1111111101111110
0000000010111011
0000000101111111
0000000010000010
0000000110110111
0000001001011011
0000000010001010
1111111110101011
1111111111110110
1111111110101101
1111111000100000
0000000001010111
1111111010001011
0000000011110111
1111111110110000
0000000011111010
1111111100001100
0000000001100110
0000000000111111
0000000011100010
0000000010111001
1111111111110010
0000000110000010
0000001001111001
0000000101111100
0000000010110011
0000000100111000
0000000101000101
1111111101000000
1111111111000111
1111111111100011
0000000100111110
1111111101000000
1111111101110010
1111111101111101
0000000011010001
0000000000111001
1111111110101010
1111111111000100
0000000001111101
1111111111011101
0000000010010001
0000000010001110
0000000001000001
1111111110100000
0000000001101011
0000000001001000
1111111111100001
1111111001100111
0000000000001011
0000000011100010
0000000000001010
1111111111111011
1111111111001101
1111111011011011
0000000100100100
0000000011111010
0000000110000011
0000000000010101
1111111111110001
1111111100111000
1111111100000110
1111111110011000
0000000001101000
0000000111010101
1111111110110001
0000000111011010
1111111101000101
1111111111011100
0000000001011011
0000000100011111
1111111101110010
0000000111111011
1111111101001000
1111110111101011
0000000001111000
0000000001001001
1111111000101111
1111111110101111
1111111010010010
0000000010011001
0000000001111000
1111111001000101
1111111111011100
1111111101010111
1111111110001101
0000000001000111
0000000100111110
0000000001001011
1111111100101111
1111111111010011
0000000110100010
0000000110100100
0000000001010011
0000000110000101
0000000110000010
0000000110101000
0000000000111111
0000000100100001
0000000001000110
0000000001111100
1111111111110001
0000000000111111
1111111011101111
0000000010110100
1111111101001111
1111111110111110
1111111111100010
1111111111010110
0000000100000010
1111111111010101
0000000010011101
1111111111111000
1111111101000011
1111111011111101
0000000010010101
1111111100100000
1111111111011011
1111111100000111
1111111100011010
1111111110110000
0000000010000000
1111111110110000
0000000010111011
0000000001010110
0000000000100100
1111111101100101
0000000011011101
1111111110011110
0000000000111001
0000000001011011
1111111101101010
1111111011111010
1111111110010110
0000000000101110
1111111101001101
0000000111110110
0000000111001101
0000000101000010
0000000110110100
0000000000001000
1111110110101100
0000000000010111
0000000100011100
1111111110101001
1111111111010111
1111110110111000
1111111010101101
0000000000110010
0000000010101100
0000000011110100
0000000011111100
0000000001000000
1111111101111100
1111111000111000
1111111101010001
0000000101010110
0000000000110101
0000000010100000
1111111101111110
1111111100101011
0000000010111010
1111111111111011
1111111101111011
0000000011100001
1111111111101001
1111111101010010
0000000011010101
1111111100001111
1111111010101101
0000000000100101
0000000010010001
1111111110101001
1111111111101000
1111111101111100
1111111111011000
0000000011010010
1111111111100101
0000000110011100
0000000000100100
0000000111010110
0000000001101111
1111111111011110
1111111100100101
1111111100110101
1111111110001101
1111111101100111
1111111010101101
1111111110010010
1111111110101001
1111111110110111
0000000000101010
1111111111100101
1111111111011010
1111111100101010
0000000001001010
1111111100100011
0000000000011011
1111111110110111
0000000011110001
0000000000011100
1111111111100011
1111111101011100
1111111100110100
0000000001010001
1111111110001011
1111111110111101
1111111111111111
1111111111011101
1111111011110000
0000000000101100
1111111000001101
1111111101111010
1111111111100011
0000000001110001
1111111100000110
0000000000111100
0000000000011100
1111111110011001
1111111110010011
1111111101101011
1111111111111111
1111111110110110
0000000010110100
0000000011101000
0000000000111111
0000000000000000
1111111110001010
1111111100111000
1111111100111001
1111111110000011
1111111101001011
0000000000101101
0000000000010000
0000000010101110
0000000100001011
0000000001011111
0000000011110001
0000000000111101
0000000000110011
0000000001001010
0000000000101101
1111111111001110
1111111110100000
0000000011111001
0000000001100110
1111111101110011
1111111110100110
1111111101110110
1111111100001000
0000000010011001
1111111100111100
1111111110100111
0000000010101101
0000000001001011
1111111101011001
0000000001110101
0000000001000111
0000000001000100
0000000010100111
1111111110101000
1111111110100000
1111111111011111
1111111100000111
1111111111100001
0000000000010010
1111111111111111
1111111101011110
1111111101101000
0000000001010000
1111111011011101
0000000100001111
1111111100110100
0000000001101011
1111111001000011
1111111111001011
1111111101110110
1111111011000111
1111111101011111
1111111111010111
1111111111000101
1111111111111010
1111111100011000
1111111110011011
1111111110111100
1111111111000010
1111111000110010
0000000000000101
0000000000110000
1111111110101111
0000000010111011
1111111001100110
1111111110011001
0000000000110011
0000000001111101
1111111101011111
1111111111100000
1111111100001001
1111111101000101
1111111101001011
0000000000100000
1111111111100000
1111111101111111
1111111111001010
1111111111011101
0000000000110001
1111111100110001
0000000010100000
1111111110110111
1111111010001011
0000000001100100
0000000000001000
0000000000011011
1111111101000001
1111111101111100
1111111110101101
1111111111010110
1111111011011100
0000000001110110
0000000001100101
0000000000110001
1111111111111010
0000000000010110
1111111110000011
1111111101100101
0000001011101001
0000001001011110
0000000010110111
0000001000100011
0000001010000010
0000000111101111
0000001001010000
0000001010100010
0000000011000001
0000000010010101
1111111110110001
0000000000101000
0000000000100011
0000000001101000
0000000001011000
1111111101010001
1111111011010001
1111111000101101
1111111011000101
0000000000000100
0000000000110011
1111111111000001
0000000000110101
1111111011101011
0000000010001111
0000000000011110
0000000000011001
1111111110010101
0000000001011000
1111111111010111
1111111101100111
1111111111110001
1111111110111110
1111111100100011
0000000000111110
0000000011011001
1111111111000000
0000000000111001
0000000000001010
0000000010000010
1111111101110111
1111111111100110
1111111100111010
1111111101101011
1111111110100111
0000000000111001
0000000000110111
1111111100011110
0000000011001000
0000000001010111
0000000001010100
1111111110101010
1111111111111000
0000000001101111
0000000001100001
1111111110011101
1111111110000011
1111111110000101
1111111111011110
0000000000100111
0000000000110100
1111111110100011
1111111101010100
1111111111111000
0000000000101010
0000000001001100
0000000011001110
1111111111011111
1111111110010110
0000000000011100
1111111111000100
1111111001110100
0000000000111010
1111111110101110
0000000001001100
1111111100100011
1111111101100010
1111111100110110
0000000011001101
0000000001100111
0000000010111101
0000001010101100
0000001101001011
0000000011110111
0000000111101001
0000001010101001
0000001010101000
0000000110100110
0000000110010110
0000000100001111
1111111111111000
1111111101110011
1111111111101111
0000000010100111
1111111110001110
1111111111110101
0000000000100001
0000000000010010
1111111110010011
0000000001001001
1111111001110001
1111111111001000
1111111110010110
0000000000011010
1111111111101101
1111111101111001
1111111110111110
0000000001001011
1111111100111110
0000000000100010
0000000001010101
0000000001100001
1111111100001001
1111111011001001
1111111110010101
1111111111100101
1111111111000011
1111111111010000
0000000001111111
1111111100011010
0000000000100000
1111111110100110
0000000001100000
1111111100010001
0000000000110011
1111110101010000
1111111101110101
0000000001011110
0000000000000011
1111111111110110
1111111111111101
0000000000110110
1111111110000101
1111111110001010
0000000000011111
0000000000001000
0000000000110010
1111111101101111
1111111101111100
0000000000011101
0000000001101110
1111111110100101
1111111111001010
1111111111011111
0000000000011110
0000000000010011
1111111111100010
1111111111011111
0000000000010110
1111111111111011
0000000000111111
1111111111011110
1111111111011000
0000000010000101
1111111111010111
1111111111010100
0000000000000000
1111111111111011
0000000000001000
1111111111110101
1111111111110100
0000000000000001
1111111111111000
1111111111111000
1111111111111101
1111111111110111
1111111111111101
0000000000001010
0000000000000010
1111111111111110
0000000000000001
1111111111110100
0000000000001001
0000000000010010
0000000000000100
0000000000001001
0000000000000000
1111111111111011
1111111111111001
1111111111111101
1111111111110011
1111111111101101
0000000000110001
0000000000001100
0000000011010100
0000000100110000
0000000010100110
1111111111110100
0000000100010111
0000000100110010
0000000011011101
1111111111101010
0000000000000111
0000000000000001
1111111111111101
0000000000000010
0000000000001100
0000000000000110
0000000000000100
0000000000000110
1111111111111000
0000000000010100
1111111111110000
0000000000001101
1111111111111011
1111111111001100
1111111110010100
0000000000010100
0000000000011100
1111111111111000
1111111111111000
0000000010110010
0000000000011011
0000000000000100
0000000000011001
1111111111000110
0000000000110100
0000000001011100
0000000000100101
0000000000010000
0000000001010100
0000000000001111
0000000001011001
0000000001100111
1111111111101000
0000000101001110
0000000011010100
0000000100000000
0000000000000000
1111111111111000
1111111111110000
1111111111110101
1111111111111010
0000000000000010
1111111111101110
1111111111111100
1111111111111000
1111111111111000
1111111111111101
0000000000000100
1111111111111001
0000000000010000
0000000000001001
0000000000000001
1111111111100110
0000000000000100
0000000000010111
1111111111010100
1111111111011011
0000000010001001
1111111111011000
1111111111011011
1111111111111011
1111111111111010
1111111111111011
0000000000000111
1111111111110011
1111111111110110
1111111111111010
0000000000000001
1111111111110000
1111111111101111
1111111111101011
1111111111110001
0000000000000001
1111111111111111
1111111111110101
1111111111110111
0000000000000101
1111111111111010
1111111111111000
1111111111111100
0000000000001010
1111111111110011
1111111111101011
1111111111111000
0000000000000000
0000000000000000
1111111111111111
0000000000000100
1111111111111011
0000000000000001
0000000000000001
1111111111111111
1111111111110111
1111111111111010
1111111111111011
0000000000000001
0000000000000010
0000000000000001
1111111111111001
1111111111111000
1111111111110111
0000000000001000
0000000000000100
0000000000000000
1111111111111101
1111111111111011
1111111111110001
0000000000000010
0000000000011010
0000000000000000
0000000000000000
0000000000010010
0000000000011001
0000000000010001
0000000000000000
0000000000001000
0000000000010000
0000000000000000
1111111111111011
0000000000001001
0000000000000110
0000000000000001
0000000000000000
0000000000001101
0000000000000110
0000000000010011
1111111111111101
0000000000001101
1111111111111001
1111111111111110
1111111111111100
1111111111100101
0000000000001010
0000000000001011
0000000000000011
0000000000011110
0000000000000000
0000000000000010
0000000000000010
0000000000001011
0000000000010000
0000000000001000
0000000000000110
1111111111111101
