0000000000000010
1111111100011111
1111111100100011
1111111001000100
0000000000011101
1111111100100001
0000000011001001
1111110110001110
0000000001001101
1111111111001010
0000001000100101
1111111101101101
0000000010011100
0000000101110000
1111111101010001
0000000100111111
0000001101111000
0000001010100010
1111110111111110
1111111101001000
1111111011001011
1111111101110000
1111101101101101
0000000011010101
1111111110000001
1111111110110011
0000000010010111
0000000101111001
1111111000111101
1111101100101110
1111111110000101
0000000000010100
0000000101011110
1111111011101010
0000001001001001
1111011011110001
0000000010100001
0000000001001011
1111111100101101
1111111100111111
0000000110010001
0000000010011000
1111111100101000
0000000010011110
0000000000010001
1111110100011001
1111111111011111
1111111010111010
1111111101101000
1111111101001011
1111110110101100
0000001000000100
1111111100000101
0000000001110110
0000000011000001
0000000101010110
1111111100000001
1111110101000101
0000000011000010
0000000100011110
0000000000100001
0000000011111111
1111110110001111
1111111100101100
0000000011011011
1111111001101011
0000000101011010
1111111111000010
0000000010001010
1111111110010100
1111111111010110
0000000001000011
1111111011110001
0000000011010000
1111111110111100
1111111001011011
0000000000101101
0000000011100011
1111111101101010
1111111101010010
0000000001000111
1111111111001010
1111111111011101
1111111010000010
1111110110011110
1111111101001111
0000000010100111
1111111100010101
0000000011110100
1111111110001011
0000000010100111
0000000001011111
0000000000011001
0000000011000111
0000000011010000
0000001001011111
0000000101101100
0000000010001011
0000000011001010
0000000001001011
0000000001101110
1111111101111101
1111111100111111
1111111010101111
1111111111111101
1111111101111101
0000000110110111
1111111111011101
1111110111110111
0000000110001111
1111111101001101
0000000000000010
0000000000110010
0000000000110000
0000000011100110
0000000111000010
0000000110011100
0000000101101101
0000000101001100
1111111110000011
1111111011110010
0000000101010101
0000000001011000
0000000001011110
1111111000011000
1111111101101100
1111110100010101
0000000101001110
0000000100101011
1111111001011001
1111110110111010
0000000010111010
0000000111010100
1111111001000001
0000000000000000
0000000000010011
1111111000010010
1111110110110010
1111111110000110
0000001000101000
0000001000001101
0000000000000001
0000000010000011
0000000011110100
0000001010100011
1111111110111111
0000000110011100
1111111111101000
0000000011101010
1111111111000111
1111111111000110
1111111101011111
0000000000100010
1111111011111010
1111111001111011
0000000000011101
1111111111011101
1111111001000001
1111111100010001
0000000010100101
1111111111001001
0000000101110100
1111110101110111
1111111111101111
0000000000101010
1111111101000110
1111111101001100
0000000001100101
1111111111001100
1111111010001000
1111111100000000
0000000100110010
1111111110001101
0000000000011110
0000000000101100
1111111010110011
1111111111010100
1111111011011010
0000000010101011
0000000000001000
1111111100001001
0000000100110101
0000000110110110
0000000000001110
0000000000011100
1111111100110010
1111111101010000
1111111011001000
1111111111011011
0000000111110010
1111111100010001
1111111110100011
1111111010001111
1111110101100111
1111110101101010
1111111111100001
0000000001010101
0000000010001011
0000000010011111
1111111110100110
1111110110011010
0000000101111000
1111111100110010
1111110111000100
0000000011001100
1111111101001000
0000000101101101
0000000001001000
1111111110011001
0000000100000011
0000000101110010
0000000000001010
0000000001101101
0000000111010000
0000000101000011
0000000110111000
1111111011010000
1111111010001001
1111111000101100
0000000010001101
0000000101110001
0000000011111001
0000000000101011
0000000001101000
0000000110010011
0000000010101000
1111111101001110
1111111100011000
1111111101100101
1111111101100100
1111111111110010
0000000010111011
1111111100110110
0000000000100001
0000001001000101
0000000100100000
1111111011111010
0000000001001010
1111111010000101
0000000001001010
0000000011011000
1111111101111100
1111111010001110
0000000100000000
1111111110011010
1111111110010011
0000000010010011
0000000100101010
1111111110101111
0000000010111100
1111111100000011
1111111011001010
1111111100110100
1111111111011000
0000000110100001
1111111101001010
0000000000100101
0000000100110110
1111111010010101
1111111001011010
1111111111101111
1111111011001010
0000000101011011
1111111100111111
1111111010101010
1111111101111110
0000000000101110
1111111110101011
0000000001110010
1111111000100010
0000000000000000
1111111011000011
0000000001011000
0000001001000011
0000000100100111
0000000001000100
0000000000001010
0000000000101110
1111111100011011
0000000001101001
0000000001100010
0000000011010100
0000000011000101
0000000011001110
1111111101011010
1111111011011001
1111111100000011
0000000101100100
0000000010111000
1111111101111011
0000000011101111
1111111111010000
1111110110111100
0000000111011000
0000000101010010
0000000000001100
0000000000011010
1111111110110111
1111111110001011
1111111110110010
0000000000111001
0000000010101001
1111111010110010
1111111001111011
0000000010001001
0000000010010100
0000001101011110
1111111111011101
1111111110000010
0000001100011101
0000000100111111
0000001001011101
1111111001100010
0000000111011111
0000000001001001
0000000100010101
0000000010101101
0000000010100100
0000000011100000
0000000100001000
1111111111101100
0000000101101011
0000001000000011
1111111110011111
1111110110010000
1111111001001001
1111111011100011
1111111011100011
0000000010110001
1111111101110011
1111111110010001
1111111110000001
0000000011101110
0000000011100101
0000000010100010
1111111101001100
1111111110101000
1111111101010100
0000000110011110
0000000000011001
1111111011111111
0000000000101001
0000000000111101
1111111110101000
0000000000001100
0000000001011010
1111111111111000
0000000001000001
1111111010000011
0000000101011001
0000000000111111
1111111101001101
1111111010111110
1111111111110101
1111111100001011
0000000100111101
0000000010001011
0000000001101010
0000000100000110
1111111101100011
1111111100001100
0000000100010000
1111111110011110
1111111011111110
1111111110010110
0000000001110010
0000000011101100
0000000000001111
0000000000111001
1111111101111011
1111111111011010
1111111111100111
1111110101100111
0000000001001001
0000000000101010
1111111100001110
1111111101001101
1111111111000010
0000000000001001
1111111100100101
1111111101100001
0000000101001010
1111111111000001
0000000010100101
0000000010101011
0000000010010101
0000000100001100
1111111101110110
0000000000001011
0000000011011010
0000000001100111
1111111111011100
1111111101000111
1111111101100100
1111111110100111
1111111011011011
1111111110101101
1111111010000000
1111111110110110
1111111010110011
1111111011000101
1111111101101100
0000000010000000
0000000110010011
1111111011110011
0000000011010100
1111111101000100
0000000111011011
1111111011011010
1111111111110111
0000000000001101
0000000011010011
0000000001110100
1111111111010101
1111111110001101
1111111111101100
1111111101011011
0000000100010010
0000000100111110
1111111111101011
0000000001100110
0000000000001101
0000000011101001
1111111011101101
1111111100111010
1111110111001101
0000000101001111
0000000001101000
0000000001010011
0000000001010001
0000000000111010
0000000101000111
0000000100111111
0000000000011010
0000000100110010
0000000010110000
0000000100111110
0000000111010001
1111111101110010
0000000100010100
0000000010100011
1111111110110000
1111111010110000
0000000001110101
1111111101110111
1111111110011010
0000000011100011
1111111010100001
1111111011011100
0000000011011101
1111111111110110
0000000101000100
0000000111000110
0000000011110100
0000000100001111
0000000111101110
0000000100010111
0000000101000111
0000000011111000
1111111100001000
1111111100110000
0000000010100011
0000000000000010
1111111111000000
1111111101101110
1111110111011000
0000000010101110
1111111110011111
0000000011000000
1111111111000011
0000000100100001
1111111001111010
0000000000101110
0000000100110110
1111111010110001
1111111100101001
0000000100001110
1111111111001000
1111111011010110
1111111101001000
1111111100100101
0000000000110001
0000000011100101
1111111011110101
1111111111101101
1111110101101111
1111111000100101
0000000001000011
0000000000110000
0000000000000111
0000000001001111
1111111111110001
0000000011000101
1111111011011000
0000000010001110
1111111100100110
0000000010110100
0000000011011110
0000000101101000
1111111111010111
1111111111011001
1111111111010110
0000000011110110
0000000000000111
1111111100110000
1111111111000001
1111110110011000
1111111100001000
1111111111100110
0000000000010000
1111111100101110
0000000000101010
0000000000110100
1111111111101100
1111111101100011
0000000100110110
0000000010010011
0000000100101110
1111111111111011
1111111101101010
0000000001100000
1111111111011001
0000000100110110
0000000100101001
0000000101110111
0000000110011110
0000000011010101
0000000011101110
0000000010001101
0000000011110001
0000000111111010
1111111001101011
0000000010100000
0000000001001010
1111111101000111
1111111111111010
0000000000111010
1111111100100110
0000000001111101
1111111110000010
0000000010110110
1111111100001110
1111111010000110
1111111111000110
1111110110100000
1111111111011011
1111111101100111
0000000000110110
1111111110110110
1111111100111011
1111111100011010
1111111011000111
0000000011010001
0000000001110111
0000000000110011
1111111000101011
1111111111100101
1111111110011001
0000000010000111
0000000000111010
0000000001011010
0000000010001011
0000000000111010
1111111110000111
0000000110000010
1111111111111101
0000000100011010
1111111101110011
0000000100010101
0000000000100111
0000000011011010
1111111111101010
1111111101010011
0000000001011010
0000000101000111
0000000001100101
1111111111100001
0000000010110100
1111111011001010
1111111011111001
0000000011000001
1111110111110100
0000000000011001
0000000000101010
1111111111000011
1111111111000111
1111111110111101
1111111111100010
1111111111110111
1111111110101000
0000000010011100
1111111101100011
1111111111001101
1111111011110000
1111111111010101
0000000011001101
1111111100001101
1111111111001000
1111111101101110
1111111110010110
0000000010100101
1111111011101101
1111111010101101
1111111111011000
1111111011110110
0000000101010111
0000000011000001
1111111110001100
1111111110000001
1111111011111111
0000000010101100
0000000000111111
0000000000000111
1111111111101101
0000000000000001
0000000000010011
0000000000000110
0000000000001001
0000000000010101
1111111111110111
1111111111111101
0000000000011100
0000000000000111
1111111111110000
0000000000000011
1111111111111010
0000000000010001
0000000000000111
0000000000000110
0000000000010011
1111111111111011
0000000000000111
1111111111110011
0000000000000001
0000000000011110
0000000000011101
1111111111101001
0000000000001111
1111111111110101
1111111111100111
1111111111101000
1111111111110000
0000000000000101
0000000000000101
1111111111101111
0000000000001011
0000000000010010
0000000000011101
0000000000000110
1111111111101111
1111111111110001
1111111111111001
0000000000000001
1111111111111110
1111111111110110
0000000000010000
0000000000001110
0000000000100000
0000000000001001
1111111111110111
1111111111111100
0000000000000100
0000000000010011
0000000000011110
0000000000001101
0000000000001101
1111111111111100
0000000000001011
0000000000001000
1111111111111101
1111111111111110
1111111111111000
1111111111110100
1111111111111001
0000000000001000
0000000000001000
0000000000010000
1111111111101011
1111111111110011
0000000000000000
0000000000000110
1111111111111000
0000000000000110
1111111111111101
0000000000010101
1111111111101010
0000000000001001
0000000000010010
0000000000001000
0000000000010000
0000000000001100
1111111111111011
1111111111111111
1111111111110010
1111111111110111
0000000000100010
1111111111110110
0000000000000011
0000000000000100
0000000000010111
0000000000000011
1111111111111001
0000000000001100
1111111111111100
1111111111101101
0000000000000101
0000000000000000
1111111111111101
0000000000010011
0000000000000101
0000000000001100
0000000000000111
0000000000001000
0000000000001011
0000000000000000
0000000000000001
0000000000000110
1111111111101101
1111111111101100
1111111111101010
1111111111101111
0000000000000110
1111111111110010
0000000000000101
0000000000001111
1111111111111010
1111111111101101
0000000000001011
1111111111110001
0000000000000111
0000000000000101
0000000000010000
0000000000001000
0000000000010010
0000000000000000
0000000000001100
0000000000000001
0000000000000111
0000000000000111
0000000000010111
0000000000000110
0000000000001000
0000000000000010
0000000000000100
0000000000000110
0000000000001000
1111111111111101
1111111111111100
0000000000010011
1111111111111000
1111111111111100
0000000000001001
1111111111111010
0000000000011101
0000000000000111
1111111111111111
0000000000000101
0000000000011111
1111111111010000
1111111111110011
1111111111101111
0000000000010001
0000000000101101
0000000000001000
0000000000010001
0000000000001111
1111111111111111
1111111111111011
1111111111110100
1111111111111110
0000000000001110
1111111111110001
1111111111101101
0000000000001110
0000000000000000
0000000000000110
0000000000001110
0000000000000101
0000000000000001
1111111111111011
0000000000001111
1111111111110110
1111111111111001
1111111111111100
0000000000001010
0000000000001010
0000000000001011
0000000000001000
0000000000000001
1111111111111011
0000000000000011
1111111111110100
1111111111101111
0000000000000000
0000000000001110
0000000000000010
0000000000000110
1111111111100011
0000000000001110
1111111111110111
1111111111101101
1111111111111000
0000000000010001
1111111111111110
0000000000000111
1111111111110011
1111111111111111
1111111111101000
0000000000000001
0000000000000111
0000000000010110
0000000000000100
1111111111111101
0000000000000110
1111111111101001
1111111111111100
0000000000000010
0000000000010010
0000000000010001
0000000000001100
1111111111111010
1111111111111000
1111111111111110
0000000000000110
0000000000010100
0000000000001100
0000000000000011
1111111111101011
1111111111111011
1111111111101010
1111111111110111
0000000000011011
0000000000000100
0000000000000111
0000000000000001
0000000000000100
0000000000010101
0000000000101110
1111111111101001
0000000001011000
0000000000010000
0000000000000000
0000000000011010
0000000000001011
0000000000001111
0000000000001110
1111111111110110
1111111111110111
1111111111111001
0000000000001011
0000000000000101
0000000000000100
0000000000000001
0000000000000001
0000000000001011
1111111111101101
1111111111101110
1111111111110110
1111111111110011
0000000000000000
0000000000001100
0000000000001011
1111111111110010
1111111111110111
0000000000001010
0000000000010001
1111111111111110
0000000000000100
1111111111111010
1111111111110111
0000000000011000
0000000000011001
0000000000001000
0000000000000100
0000000000001100
1111111111111000
1111111111111111
0000000000001011
1111111111111111
1111111111101110
1111111111110000
1111111111110101
0000000000001110
0000000000010100
1111111111110110
0000000000100001
0000000000000001
1111111111111001
0000000000010011
1111111111101001
0000000000010100
0000000000000101
0000000000001010
0000000000000100
1111111111011100
1111111111111101
1111111111111111
1111111111111010
1111111111111110
1111111111100010
0000000000110001
0000000000000001
0000000001011000
1111111111010010
0000000000010110
0000000101100110
0000000011110101
0000000001111111
1111111111110010
1111111111011100
1111111111011010
0000000000110001
1111111111111110
1111111111110011
1111111111101100
1111111111111001
1111111111111000
1111111111111111
1111111111111101
0000000000000001
1111111111111111
1111111111111111
1111111111110110
0000000000000011
1111111111111011
1111111111111010
0000000000000110
0000000000001101
1111111111110001
1111111111111000
1111111111111011
1111111111111110
1111111111111100
0000000000001000
0000000000000011
1111111111110100
0000000000000011
0000000000111011
0000000000011010
1111111110111000
1111111111101111
1111111111111010
1111111111111010
0000000001000001
1111111111101110
1111111111100011
0000000000101101
0000000000110011
1111111111110110
1111111111111000
0000000000001011
1111111111111110
1111111111101101
1111111111111110
1111111111110111
0000000000000100
1111111111111101
1111111111111111
0000000000000001
0000000000000011
0000000101010001
0000000010110000
0000000110001001
0000000100001100
1111111111111011
0000000001111000
0000000010110010
0000000000110010
1111111111001111
1111111111111010
0000000000111110
1111111111010000
0000000000000001
1111111111111101
0000000000000111
1111111111111101
1111111111110101
1111111111111111
1111111111110101
1111111111111101
0000000000000011
1111111111111010
0000000000000110
0000000000001001
1111111111110110
1111111111111100
0000000000001010
0000000000010001
1111111111111100
1111111111111101
1111111111101100
1111111111111011
1111111111110100
0000000000000111
0000000000000010
0000000000000000
0000000000000101
1111111111111101
1111111111111011
1111111111111110
1111111111110111
1111111111101111
0000000000001010
0000000000000000
1111111111111111
1111111111111101
0000000000000111
0000000000001100
1111111101011010
1111111111110010
1111111111011110
0000000001000110
1111111111111001
0000000001110100
0000000100101010
0000000001010101
0000000100101000
1111111111110111
0000000011110010
0000000011011011
0000000000000111
0000000000000100
1111111111111110
0000000000001001
1111111111111100
0000000000000111
1111111111111111
0000000000000101
1111111111111110
0000000000001000
1111111111111000
1111111111111000
0000000011101000
0000000100001011
0000000011010110
0000000011110000
0000000001000110
0000000000111011
1111111111000111
1111111111100011
0000000001101110
1111111111000111
0000000000110110
0000000000000010
0000000000001011
0000000000001010
0000000000000101
0000000000010000
0000000000000011
1111111111111110
1111111111111011
0000000000000100
0000000000001010
0000000000000001
1111111111110101
0000000000000011
1111111111111001
1111111111111100
1111111111111100
1111111111111010
0000000000000110
0000000000000110
1111111111111001
1111111111111001
0000000000000010
1111111111111101
0000000000000111
1111111111111001
1111111111110110
0000000000000110
0000000000010100
0000000000010001
0000000000000000
0000000000001101
0000000000000111
0000000000000010
0000000000000100
1111111111111110
0000000000001101
1111111111111101
0000000000000001
1111111111111011
0000000000001010
0000000000010011
1111111111110011
1111111111110110
0000000000000100
0000000000001100
1111111111111110
1111111111111100
1111111111111010
1111111111111100
