1111111111011110
1111111111110111
1111111001001110
0000000010011011
1111111010111111
1111111010011110
1111110001000100
1111111111010001
0000000100010001
0000000010000000
0000000010011110
1111010111001101
0000000010000100
0000000010110110
1111111110011110
0000001000110000
0000000011010110
1111010101100000
1111111110011111
1111111000001000
1111110111100000
0000000100000110
0000000010011000
0000000101110100
1111111111101011
1111111101010111
0000000001000000
0000000111111001
1111101011000110
1111111110001001
1111111111111111
0000001011011101
1111111111101111
0000001110110001
1111101101111101
0000000011011010
1111111110111101
0000000000100000
0000000001000011
1111111011110011
1111111011000000
1111111101010011
1111110110011001
1111111110111100
0000000000100011
1111111001101010
0000000111111000
1111111001000011
0000000111111011
0000000100000000
0000000001110110
0000000010100000
1111110001100100
0000000101101001
1111111101100111
1111111010010010
0000000101110111
1111111011110101
1111111010001110
1111111011110000
1111111101111100
0000000000001000
0000000011000000
1111111010010100
0000000000111011
1111111111011100
0000001000111101
1111111110010010
0000000100011001
1111110010111111
1111111110011110
1111111111011011
0000000101001000
1111111010000110
0000000110011100
0000000100010001
0000000010011111
1111111101111011
0000001100000011
1111111111011011
0000000010111010
1111111110101001
1111111100001000
1111111101011000
0000000000100110
0000000001011100
0000000011010111
1111111011001110
1111110011011001
1111111111110001
0000000100110100
1111111110110001
0000000001111101
0000001001010011
1111111111010110
0000000010101001
0000000111100110
0000000100110100
0000000101111100
0000000010111010
1111111001010010
1111111111100011
0000000001111110
0000000101011011
0000000000011110
1111111011011100
1111111111111001
0000000101001000
0000001001110101
1111111000110010
1111111111011010
0000000010001110
0000000100100000
0000000110111000
0000000110010010
1111111101111101
0000000000001111
0000001001001111
1111111010010111
0000000101100110
1111111111101011
1111111001101110
0000000000100011
1111111111110110
1111111010010101
1111111100101011
0000001010011010
1111110111000101
0000000100010001
0000000011010000
0000000000010101
0000000001101111
0000000110010101
1111111101001001
0000000110001100
0000000111110100
1111110111110110
1111111110110110
1111111011011111
1111111111110011
0000001001011111
0000001000001100
1111110111010111
1111111010111000
1111111101011011
0000000001100010
0000000011110011
1111111100100000
0000000111101100
0000000100110000
0000000101111011
1111110111011001
1111111110100110
1111111001001100
1111111011001111
0000000001100110
0000000010000110
0000001000011010
0000000010111100
0000000100011001
1111111110111110
1111111101110110
0000001001000100
1111111110001000
1111111100011110
0000000001111011
0000000010000001
0000000010010011
0000000011111010
0000000001110111
0000000011010000
0000000101010110
1111111010111000
1111111110010001
1111111101010000
0000000011011000
1111111110001101
0000000010001010
0000000101001110
1111110111010110
1111111001110101
1111101110101010
1111110110111110
0000001001001010
1111111010000111
0000000010101010
0000000000100100
0000000011011100
0000000101100101
1111111111101110
0000000101010101
0000001001001111
0000000001101000
0000001000100111
0000000000010011
1111111101001011
1111110001011001
0000000010000100
1111111101111111
1111111110110110
1111111111100011
1111111101010011
0000000100011110
1111111110011100
0000000101000001
1111111001011100
0000000001011000
0000001110110010
0000001001010011
0000000100100001
0000001010100101
0000000101001001
0000000111000111
0000000111010000
0000000101010100
0000000111111000
1111111111101000
1111111111100000
0000000110000100
0000001000101011
0000000001000110
0000000011011000
0000000010101101
0000000000110010
0000000011000000
0000000010110111
0000000011000001
0000000101000110
0000000001100111
1111111101000001
1111111001000111
0000000001111010
1111111101101001
1111111110111111
1111110111000110
1111111011101000
0000000010100000
1111111101000001
0000000000001110
1111111111010100
1111110110010111
1111111100011011
0000000111010011
1111111000011000
0000000001010100
0000000001000010
1111111111100011
0000000010011100
1111111001111000
0000000011010001
1111111001010100
1111110101110010
0000001001000111
0000000000101010
0000000111001111
1111111001100010
1111111010110100
1111111110010111
1111111101111111
0000000110010101
1111111010110111
1111111000000001
0000000011010101
0000000100100011
1111111011010100
1111111011000010
1111111101101111
0000000000001000
0000000000000111
0000000001111010
1111111111110101
1111110111001100
0000000001111000
0000000001110000
0000000001111100
0000000100000001
0000000110001100
0000000001000001
0000000010100010
1111111010100010
0000000100011001
0000000001100010
1111111111000111
1111111111100110
0000000101000011
1111111110111000
0000000000000111
0000000000100010
1111111100010101
0000000001001101
0000000101000000
0000000001011111
0000000110001110
1111111111001011
1111111010000101
0000000000101011
1111111000001001
0000000101110111
0000000010100010
0000000011101001
0000000101101110
0000000001111111
0000000000110110
0000001000100101
1111111011011000
0000000010011111
1111111100001010
1111111011101010
0000000000101010
1111111111000100
1111111111101111
1111110100100011
1111111100000100
0000000100000111
1111111110000010
0000000101100010
0000000101001101
0000000001110011
0000000011101001
0000000101001100
1111111110110101
1111111001110011
0000000000100100
0000000101101000
1111111101001111
1111111101000100
1111111101011010
0000000001110101
0000000001101010
0000000011101010
0000000011001010
1111111100011001
1111111101100101
0000000000001111
0000000000101011
0000000100011010
1111111101001001
0000000001011000
1111111100100000
1111111101010001
0000000010000010
1111111101010101
1111111111101001
0000000011100110
0000001000001101
0000000010010010
1111111100110100
0000000011110001
0000000001001101
1111111010000101
1111111110010001
1111111110001110
0000000011011110
1111110110100010
0000000010101001
0000000010111001
0000000000111111
0000000011011000
0000000101110111
1111111110101010
0000000010000110
0000000111000100
1111111100101001
1111111110000100
0000000010110000
0000000011011000
0000000001110111
0000000001101000
1111111010010011
1111111011001111
0000000000011100
0000000010010001
1111111111010100
0000000011011001
0000000010001110
0000000001101110
1111111011001100
1111111010111100
1111111111110000
1111111011000001
1111111110011000
0000000101011001
0000000010000111
0000000011110010
1111111111010100
0000000010101001
1111111111001100
1111111011011101
1111111101110011
0000000001100101
1111111111110100
0000000000001100
0000000001010111
1111111100011100
0000000000010010
0000000001010111
0000000111000001
1111111100101001
0000000000110101
1111111110010100
1111111111110001
1111111110001110
0000000000011111
0000000101001011
1111111000100000
1111111111011000
0000000111110100
0000000010100011
0000000001001001
1111111110110101
1111111100111111
1111111100100110
0000000010011111
1111111010101001
0000000100010111
1111111110100100
0000000011011011
1111111111000001
1111111100001000
1111111110101001
1111111011111100
1111111111000010
0000000000000011
1111111111100011
1111111001101000
1111111111101100
0000000001010100
0000001000001001
0000000010101100
0000001010011110
0000000111001101
0000000010101011
0000000101001011
0000001000110011
0000000101101010
1111111111010000
0000000100101101
1111111110101001
1111111110101010
0000000011111100
0000000000010100
0000000011101100
1111111010110111
1111111011001001
1111111101001011
0000000000111101
0000000000111011
1111110111011111
0000000011001001
0000000001000011
1111111001111010
0000000010011010
0000000100010010
0000000001100001
0000000010010011
1111111110010011
0000000011001011
0000000011001001
0000000100001100
1111111100111000
1111111111110110
0000000100101101
1111111011101101
0000000100111000
0000000100011011
0000000110101101
1111111011001100
0000000100101001
1111111111000110
0000000011111000
0000000010000110
0000000110111011
0000000011110111
1111111110111000
0000000001000001
1111111111100001
0000000011011001
0000000111101011
1111111010110001
1111111110101101
1111111101111011
0000000000001100
1111111001010111
0000000110100001
1111111110000101
0000000011100010
0000000011001001
0000000000111110
1111111101100010
0000000100001011
1111111110100101
0000000001101001
1111111110111000
0000000111010111
0000000101110001
1111111110010110
0000000001001111
0000000111010101
0000000011010000
0000000000110111
0000000001110001
0000000011010011
0000000000011100
0000000101100101
1111111100011100
0000000101111100
0000000110101111
0000000010000110
1111111100011111
0000000011001011
1111111111010001
0000000001110010
1111111000001010
1111111101101101
0000000010001000
0000000010100001
0000000000110011
0000000001110110
0000000000001010
1111111111100110
0000000100010011
1111111001011101
0000000110100010
0000000110110101
0000000110101111
1111111111001000
0000000010100100
0000000001001011
1111111110010101
0000000010111100
1111111100010001
1111110111110001
0000000110001111
1111111010011111
1111111101101010
0000000100011101
0000000011000000
0000000011110111
1111111111011111
0000000111011101
0000000100011011
1111111000011001
0000000000100000
0000001000000001
1111111001101000
0000000010111010
0000000001111011
0000000000011101
1111111111100001
0000000010000000
1111111011001100
1111111001101100
0000000000010001
0000000001100100
0000000001001100
0000000001100000
0000000011001110
1111111100111101
1111111011110111
1111111111011000
1111111001101110
0000000001100001
0000000001011001
0000000001111001
0000000011000010
0000000011011011
1111111010011101
1111111111010100
0000000001011011
0000000010000111
1111111101100101
1111111110011110
0000000000111100
1111111100101100
0000000001000011
1111110110101001
0000000010101101
1111111101101101
1111111000000001
1111111100110100
0000000010011010
0000000010111111
1111111101000100
1111111111100111
0000000000010110
1111111101110011
1111111110001001
1111110111111000
0000000000010011
0000000001110000
0000000011110001
1111111111101001
1111111011101001
1111111110100010
0000000100101011
0000000000100111
1111111001011010
1111111011101011
0000000010001000
0000000011111100
0000001000101100
0000000101000011
1111110101001111
0000000001000010
0000000010010101
0000000100110010
1111111101110110
0000000001111001
1111111111100011
0000000010111101
0000000001111101
1111111100000011
1111111111111111
1111111111110110
1111111111101010
0000000000001111
0000000000000100
0000000000100011
1111111111111110
1111111111111010
1111111111111001
0000000000001101
1111111111111100
0000000000010111
0000000000000100
0000000000011011
0000000000010011
0000000000000011
1111111111111101
0000000000001010
1111111111100111
1111111111111100
1111111111100110
0000000000010001
0000000000101010
0000000000001100
0000000000000000
0000000000000100
0000000000100001
1111111111111011
1111111111101111
1111111111100101
1111111111110000
1111111111100101
1111111111110111
0000000000000101
0000000000010100
0000000000011110
1111111111111000
1111111111111001
0000000000001011
0000000000010110
1111111111111110
1111111111111100
0000000000010000
0000000000000100
1111111111111111
0000000000000111
0000000000010011
0000000000100000
0000000000001011
0000000000000101
0000000000010010
1111111111110010
0000000000001010
0000000000000110
0000000000000011
0000000000010010
1111111111110100
1111111111111110
0000000000001001
0000000000001010
0000000000001110
0000000000001101
1111111111111000
0000000000001101
0000000000001110
1111111111111011
0000000000001001
0000000000100111
0000000000010000
1111111111111011
1111111111110101
1111111111101010
0000000000001000
1111111111110111
0000000000001111
0000000000010010
1111111111110111
0000000000000010
1111111111111100
0000000000010001
1111111111110100
1111111111111101
1111111111111111
0000000000001000
1111111111101100
1111111111110000
1111111111110110
0000000000001000
1111111111110101
0000000000000100
0000000000000101
0000000000000000
0000000000001001
0000000000001101
0000000000010100
1111111111111000
0000000000001100
0000000000001101
1111111111110101
1111111111110111
0000000000001000
0000000000010100
0000000000000100
0000000000001100
0000000000000010
0000000000000000
0000000000000000
1111111111111010
1111111111110010
0000000000000010
1111111111110010
0000000000010110
0000000000000100
0000000000001001
0000000000000110
0000000000000101
1111111111111101
0000000000000011
1111111111111010
0000000000001001
0000000000000000
0000000000000010
1111111111111010
0000000000000010
0000000000010111
0000000000100001
0000000000011100
0000000000000100
0000000000000101
1111111111111101
1111111111111111
1111111111111101
0000000000001001
0000000000000011
0000000000001011
0000000000001011
0000000000011010
0000000000100011
0000000000000011
0000000000000110
0000000000011010
0000000000011000
0000000000000010
0000000000010000
0000000000010101
0000000000100010
0000000000101010
1111111111101110
0000000000000001
0000000000000100
0000000001000010
1111111111101010
0000000000111010
0000000000000111
1111111111111110
0000000000001100
1111111111100011
0000000000000110
1111111111110100
1111111111110111
0000000000000111
0000000000000100
0000000000000000
1111111111111100
0000000000001011
0000000000000110
1111111111111110
1111111111111110
0000000000000111
1111111111110010
0000000000100011
0000000000001111
0000000000001100
0000000000010110
0000000000011010
0000000000001100
0000000000001110
0000000000010000
0000000000000111
0000000000000110
1111111111100101
0000000000000010
1111111111111010
0000000000000100
1111111111101001
1111111111110111
1111111111111100
1111111111111110
1111111111110100
1111111111110111
1111111111101111
0000000000000000
0000000000001111
0000000000001010
0000000000011101
1111111111111110
0000000000001010
1111111111111101
1111111111101110
0000000000000011
0000000000000011
0000000000000010
0000000000001010
0000000000000101
0000000000010001
0000000000000010
0000000000000011
0000000000000001
1111111111110111
0000000000000000
0000000000000101
0000000000000110
1111111111111000
1111111111111101
0000000000001000
0000000000010101
1111111111111000
1111111111101101
1111111111101110
0000000000000110
1111111111111111
0000000000011101
0000000000101010
0000000000000001
0000000000000000
0000000000011011
1111111111010000
0000000000000111
0000000000010010
0000000000001000
0000000000000101
1111111111110111
0000000000010101
0000000000000000
0000000000000101
0000000000001110
0000000000010101
0000000000001001
1111111111111111
1111111111110010
1111111111111010
0000000000001100
0000000000001110
1111111111111100
1111111111111111
0000000000000000
1111111111111100
1111111111111111
0000000000001001
0000000000000011
1111111111110000
0000000000001111
0000000000000010
1111111111110001
1111111111101010
0000000000001010
1111111111110011
1111111111110011
1111111111110111
0000000000001101
0000000000000010
0000000000001001
0000000000010010
1111111111110000
0000000000001101
0000000000001010
0000000000000001
1111111111101010
1111111111110110
1111111111110000
0000000000001100
0000000000001011
0000000000000010
1111111111111100
0000000000000100
0000000000001011
0000000000010011
1111111111110110
0000000000001110
1111111111101101
0000000000001000
0000000000001000
1111111111110000
1111111111110011
0000000000000010
1111111111111001
0000000000000110
0000000000000010
0000000000011101
0000000001010111
1111111111101101
1111111111110000
1111111111110000
0000000011010100
0000000011100111
0000000010100110
0000000000100111
0000000000001000
0000000010110100
1111111110111100
0000000000000000
0000000000001010
1111111111111011
0000000000000011
0000000000000000
1111111111111001
1111111111110101
1111111111111100
1111111111111101
0000000000000100
0000000000000010
0000000000000100
1111111111111111
0000000000001001
0000000000000110
0000000000001100
0000000000000111
1111111111111101
1111111111111100
0000000000000000
1111111111111010
1111111111110111
0000000000000001
1111111111111000
1111111111001000
0000000000001000
0000000000010011
1111111111111011
0000000000001010
1111111111100101
0000000000000101
0000000000011100
1111111111011110
1111111111111110
1111111111101000
0000000000010011
1111111111111110
0000000000000111
0000000000000001
0000000000001111
1111111111110110
1111111111110000
1111111111110011
1111111111111000
0000000000000001
0000000000000010
1111111111111111
1111111111111011
0000000011001010
0000000101000110
0000000100011011
0000000011011101
0000000001001101
0000000010000100
0000000010010100
1111111111100110
0000000000000100
0000000000000001
1111111110001111
0000000000011011
0000000000000010
0000000000000111
1111111111111110
0000000000000101
1111111111111100
1111111111111111
0000000000000111
0000000000000010
0000000000000111
0000000000000001
0000000000000110
0000000000000010
1111111111111010
0000000000000001
0000000000000111
0000000000001111
0000000000000101
1111111111111110
1111111111110110
1111111111111011
0000000000000100
0000000000000010
1111111111111011
1111111111111101
1111111111111110
0000000000000110
0000000000000101
1111111111111011
1111111111111101
0000000000000111
0000000000000110
0000000000000011
0000000000000010
1111111111110110
1111111111111101
0000000000001000
1111111101011101
1111111111111100
0000000000110011
0000000000001100
1111111101110010
0000000010110001
0000000101001111
0000000101001011
0000000010101100
0000000000110000
0000000011000000
0000000011110011
1111111111111011
0000000000000010
1111111111111011
0000000000000010
0000000000000110
0000000000000001
1111111111111000
1111111111111001
1111111111111011
1111111111111010
1111111111111100
1111111111110100
0000000100001100
0000000101101110
0000000010111110
0000000001011010
0000000000101000
0000000000001001
0000000000001100
0000000010111100
1111111111111110
1111111111110101
0000000000010010
0000000000100001
0000000000000000
0000000000000100
0000000000000010
0000000000000011
0000000000000010
1111111111111111
1111111111111001
0000000000000011
1111111111111010
0000000000000010
1111111111111011
0000000000000101
0000000000000111
0000000000001100
0000000000000010
0000000000001011
0000000000000000
0000000000000110
1111111111111111
1111111111111101
0000000000000100
0000000000001000
0000000000001000
0000000000000101
0000000000000010
0000000000000000
1111111111111011
1111111111111111
0000000000001000
1111111111111101
0000000000000000
1111111111111110
0000000000000001
1111111111111011
0000000000001101
0000000000000100
1111111111111110
0000000000000101
1111111111111101
0000000000000100
0000000000000001
1111111111111011
1111111111110100
1111111111111010
1111111111110001
1111111111110001
1111111111111001
1111111111111000
