1111111100100000
1111111011101000
1111111111010110
1111111100101111
1111111001100110
0000000010101111
0000000011111100
0000000101111010
0000000001100111
1111110110000101
1111110110111111
1111110010100000
0000001111010010
0000000100111000
1111111011100001
1111111010001111
0000001110111001
1111111001000101
0000000000101101
0000000110000011
0000000001011101
1111111110100000
1111111110010011
1111111101101110
1111111101000010
1111111110001010
0000000010001000
0000000010000001
1111110001100011
0000000111111101
0000001111101111
1111111101000111
1111110011101111
1111110101101101
0000001010110101
0000001111010011
1111110001011110
1111110101011101
1111111110001110
1111111000101110
1111111011100101
1111111101011011
1111111000111011
0000000000110100
1111111111010011
1111111110011111
0000000011110110
1111110111001011
0000000001111100
1111111100000010
0000000110010011
1111111110000110
0000000110010111
1111111110110000
1111111010100000
1111111010101011
1111111110111111
0000000000010001
1111110111110010
1111111100111000
1111110111001010
0000000001111110
1111111010000110
0000000010000111
0000000001110001
1111110101111001
0000000010111000
1111110001110111
1111111010011110
1111111111010111
1111111100101000
0000000100101010
1111110010001111
1111110111101010
0000000000010010
0000000110111010
0000000100010110
0000000011110001
0000000010110001
0000000011101010
0000001011000001
0000001000101100
1111111100100001
1111111100000010
0000000001010001
1111110111111101
0000000110000110
0000001000000011
1111111111111000
1111111111000101
0000000010011011
0000000001100010
0000000110011000
0000000111011011
0000000101001101
0000000011110010
0000000100111011
0000001000010001
0000010110000010
1111111100111001
0000000010111001
0000000001000001
0000000001110001
1111111111101000
1111110101101111
1111111110000110
0000000011111000
0000000011111011
1111111110001101
0000000101101101
1111111111001111
0000001000111111
0000000000000101
0000000011001101
0000010000011010
0000001010000011
0000010110111100
1111111111001101
1111111111100001
1111111111111011
0000000001100111
1111111010111111
1111110110100111
0000001101011010
1111111000010111
0000001001111101
1111111101000011
1111111100110001
0000000010110010
0000000000100111
0000000100001001
0000000010100101
0000001000111110
0000000110101111
0000001001110101
0000000000101110
1111110101101000
1111111110110001
0000000101000111
0000000010000000
0000000110101000
0000000001110100
0000000011100101
0000000101001001
1111111001100010
0000000111001000
0000000011010010
1111111010110100
0000000101100001
0000000001110011
1111111101101010
0000000100011110
0000001010010010
1111111011100001
0000000000010011
1111111101011110
0000001101101000
1111111100111010
1111111101000001
0000000110010010
0000000000100010
0000001101110111
1111110110111101
0000000010101100
1111111111100001
1111111111100010
0000001001101001
1111111100100111
0000000001110011
0000000010110011
0000000100001100
1111110101011001
0000000011001000
1111111101010110
1111111010011101
0000000110110011
1111111100111110
1111111100100010
1111111101010111
0000000010100000
1111111000010100
1111110110010001
0000000001011101
0000000000010011
0000000010010101
1111111111001000
0000000000001100
1111111100110011
0000000001000110
0000001001010011
0000000101001110
0000000111001100
0000000110011011
1111111110001101
1111111101110000
0000000000110010
1111111100100001
1111111110100111
1111111111111000
1111111110011000
1111111101111001
1111111111010110
0000000100111010
0000000101100011
0000000100111100
0000001000100000
0000000100101011
0000001000111110
0000000000000001
0000000101010011
0000001101001011
0000001001101011
0000001000011101
0000001110101000
0000001101011000
0000100011100011
1111111100110111
1111111110110000
0000000011000100
0000000101011011
0000000101110101
0000000100101100
0000001000000010
0000001110011000
0000011000100001
0000000011000111
1111111011010011
1111110111100111
1111111011011011
1111111010010001
0000001000101100
0000000000000100
1111111111110100
0000000100010001
1111111100100111
1111110011110111
0000000100101000
0000000001110100
1111111110001101
1111111000011011
1111111100011111
1111111011111000
1111111101101110
0000000000101011
0000000101101011
1111111110111001
1111111011000100
1111111001101111
0000000101101001
0000000100001100
0000000101100001
0000000000100111
1111111101010010
1111111001010100
0000001001111101
0000000000100001
1111111001101010
1111111011010011
0000001000110111
1111111010101101
0000000011110011
0000000000010110
1111111110111011
0000000011111111
1111111100110001
1111111000100101
0000001001000000
1111110101101111
0000000011010110
0000000001011011
1111111011110111
1111111000011011
0000000100110110
0000000011000000
0000000001111101
0000000000110110
0000000100100101
0000001000101000
0000001011010011
0000000101001111
0000000000111010
0000000000000100
1111110101111001
1111111111101100
0000000000101011
1111111111101101
1111111101000100
0000001000000110
1111111110111110
0000000000001110
1111111100110100
0000000000100000
1111111001110110
0000000000100001
1111111011101111
0000000010100100
0000001011001110
0000000010010011
0000000000101110
1111111100001111
0000000110011101
0000000011010011
1111111110010000
1111111000010011
0000000101101010
0000000010110011
0000000011101000
1111111110110110
0000000100100000
0000000100101101
1111111010111101
0000000010100110
0000000001000100
0000000011110001
0000001110011100
0000000000110010
1111111100010111
0000000100100001
1111111101100110
0000000001110011
0000000011001001
0000000110000001
0000001100000000
0000001001111100
0000000000011011
0000000011100000
1111111111000001
0000000000010100
0000000001000110
0000000011100011
1111111010100001
1111111110111101
0000000000011101
1111111011000110
0000000101010100
0000000001100000
1111111010011101
0000000000111011
1111111011110000
0000000001010010
1111111101000010
1111111101000001
0000000001110001
0000000000000011
0000000110000101
1111111111100100
1111111010011110
1111110110110110
0000000011000011
1111111110011010
0000000001000110
1111111110000110
1111111010110011
1111110111110001
0000000011101010
1111111001001011
0000000100110001
0000000010001010
1111111111111010
1111111101101001
1111110011000011
1111111011000011
1111111101010111
0000000011100100
1111111001000100
1111111100111111
0000000101100110
0000000010111111
1111111100101000
0000001000110101
1111111100101100
0000000000110100
0000000000111111
1111111011011001
1111111001110011
0000000110011100
0000000011010010
1111111111111110
0000000101111110
1111111001101101
0000000010111110
0000000100010100
1111111111111110
0000000101001110
0000000110010011
1111111100010011
1111111111001110
0000000000010100
1111111111010110
1111111101010000
1111111101101100
1111111101110001
0000000011010001
0000000101000011
1111111011000010
0000000010011111
1111111100100100
0000000011000010
1111111101101001
1111110101111101
1111111100011101
0000000101011110
1111111011111011
0000000011000100
0000000001110101
1111111101110100
0000000000101110
1111111110111001
1111111100001110
1111111101101110
1111111100110100
0000000000010000
1111111100010010
1111111001100000
1111111100100101
0000000011010000
1111111000001000
0000000001001101
1111111010011110
1111111011101010
0000000110011010
1111111010001100
0000000101011001
1111111110001111
1111111110010110
1111111110011100
1111111101010010
1111111100001100
0000000011011100
0000000110110101
0000000101111011
0000000000011011
0000000100101001
0000000101000010
0000000011010101
0000000001110100
0000000001111100
0000000001011010
0000000100110111
0000000110000011
0000000001000110
1111111010010000
1111111010111010
1111111110110111
0000000011110100
0000000001110100
0000000001101000
0000000110101110
0000000010010010
0000000000010011
0000000010101111
1111111111111011
0000000001100111
0000001000000110
0000000101101101
0000000100100100
0000000101111000
1111111111101111
0000000100110110
1111111111111111
0000000000000101
0000000001011001
0000000101011000
0000000001000001
0000000010001001
1111111111111011
0000000110001011
0000000000001001
0000000111110100
0000000000000110
1111111001110111
0000000010100011
0000000110101111
0000000000101110
1111111111011011
1111111110110101
1111111000101010
1111111100101101
0000000010010111
1111111100010001
1111111011110110
0000000100100110
1111111110100000
0000000010001000
0000000010010011
0000000000011101
0000000010110111
1111111101111000
1111111010111000
0000000011010110
0000000101011010
0000000110000001
1111111110011010
1111111100000000
0000000001100111
0000000000100010
1111111101111101
1111111110011100
0000000001110100
0000000100100000
0000001000000111
0000001000011110
1111111100110110
0000000001101110
0000000011011100
1111111011110100
1111111110101101
1111111110101001
0000000010010110
0000000000001111
0000000001110010
1111111110011110
1111111100101011
0000000000011011
0000001000000000
0000000000100001
0000000001000010
1111111100111100
0000000011001010
1111111000011001
0000000010110011
0000000001100111
0000000110000111
0000000100011011
0000000101000100
0000000101011111
0000000001001001
0000000001101011
1111111011001101
0000000001011111
1111111100111010
1111111010101001
0000000011000101
1111111010000111
1111111111110000
0000000000100011
1111111111001111
0000000000110111
1111111100101001
0000000011101111
1111111110101111
0000000010101011
0000000101010011
1111110110101000
0000000011111000
0000000100101111
0000000010001011
1111111111101011
1111111110101000
0000000001011100
1111111100110011
1111111100000110
0000000101000000
1111111011010101
0000000010001111
1111111100101101
1111111101111000
0000000010100010
1111111101000110
1111111101111010
0000000101100100
0000000110101101
1111111111100000
0000000010001100
0000000111111011
1111111111010100
0000000001111000
0000000100010101
0000000111101101
0000000110000111
1111111001101110
1111111100001000
1111111001110110
0000000000100000
0000000001010100
0000000001000110
0000000111010011
1111111001010110
0000000001010101
1111111101001011
0000000000010101
0000000001011011
0000000100001111
1111111110110101
0000000011000011
0000000001100111
0000000011000110
1111111111001011
0000000011000001
0000000010110001
1111111100100101
0000000010101011
0000000000010100
0000000110111010
0000000111100101
0000000101101001
0000000000010000
1111111100110100
1111111011011010
1111111110111101
1111111111001010
0000000011100001
1111111010101011
0000000001100011
1111111111000110
1111111110011010
0000000000110111
0000000010100111
0000000100010100
1111111110011110
1111111111110111
0000000000101111
1111111111110011
1111111111100101
1111111111101011
0000000000000100
0000000000000001
0000000000001000
1111111111111010
1111111111101001
1111111111111010
1111111111111111
1111111111110001
0000000000000110
1111111111111010
0000000000000001
0000000000001011
0000000000000010
1111111111110110
0000000000000111
1111111111110001
1111111111111110
1111111111110100
0000000000010001
0000000000010000
0000000000000111
1111111111110111
0000000000001101
1111111111100101
0000000000000000
0000000000000010
1111111111111010
0000000000000100
0000000000001000
0000000000000101
0000000000011000
0000000000010100
0000000000011000
0000000000001000
0000000000001111
1111111111111010
0000000000000000
0000000000001010
0000000000000010
1111111111111001
1111111111110011
0000000000001111
0000000000010101
1111111111111111
1111111111100101
1111111111110111
1111111111111110
0000000000000101
0000000000100001
0000000000011100
0000000000001010
1111111111111100
0000000000000101
0000000000000101
0000000000001111
1111111111111111
1111111111110100
0000000000000010
1111111111111010
1111111111111001
1111111111110110
0000000000000101
0000000000000100
0000000000000001
0000000000001011
1111111111111001
0000000000000000
0000000000010100
1111111111111110
0000000000001111
0000000000001010
0000000000001010
1111111111111111
0000000000001011
0000000000001001
1111111111110101
0000000000000010
1111111111101110
1111111111111110
1111111111110100
1111111111111101
1111111111111001
0000000000000011
0000000000001111
1111111111101101
1111111111110101
1111111111110101
1111111111111000
0000000000000100
1111111111101110
0000000000000110
1111111111111111
0000000000001000
0000000000000111
0000000000000000
1111111111111101
0000000000000010
0000000000001010
0000000000000001
0000000000000011
0000000000000110
0000000000000100
0000000000000010
1111111111111001
1111111111111100
1111111111111101
0000000000001000
1111111111111110
0000000000010011
0000000000000101
1111111111111100
1111111111101100
1111111111110101
1111111111111010
1111111111111011
1111111111111001
0000000000010011
0000000000001001
0000000000000011
1111111111111011
0000000000001001
0000000000000110
0000000000010011
1111111111111001
1111111111111011
0000000000000111
0000000000001001
0000000000000100
0000000000001000
0000000000000101
0000000000000111
1111111111110110
0000000000001010
1111111111111001
1111111111110010
0000000000001110
0000000000001110
0000000000001111
0000000000001101
0000000000000101
0000000000010110
0000000000100000
0000000000000000
0000000000000001
0000000000010001
0000000000000100
0000000000010000
0000000000001001
0000000000001101
0000000000010110
0000000000000011
0000000000001010
0000000000001000
0000000000000011
1111111111111111
0000000000001001
0000000000000000
1111111111110001
0000000000001100
1111111111111100
0000000000001111
0000000000010010
0000000000000111
0000000000000001
0000000000000000
0000000000011110
1111111111111000
1111111111111110
1111111111111111
0000000000000011
0000000000001000
1111111111110001
1111111111111111
1111111111110111
1111111111110110
0000000000001000
1111111111111110
0000000000000111
0000000000000100
0000000000001000
0000000000010111
1111111111111110
0000000000000100
1111111111111100
0000000000001000
1111111111101110
1111111111111101
0000000000000110
0000000000010111
0000000000000010
1111111111110010
0000000000010011
1111111111000111
1111111111111000
0000000000000111
0000000000000101
1111111111111100
1111111111111010
1111111111111011
1111111111111000
1111111111110010
1111111111110011
0000000000000011
0000000000000111
0000000000000100
0000000000001110
0000000000000010
1111111111110110
0000000000001011
0000000000000011
0000000000011100
0000000000011000
0000000000001001
1111111111111110
1111111111111010
0000000000001001
0000000000011010
0000000000001111
0000000000010110
0000000000010011
1111111111111111
0000000000010000
0000000000100100
0000000000001101
0000000000110100
1111111111111101
1111111111111011
0000000000001111
0000000000001110
0000000000001010
0000000000000011
0000000000001111
0000000000000110
0000000000011011
1111111111111100
0000000000000000
0000000000001011
0000000000000100
0000000000011000
0000000000011101
0000000000000010
0000000000000011
0000000000001010
1111111111110011
1111111111110000
1111111111111101
0000000000010011
1111111111101111
1111111111110111
1111111111111001
1111111111111010
0000000000000110
0000000000000001
1111111111111100
1111111111110111
0000000000000011
0000000000001000
0000000000010001
1111111111110100
1111111111111110
1111111111110111
1111111111111100
0000000000001000
0000000000000101
1111111111100110
1111111111110111
1111111111111010
0000000000010111
1111111111111001
1111111111111000
0000000000011010
0000000000010110
1111111111101110
0000000000001100
1111111111110011
1111111111111110
1111111111111000
0000000000000001
1111111111111111
1111111111100111
1111111111101011
0000000000000110
1111111111101101
1111111111111001
1111111111110100
0000000000010111
1111111111110101
0000000010111101
1111111111010111
0000000001101000
0000000101010100
0000000100100101
0000000100010001
0000000000111010
0000000000000010
1111111111011110
0000000000100111
1111111111110110
1111111111111011
0000000000000011
1111111111111110
1111111111111111
1111111111111100
1111111111111100
1111111111111101
0000000000000111
0000000000001011
0000000000001000
1111111111111110
1111111111110011
0000000000000000
0000000000000010
0000000000001011
1111111111110111
1111111111111010
1111111111110011
1111111111111010
0000000000000011
0000000000000011
0000000000000111
0000000000001000
0000000000001010
1111111111110010
1111111111110010
1111111111010100
1111111111111000
1111111111001111
1111111110111001
0000000001000111
0000000001100001
1111111111101011
1111111111111100
0000000001100110
0000000000000101
1111111111110110
0000000000000100
0000000000000001
1111111111111000
1111111111111011
1111111111111100
0000000000000000
0000000000000000
0000000000000100
0000000000000111
0000000000000111
0000000101001000
0000000011011000
0000000110001111
0000000010111100
0000000000011010
0000000001000101
0000000000111101
0000000001100100
1111111111110111
0000000000000001
0000000000101010
1111111111111111
1111111111111110
1111111111110111
0000000000000100
0000000000000101
1111111111111110
1111111111111111
1111111111111111
0000000000000100
1111111111111110
0000000000000110
0000000000001110
0000000000000110
0000000000001001
1111111111111110
1111111111111011
0000000000000100
1111111111111011
0000000000000100
1111111111111110
0000000000001010
0000000000000000
0000000000000000
0000000000001111
0000000000000101
0000000000000011
0000000000000010
1111111111111000
0000000000000100
0000000000000000
1111111111111000
0000000000000010
0000000000001000
0000000000000100
0000000000001010
0000000000001010
0000000000010010
1111111100111010
0000000001110001
0000000001010001
0000000000011110
0000000001011101
0000000001101100
0000000010010100
0000000000001000
0000000100001100
1111111111100101
0000000011011000
0000000100010111
0000000000000101
1111111111110110
0000000000000000
0000000000000011
1111111111111000
1111111111110101
1111111111110101
1111111111111000
1111111111111000
1111111111110001
1111111111101101
1111111111111010
0000000010001111
0000000010101011
0000000100101010
0000000010010110
1111111111101000
0000000000000111
0000000000101001
0000000000000010
1111111111111010
0000000000001000
0000000000001101
1111111111101100
0000000000000001
1111111111111101
1111111111111001
1111111111101101
1111111111111100
1111111111110011
1111111111110100
1111111111111000
1111111111110100
1111111111101110
1111111111100011
1111111111110101
1111111111110111
1111111111101111
0000000000000011
1111111111111000
1111111111111100
0000000000000010
0000000000000101
0000000000000011
0000000000000011
1111111111111101
0000000000000011
0000000000000000
0000000000000011
0000000000000011
1111111111111101
0000000000000000
1111111111111010
1111111111111011
1111111111111111
0000000000000011
1111111111111110
1111111111111111
0000000000000100
0000000000001101
1111111111111110
0000000000000001
0000000000000010
1111111111111000
1111111111111001
1111111111101111
1111111111111011
0000000000000101
1111111111111110
1111111111110101
1111111111111101
0000000000000011
