0000000100001010
0000001000010110
1111111110000000
0000000011101110
0000000011111010
1111110110101110
1111111001101000
0000000100111010
0000000010000111
1111111101110011
1111111111111110
1111111111010111
0000000101001011
0000000101011000
0000001001011100
1111110100011110
0000001000001000
1111111010111001
1111111111011000
0000000101011000
1111111110000100
1111111100011010
1111111000001001
0000000001011001
0000000000000101
1111111111010001
1111111111100111
0000000101000101
1111111101000111
0000001000101100
0000001101001110
1111110110001110
0000000100111001
0000000011101011
1111111001101101
0000010001100111
1111111101000111
0000000101010000
0000000011001001
0000000000011100
1111111100001001
1111110000011100
0000000010011001
0000000100010011
1111110001001001
0000000111101111
0000000000000100
1111111110100100
1111111000110101
0000000010000011
0000000001010110
1111111110010001
1111111011110101
0000000111110001
1111110111010011
0000000111111011
0000000110011110
0000000000000010
1111111100000110
1111110111010111
1111111000100110
1111111101111101
1111110101111101
1111111011101010
0000000001110000
1111111111010001
1111111111101001
0000000000010111
1111110111110111
0000000111000000
0000000101100111
0000000101011110
1111111101101100
1111111011000010
0000001101111111
0000001010101000
0000000100110010
1111111100100100
0000000111001101
0000000100100001
1111111101110100
1111111000100000
1111111001110111
0000001000101110
0000000000000000
0000000100100110
0000000000100100
1111111111100101
0000000001011101
1111111110110011
0000000000111110
0000001100011001
1111111111111001
0000000011101100
0000000001100001
0000000011111001
1111111110111011
0000000011011111
0000000111101001
0000000100000001
0000000001000010
1111111100110100
1111111010011101
1111111011011110
1111111101111110
0000000001000000
1111111111111001
0000000000001101
0000000101100110
1111111111111000
1111111101100011
0000000111101110
1111111111001001
0000000001110111
0000000110000110
0000000000111011
0000000010110111
1111110110101111
0000000011100001
0000000110011011
0000001000100110
0000000010110100
0000000111010100
0000000001111101
1111111111100000
1111111101011001
0000000000110110
1111111010100000
1111111001111011
0000001001100111
0000000001010100
1111111010101001
0000000000001000
1111111111010100
0000000011011010
1111111101010000
0000000001001101
0000000011110000
0000000101101000
0000000100010001
0000000100110001
0000000001000101
0000000010101010
0000000110001010
0000000000101111
0000000011101110
1111111111110111
1111111101100111
1111111111110000
1111111011010000
0000000000101011
0000000100110010
0000000011011101
0000000010010101
1111111000010000
0000000001101110
1111111110101000
1111111110011000
1111111101001001
0000000011010000
0000000111111001
0000000110100010
0000000100000100
0000000011001010
1111111010111101
1111111011101111
0000000010011110
0000000110010100
0000000000010010
0000000010011100
1111111100110110
0000000000100101
1111111101011001
0000000010001001
0000000011010101
0000000001100110
1111111101101101
1111111001000101
0000000111110011
1111111110011010
1111111011010001
1111111100011111
0000000001110100
0000000100001100
1111111111101011
1111111100001010
1111111111011110
0000000001101011
0000000000100010
1111111011101101
1111111001100011
1111111101011101
0000000011001110
0000000110001010
1111111111010000
1111111000001001
1111111001100001
0000000001000001
1111111000001010
1111111000100110
0000000001101011
0000000101001000
0000000000011001
0000000001101101
0000000001111011
0000000001011100
1111111001011100
0000001010001001
0000000001100100
0000001000001111
0000000101111011
0000000100010111
0000000101000000
0000001111011011
0000000111000111
0000001000100111
0000000000001101
0000000011110110
0000000101010100
0000000100110111
0000000010111101
0000001000110010
0000000010000011
0000001000100011
0000000110101010
1111111100000100
1111111101101011
0000000000011000
0000000010010001
1111111110001101
1111110111110110
1111111101111010
0000000000011010
0000000001001001
1111111011000010
1111111010000100
0000000100011000
0000000101110011
0000000001110101
1111110011111000
1111111101010101
1111111111101110
1111111000101000
1111111011000010
1111110111111110
1111111001010010
0000000100110101
1111111111010011
0000000100110000
0000001001011010
0000000011011101
0000000010100111
0000000101011010
1111111111100001
0000000000001001
1111111011101111
0000000111000011
0000000001111110
1111111001010110
0000000001101010
1111111101011011
1111111001011011
1111111101011010
0000000011100001
0000000110010010
1111111111011000
0000000001001000
0000000000000111
0000000000000110
1111110101010000
1111111011101110
0000000100001100
1111110110100000
0000000100011000
0000000100101010
0000000001100010
0000000101100011
0000000100010011
0000000111010111
1111111101010010
0000000100110010
0000000100011001
1111110110111101
1111111000100000
0000000011110101
0000000001100111
0000000001101101
1111111010000000
0000001000010101
1111111111100010
1111111111000010
1111111100010100
1111111100011001
1111111000011001
0000000000000110
0000000110101010
1111111000110000
1111111000000101
0000001101110001
1111111011111010
0000000010001010
1111111011011110
0000000011010110
1111111001111001
1111111011100110
0000000000011101
1111111101101010
0000000101111001
0000000101101001
1111111111000011
1111111100010010
0000000011101010
0000000101001111
1111111100011101
0000000100100100
0000000101000001
1111111111111110
0000000011111001
1111111011100011
1111111010101110
0000001101001000
0000001011100001
1111111010111101
1111111010101110
0000000100100010
0000000010011101
0000000010101000
0000000110110010
1111111110001010
1111111000110100
0000000100001100
1111111011010000
1111111111100111
1111111011101011
1111111101110110
0000000100011010
0000000011110000
0000000011110111
0000000000100011
1111111011110100
1111111111011000
0000000010100010
0000000011111100
1111111110001100
1111111111101111
1111111110011000
1111111001101101
0000000000111110
0000000101000011
1111111100000001
1111111111111000
0000000000011001
0000000010111110
1111111100111101
1111111101111100
0000000100100110
1111111110100101
0000000001111000
1111111110111111
1111111110101110
1111111011010000
1111111001001001
0000000011001100
1111110111101001
0000000110010101
1111111110111111
1111111101011110
0000000001101011
0000000001100001
1111111010011100
1111111101110011
0000000001001101
1111111101011101
1111111101010110
1111111110001110
0000000000100100
1111111111100111
1111111101001100
0000000100011101
1111110111011011
0000000001100100
0000000001111101
1111111110011110
1111111111101101
1111111111111000
0000000000011011
1111111110011110
0000000000101110
1111111111110010
0000000011000010
0000000000110001
1111111101111000
1111111111010010
1111111101100110
0000000000101001
0000000001001101
1111111111110010
1111111011111101
1111111001001110
0000000000110000
1111111100110100
1111111000001100
0000000011101011
1111111100010001
1111111110100111
0000000100100000
1111111010101001
1111111011010101
1111111101011111
1111111111111101
1111111110011101
0000000000110011
1111111110111001
0000000010000100
0000000001111010
0000000010000101
0000000000111111
0000000101000101
0000000011000101
1111111010111100
1111111100100011
1111111111100100
0000000010101100
0000000000011001
1111111101001101
0000000001010101
1111111101010100
1111111111101100
1111111110100000
0000000011001000
1111111010111100
0000000000000100
0000000101000000
0000001010001000
0000000000010111
0000000100111100
0000000011001110
0000000100000001
1111111101010100
1111111111010101
0000000001110001
1111111011111100
0000000010010001
1111111000000000
1111111010010111
1111111101011011
1111111101011111
1111111101011001
1111111101111111
1111111101010101
0000000011110010
0000000110000110
0000000010100010
0000000101110110
0000000110101011
0000000111100110
0000000010101011
0000000100101100
0000000100111100
1111111101111110
1111111000101100
1111111110000011
0000000000100000
1111111101011101
1111111110001011
1111111110000101
1111111101000100
1111111101111010
0000000001010101
1111111111000101
1111111010011010
0000000100111010
1111111011000110
1111111111100110
1111111101101111
0000000001100111
0000000110100010
0000000100111101
1111111110000010
0000000000010001
1111111111111001
1111111110110100
1111111001011010
0000000101010011
0000000001001100
1111111111110100
1111111101111001
0000000000110000
1111111101001111
0000000100011110
0000000100101011
1111111011101011
1111111010010010
0000000100111001
0000000001111101
0000000001100100
0000000000100001
0000000101110001
0000000100001100
0000000100110110
0000000100101000
0000000010100110
1111111101010010
0000000000011111
0000000010111011
1111111001111111
1111111110000010
0000000000110101
1111111110000110
1111111101001011
1111111000100010
1111111100100010
1111111011111111
0000000010000001
1111111101111000
0000000000000101
1111111101100001
1111111110110100
1111111110100110
1111111001101101
0000000001010101
0000000001011101
0000000111110100
0000001000001001
0000000110010010
0000000010011000
0000000110111010
0000000110010001
0000000001101011
0000000010000011
0000000000001001
1111111111111000
1111111001100001
0000000010011000
1111110110111111
1111111101100101
0000000010010001
0000000000011100
0000000110110100
1111111011101010
0000000000001000
1111111111011010
0000000000111101
1111111101100001
1111111111010101
1111111011111010
0000000000010100
0000000001111110
0000000010110110
1111111000111111
1111111101110010
1111111100110110
0000000001101100
1111111111001010
0000000010101011
1111111100001100
1111111110101000
0000000010100000
0000000001000010
0000000011100110
1111111101001101
0000000101101101
1111111100100011
1111111101110100
0000000111100011
0000000000100011
0000000010111011
0000000011101111
0000000100010011
0000000101001011
1111111011100110
0000000010110101
0000000001011010
1111111111101100
0000000000110101
0000000001110011
0000000101001010
0000000001001110
0000000001000100
0000000001001001
0000000001111000
1111111110010011
1111111001000110
0000000110010000
1111111100011101
0000000010101010
1111111100101011
1111111011100001
1111111110010110
1111111110111000
1111111011010000
1111111111011011
1111111110110111
1111111100111101
0000000010101100
1111111101010001
1111111101101011
0000000101010100
1111111011010011
1111110111111001
0000000001101011
1111111111100101
1111111101100100
0000000000000111
1111111101111111
1111111111101000
0000000010111111
1111111111100101
1111111100011100
0000000011001101
1111111010010111
0000000011011110
0000000000000111
0000000000000110
1111111111110001
1111111111110110
0000000000000100
1111111111110101
0000000000001100
0000000000000101
1111111111011110
0000000000000000
0000000000000110
1111111111111101
0000000000000010
1111111111101001
1111111111110000
0000000000000110
1111111111101111
1111111111110010
1111111111111100
0000000000011000
0000000000000110
0000000000010111
0000000000010100
1111111111110111
0000000000001010
0000000000000000
1111111111111110
0000000000000011
1111111111111000
1111111111111011
0000000000000101
0000000000000011
0000000000001011
0000000000010011
1111111111111000
0000000000001001
1111111111111111
1111111111111100
0000000000000001
0000000000000101
0000000000000000
0000000000001000
0000000000000110
1111111111110110
0000000000000100
1111111111101010
1111111111110110
0000000000000100
1111111111111111
0000000000000111
1111111111111100
0000000000001011
1111111111101100
1111111111100001
0000000000010001
1111111111110100
1111111111111001
0000000000000010
0000000000000000
0000000000000000
1111111111111100
0000000000000110
0000000000000000
0000000000001101
1111111111111111
1111111111100010
0000000000010010
0000000000000110
1111111111110010
0000000000000111
0000000000000010
1111111111110011
0000000000001010
0000000000001011
0000000000010100
1111111111111100
1111111111101010
1111111111101111
0000000000001110
1111111111111001
0000000000001010
1111111111111100
0000000000000110
0000000000001001
1111111111111101
0000000000010001
0000000000010110
0000000000010101
0000000000001011
0000000000011111
0000000000000011
0000000000000100
0000000000001001
1111111111111100
0000000000000111
1111111111110101
1111111111111110
1111111111111100
1111111111111101
0000000000010001
0000000000010111
0000000000011110
1111111111111011
1111111111110010
1111111111101101
1111111111101101
1111111111101100
1111111111110110
1111111111111101
0000000000000110
0000000000001110
0000000000010011
0000000000010111
0000000000010110
0000000000000010
0000000000000011
1111111111101010
0000000000001011
0000000000010100
0000000000011000
0000000000001001
0000000000000100
0000000000000010
0000000000001001
0000000000000001
1111111111111110
0000000000010010
0000000000010100
1111111111111111
0000000000001100
0000000000011001
0000000000011101
1111111111111010
1111111111111100
1111111111101100
1111111111110111
0000000000001100
1111111111101111
1111111111110010
1111111111110111
1111111111110000
1111111111111001
0000000000001001
1111111111100110
1111111111101101
1111111111111101
1111111111011001
0000000000000101
1111111111110010
0000000000100001
0000000000000101
0000000000010111
0000000000010101
0000000000000001
0000000000001100
0000000000001011
0000000000000011
0000000000001100
0000000000001011
1111111111110110
0000000000000010
0000000000001011
1111111111110110
0000000000000010
0000000000000111
1111111111111000
0000000000001010
0000000000001011
0000000000010111
0000000000000111
1111111111111101
0000000000000000
0000000000001001
1111111111100011
1111111111111101
1111111111111100
1111111111110011
0000000000000111
1111111111111000
1111111111110100
0000000000001010
1111111111110100
1111111111100101
0000000000001110
1111111111110010
1111111111111111
0000000000001001
0000000000010100
0000000000001111
0000000000000111
0000000000010011
1111111111111011
1111111111111000
0000000000000100
1111111111110010
0000000000000111
0000000000000010
1111111111110101
0000000000010110
0000000000010011
0000000000010001
0000000000010001
0000000000010110
0000000000001011
0000000000001000
1111111111110001
1111111111111011
0000000000000111
1111111111110101
0000000000001111
0000000000010100
1111111111110100
1111111111111100
1111111111110100
1111111111101100
1111111111101110
0000000000000010
0000000000001010
0000000000011001
0000000000000101
0000000000001010
1111111111111000
1111111111111101
1111111111101000
1111111111110111
0000000000101101
0000000000001001
0000000000111100
0000000000001000
0000000000000000
1111111111101111
1111111111111100
1111111111111000
0000000000001000
0000000000001001
0000000000000001
1111111111110111
0000000000001110
1111111111111010
1111111111110001
1111111111110011
1111111111011111
1111111111100001
1111111111111001
1111111111110011
0000000000000011
0000000000001101
1111111111111110
0000000000000001
1111111111100100
1111111111101101
1111111111111100
0000000000001100
0000000000000111
1111111111111111
1111111111111110
1111111111111110
0000000000000111
0000000000000000
0000000000001011
1111111111111010
0000000000001111
0000000000011010
0000000000000101
1111111111111000
1111111111111001
1111111111111001
0000000000000000
1111111111111101
1111111111110000
0000000000011010
0000000000010110
0000000000011100
0000000000000110
1111111111101111
1111111111111110
0000000000000110
1111111111101100
0000000000011100
1111111111110101
0000000000000000
1111111111111010
0000000000000000
0000000000001110
0000000000010101
1111111111101110
0000000000010000
1111111111110000
1111111110101011
0000000000000000
1111111110110101
0000000000000111
0000000001001010
1111111111001000
0000000010011011
0000000000100000
0000000000110100
1111111110110010
1111111110101001
0000000000011010
0000000000000010
0000000000000010
1111111111111111
1111111111111100
0000000000001110
0000000000001001
0000000000001000
1111111111111001
1111111111111101
0000000000001001
0000000000001110
0000000000010000
1111111111111110
1111111111111110
1111111111111100
0000000000001000
0000000000001011
0000000000000001
0000000000000100
1111111111110011
1111111111111011
0000000000001110
0000000000001101
0000000000011100
0000000000101000
0000000000010011
1111111111101111
1111111111111111
0000000110000000
0000000100111111
0000000001100100
1111111111111110
0000000010001110
0000000010110000
0000000101100000
0000000010100101
1111111111111110
0000000000000000
1111111111111011
0000000000001101
1111111111111000
1111111111110000
1111111111111100
1111111111111101
1111111111111111
1111111111111110
1111111111110011
1111111111110010
1111111111100110
1111111111010111
0000000000000111
0000000000000001
1111111111111011
0000000000110111
1111111110101010
0000000011110000
1111111111101010
1111111111011111
1111111111111011
1111111111010111
0000000000001000
0000000000001010
1111111111101001
0000000000101000
0000000000100001
0000000000110011
0000000000100100
1111111111111000
0000000000001000
0000000011110111
0000000100000101
0000000101010111
0000000000000100
0000000000000010
1111111111110111
1111111111111110
1111111111111110
1111111111111000
1111111111110110
0000000000000011
0000000000001010
0000000000001100
0000000000000000
0000000000010000
0000000000110110
1111111111011000
0000000000100110
0000000001100010
0000000000100011
1111111111011111
1111111111111001
0000000000110110
0000000000010000
1111111111110001
1111111111100101
0000000000111100
0000000000001101
0000000000001001
1111111111111001
0000000000001010
0000000000001101
0000000000000011
0000000000000010
0000000000001101
0000000000000100
0000000000000110
0000000000001000
1111111111110010
0000000000000101
0000000000000001
1111111111110110
1111111111111011
1111111111111101
0000000000000000
0000000000000101
1111111111111001
0000000000001100
1111111111111110
1111111111111100
0000000000000001
1111111111111011
1111111111111111
0000000000000011
0000000000000010
1111111111111111
1111111111111010
1111111111111101
1111111111111110
1111111111111011
1111111111111010
0000000000000001
0000000000000010
1111111111111110
0000000000000100
1111111111111101
0000000000001100
1111111111111100
1111111111111011
0000000000000010
0000000000000011
0000000000001001
0000000000000110
0000000000010001
1111111111111110
1111111111111011
1111111111111100
0000000000000000
1111111111111111
0000000000000010
1111111111111010
0000000000000101
1111111111111101
1111111111110100
1111111111111010
1111111111110001
0000000000001010
0000000000000001
1111111111111111
1111111111110110
1111111111111010
1111111111110111
1111111111111101
1111111111111111
0000000000000010
1111111111110100
1111111111110110
1111111111110000
1111111111111010
0000000000000000
1111111111110111
1111111111111111
1111111111111111
1111111111110100
1111111111111011
1111111111111111
0000000000000000
1111111111111011
1111111111110101
0000000000000001
1111111111111011
