0000000110100011
0000000111101111
1111111101110110
1111111110001111
1111111100101100
0000000000100010
1111111011100000
1111110110011010
0000000101000110
0000000000011101
1111111111101001
0000000111111010
0000000000100001
1111111010101111
0000010000010111
1111111001111110
1111111110110000
1111111110100011
1111110111110001
1111111110100011
1111111101111000
0000000011001010
0000000010110101
1111111111101001
0000000010001111
1111111111111010
1111111101000001
1111111110111110
0000010000011111
1111111001011101
0000001100101110
1111110001000101
0000010010001101
0000001000100110
1111111010011101
0000000101101010
1111111001010100
1111111101100010
1111111100111111
1111111000111000
1111111100000100
1111110111110111
1111110101101110
0000001010010000
0000000010001011
1111111011000100
1111111011111111
0000000000010000
1111111111001010
1111111110111000
1111111001111100
0000000011101101
1111111110011010
1111111100011010
1111111101001110
0000000000001111
0000000001100001
0000000011101100
1111111110101000
0000000000001111
1111110110110100
1111111111000011
0000000000010111
0000000011001010
0000000010001011
0000000010110001
0000000000101100
1111111100111000
0000001010111110
0000000010111110
1111111100101111
1111111110000101
1111111100010110
0000000100010011
0000001001010111
0000000101000100
0000000011010001
1111111111110101
0000001010101001
0000000001001000
0000000000000010
0000000110011010
0000000010001100
0000000001111000
1111111101001111
1111111111011101
1111111100111001
0000000010110110
1111110110011110
1111111110101110
0000000001100001
0000000101001010
0000000101001000
0000000101010001
0000000100001111
0000000001110101
0000000100101101
0000001010010110
0000000110010001
0000000001000101
0000000001110110
0000000001010111
0000000111100100
0000000000111010
1111111101000000
1111111110010010
1111111111101110
0000000010110011
0000001000100101
0000000101000010
0000000001101111
0000000111000000
0000001100010000
0000000000111001
0000001001000111
0000001011000100
0000000010101101
0000000011100100
0000001110000001
0000000110000100
0000000101101001
0000000001000010
1111111110010110
0000000101110010
1111111101110110
0000000010110000
1111111100111010
0000001000001010
1111111001101100
0000000111010000
0000000100100000
1111111100110100
0000000011010011
0000000010111011
1111110111011111
1111111111111001
0000000000001110
0000000111011101
1111111110110100
0000000011001111
1111111001111010
0000000010000010
0000000110010001
0000000100100001
1111111111110000
0000000001010000
1111111110101101
0000000011000000
1111111110101101
0000000011101000
0000000000101000
0000000000010100
1111110111000111
1111111110101010
0000000100000000
1111111110101100
1111111111000000
1111111110100001
1111110111010100
0000000110111111
0000000101010101
0000000010011010
1111111100111101
0000000001010111
1111111100000011
0000001001101010
1111111100110111
1111111111001011
0000000101000010
1111111101111100
1111111101101100
0000000010001110
1111111010111100
1111111110100001
1111111001010100
0000000000100110
0000000000100011
0000000000110111
0000001000111110
1111111001101100
1111110111000111
1111111100110110
0000000000010000
0000000010110100
0000000010101001
0000000000100001
1111111010110001
0000001001100010
0000000101010001
0000001000100010
1111111010011001
1111110111010011
1111111010000110
1111111010110100
1111110110110110
0000000011001001
1111101101010000
0000000001010110
0000001010010011
0000000001010001
1111111101110101
0000000001100010
1111111011101011
0000000010000000
0000000011101001
0000000100000001
1111111100111100
0000001001000100
0000001000100111
0000001100010111
0000001110111000
0000001110111010
0000000111001011
0000010000011110
0000001100110111
0000001001111011
0000000110111110
0000000000111011
0000000011011000
0000001001100001
0000001101011101
0000000110000100
0000000110111101
0000000101110011
0000000111010011
1111111101000011
1111111110001100
0000000001100101
0000000010000111
0000000101101110
1111111110110001
1111111110001000
1111111001110111
0000000000110110
1111111100010000
0000000001111001
0000000011011111
0000000011111010
1111111011000000
1111111111001111
1111111000110000
0000000100110011
0000000110010110
0000000110100111
0000000001011101
1111111111000001
1111111011011010
1111111011111110
1111111101110000
0000000001010101
1111111111111101
1111111111000010
0000000001110011
0000000000111010
0000000011100010
1111111100101100
0000000010100111
0000000000100100
1111111100010101
1111111110110011
0000000001000100
0000000101001010
1111111111111010
1111111111011100
1111111110001111
1111111111100000
0000000001111000
1111111111011010
0000001011011000
1111111110110110
1111111101100011
0000001001001010
0000000101010011
0000000011001010
1111111111010011
1111111011100100
1111111100111100
0000000101110101
0000000011101111
0000001001011111
1111111100001111
1111111011101000
1111111101100001
1111111111110110
1111111101000111
0000000010101111
0000001001010010
0000000010100101
0000000000001100
1111110101101001
1111111110000011
1111111100011011
0000001000001000
0000000010111011
1111111101011010
1111111100001111
1111111010100001
1111111110010001
0000000100110101
1111111101110100
1111111110011010
0000000010101111
0000000000101000
0000000101001001
0000000001000110
0000000010100111
1111111001011110
1111111101100100
1111111011110001
0000000010000011
0000000011010110
0000000111100011
0000000110111100
1111111010100000
0000001100110000
0000001001110010
0000001010101011
0000000011101000
0000000100000000
0000000000010011
1111111110111101
0000000010010100
0000000000000111
1111111101110000
0000000100011001
1111111110001111
0000000100010000
1111111110001001
1111111101101101
0000000110001001
0000000010001110
1111110110011100
1111111100110000
1111111111000000
0000000010101010
1111111111010111
0000000000000011
0000000010001110
0000000011011101
1111111110001010
1111111110111001
0000000110100000
0000000010111101
1111111111101001
1111111100011100
1111111011000110
0000000011110001
1111111100001000
1111111111111000
1111111110111111
0000000001001000
0000000110011111
1111111110100111
0000000001110001
0000000000101011
0000000010001000
1111111110110011
1111111000001111
1111111111001000
1111111100111000
1111111100001010
0000000001110000
1111111010000010
1111111101000000
1111111001001101
0000000011101111
0000000001010011
1111111000110010
0000000101101001
0000000011111011
1111111110100011
1111111101011101
1111111111001110
0000000101010110
1111111000001000
1111111100111110
1111111011011001
1111111100010111
1111111111001100
0000000000100000
0000000001010001
1111111011111010
0000000110010111
1111111101011110
0000000001001100
0000000011110111
0000000000101011
0000000010000011
0000000101000111
0000000100010100
1111111010000011
1111111100010011
0000000000111010
1111111000011101
1111111100011011
0000000010101011
1111110111001110
1111111011100111
1111111010111110
1111111010101100
0000000010110100
1111110110010011
1111111001100001
0000000011010111
1111111101001111
1111110111110101
0000000000111100
0000000001011000
1111111110001001
0000000011000100
0000000000001000
1111111110101001
1111111100110101
1111111101010110
1111111100001111
1111111100100111
1111111011111011
0000000000001100
0000000011010110
1111111011110010
1111111100010010
0000000011100001
1111111110001011
0000000100011110
1111111101100011
1111111110001001
1111111101011111
1111111001100000
1111111111111010
0000000111011100
0000000010100111
0000000011001000
0000000001011100
0000000100110101
0000001001000111
0000000011101100
1111111100000000
0000000111111011
0000000100010000
0000000101001001
0000000111001110
1111110111110011
1111110110100011
1111111111000110
0000000000011011
1111111110001110
0000000111101100
0000000000001001
0000000010101100
0000000010000000
0000000100110110
0000000000000100
0000001000010000
0000000011010010
0000000100101001
0000001001100111
0000000001100010
0000001000001011
0000000110000101
0000000101000111
0000000011100100
1111111111100111
0000000001100111
1111111101011101
0000000000010010
1111111110110101
0000000001011011
0000000000011101
1111111110011011
1111111110000011
1111111001111010
1111111011010100
1111111111000011
0000000010100001
0000000001101100
0000000011000001
1111111110001100
1111111110010011
0000000011001110
1111111000111001
1111111111011101
1111111110011000
0000000001010010
1111111100100111
1111111011111110
0000000001000000
0000000000100100
0000000101000001
1111111100011110
0000000001111001
0000000000001010
0000000010010010
0000000001011010
0000000001101000
0000000011111001
1111111110110100
0000000110100110
1111111111010110
1111111011000011
0000000101010110
0000000011001100
0000000011111111
0000000011011011
0000000001100011
1111111111100011
0000000001011110
1111111110011110
0000000110000011
1111111111110100
1111110101001110
0000000000010000
1111111011110001
1111111001001000
1111111111100100
0000000010011111
0000000000110000
1111111110011000
1111111100111100
0000000110000011
1111111010100010
0000000011010100
0000000011001000
0000000100000000
0000000110000011
0000001010100011
0000000000100011
0000000100101001
0000000100101001
0000000001110010
0000000000111101
0000000100110111
0000000001011001
0000000000000110
0000000001101101
0000000011001011
0000000001001011
1111111001000011
1111111100000111
0000000000100011
1111111110011011
0000000100001101
1111111111111111
1111111011111101
0000000000111101
1111111011111011
0000000001010000
0000000010100111
0000000001000111
1111111111001010
0000000001110001
0000000100010111
1111111100100101
0000000010010001
1111111001001110
0000000000010001
1111111110101110
1111111111001001
1111111011100010
1111111111001011
0000000011111001
0000000001011000
1111111110100011
1111111100100000
0000000010011011
0000000001111010
0000000000100010
0000000011001110
0000000110010111
0000000011011000
0000000100100010
0000000010110110
1111111111001100
0000000010111110
1111111110110011
0000000100000010
1111111111000110
1111111100011001
0000000100011001
1111111010100110
1111111110100011
1111111100101000
1111111110010010
0000000000010001
1111111110010000
0000000010011100
0000000010010100
0000000010011111
0000000000000000
0000000000110011
1111111000001010
1111111100011000
0000000001111010
1111111111101001
1111110101001010
0000000001011001
0000000001101111
1111111100011011
0000000010111010
1111111001100011
1111110111010111
0000000001010100
0000000001001100
1111111010001010
0000000010101011
1111111111110010
0000000101000011
0000000100001100
0000000010000010
1111111101001000
1111111101111110
1111111100110011
1111111110110111
0000000000000001
1111111111111001
1111111111110011
0000000000011000
1111111111111111
0000000000010001
0000000000010001
1111111111111000
0000000000010100
0000000000010001
1111111111101011
0000000000010111
1111111111110001
0000000000011001
0000000000001011
0000000000001010
1111111111111001
0000000000001000
0000000000000011
0000000000000111
0000000000000101
1111111111111111
0000000000010000
1111111111111110
1111111111110001
1111111111111111
0000000000001100
0000000000000011
0000000000000000
1111111111101111
0000000000000100
1111111111111011
1111111111111000
0000000000011001
0000000000000101
0000000000001010
1111111111111100
1111111111111001
0000000000000010
0000000000000000
1111111111110101
1111111111111000
0000000000000101
0000000000001111
0000000000001101
1111111111111111
0000000000000101
0000000000010101
0000000000000010
0000000000000001
0000000000000010
0000000000011110
0000000000010111
0000000000101011
0000000000000010
0000000000000110
0000000000000000
0000000000000001
1111111111111011
1111111111110001
1111111111111001
0000000000001101
0000000000000111
0000000000001000
0000000000000010
1111111111101111
1111111111111111
0000000000001110
0000000000000011
1111111111111001
0000000000000101
1111111111101110
0000000000000011
0000000000001011
0000000000001000
0000000000001111
0000000000001000
0000000000001110
0000000000001100
0000000000001101
1111111111111010
1111111111110010
0000000000000111
1111111111111111
1111111111111010
1111111111111000
0000000000011000
0000000000010001
1111111111110110
1111111111110010
0000000000011110
1111111111111000
0000000000000110
0000000000001100
0000000000010001
0000000000000100
0000000000001100
0000000000001001
0000000000000111
1111111111111110
0000000000010110
1111111111110110
1111111111100110
1111111111111010
1111111111101010
1111111111111010
1111111111110010
1111111111111000
1111111111111100
0000000000010000
0000000000001011
0000000000010101
0000000000001010
0000000000010010
0000000000000011
0000000000011100
0000000000000001
0000000000001111
0000000000000110
1111111111110111
0000000000000001
0000000000001001
0000000000001010
0000000000000011
0000000000001001
0000000000010110
0000000000010101
1111111111110001
0000000000001101
1111111111101010
0000000000000010
1111111111110100
0000000000000100
0000000000001111
0000000000000110
0000000000001110
0000000000000110
1111111111111000
1111111111110000
0000000000010010
1111111111111010
0000000000001001
0000000000000110
0000000000001000
0000000000011001
1111111111111111
0000000000010100
0000000000011001
0000000000000011
0000000000100111
0000000000101000
0000000000011001
0000000000011110
0000000000001011
1111111111111101
0000000000100011
1111111111011010
0000000000010011
0000000000000101
0000000000000111
0000000000000000
0000000000010011
1111111111111100
1111111111110011
0000000000000111
0000000000000110
1111111111111011
1111111111111100
0000000000000100
1111111111111011
0000000000000011
0000000000000111
0000000000010110
0000000000011001
0000000000001000
0000000000000010
1111111111101001
0000000000000110
1111111111111101
1111111111110010
1111111111110010
1111111111111100
1111111111110010
0000000000000111
1111111111100100
1111111111111011
0000000000000000
1111111111111100
1111111111101101
0000000000000101
0000000000000100
0000000000000111
1111111111111100
1111111111111010
0000000000010001
1111111111101110
0000000000000100
1111111111110101
0000000000001111
0000000000001000
0000000000000101
1111111111111001
1111111111101111
0000000000001110
0000000000001011
0000000000000011
0000000000101100
0000000000000011
1111111111111010
1111111111111110
0000000000011011
1111111111111011
1111111111111110
1111111111111001
0000000000000010
0000000000001001
1111111111101111
0000000000001000
0000000000001100
0000000000000110
0000000000001011
0000000000001110
0000000000000101
1111111111110110
0000000000001100
0000000000101110
0000000000101011
1111111111110011
0000000000011100
0000000000000111
1111111111110001
0000000000110111
0000000000001001
0000000000011001
0000000000010010
0000000000000010
1111111111111110
0000000000000010
0000000000001010
0000000000000100
1111111111111000
0000000000010011
1111111111110100
1111111111101011
1111111111110000
1111111111110001
1111111111111100
0000000000001101
1111111111110110
0000000000001100
1111111111110011
0000000000000000
0000000000010100
0000000000001011
1111111111111010
0000000000001011
1111111111111101
0000000000001110
0000000000001100
0000000000000100
1111111111110001
0000000000001101
0000000000010001
1111111111111101
1111111111110111
1111111111101010
1111111111100010
1111111111101100
1111111111110110
1111111111100111
0000000000000111
1111111111110110
0000000000000101
1111111111110101
0000000000000000
1111111111111010
1111111111111101
1111111111111011
0000000000010101
1111111111110000
1111111111110010
1111111111110001
1111111111111001
1111111111101011
1111111111111000
1111111111111100
1111111111111001
1111111111111000
0000000000100100
0000000000001001
0000000000100001
1111111111111011
0000000000000001
0000000100010010
0000000101010101
0000000100111011
0000000000100000
1111111110111110
0000000000001101
0000000000101000
1111111111111110
0000000000000110
0000000000000111
0000000000001010
0000000000000011
0000000000000000
1111111111111011
1111111111110001
0000000000000000
0000000000000010
0000000000000101
0000000000000101
0000000000000110
0000000000000010
0000000000000110
0000000000010100
0000000000001100
0000000000000101
0000000000000110
0000000000000100
0000000000000000
1111111111111010
1111111111111110
0000000000000010
0000000000001011
1111111111010011
0000000000011011
0000000000000000
1111111111010000
0000000000001111
0000000000000001
0000000000001100
0000000000101111
1111111111100011
1111111111101010
0000000000010010
1111111111111001
0000000000000110
0000000000001000
0000000000010010
0000000000000000
0000000000000010
1111111111111011
1111111111110001
1111111111111100
1111111111111111
0000000000000001
0000000000001101
0000000001111000
0000000101001110
0000000101011011
0000000001110111
1111111111100111
1111111111011001
0000000010000101
0000000000101000
1111111111101100
0000000000111100
0000000010000001
0000000000010101
1111111111111100
0000000000000000
0000000000000001
0000000000010101
1111111111110101
1111111111111000
1111111111110000
1111111111101111
1111111111101111
1111111111111100
1111111111110110
1111111111111001
0000000000000101
1111111111111111
1111111111111000
0000000000001001
0000000000001001
0000000000001101
0000000000001100
1111111111111110
1111111111111100
0000000000001100
1111111111111011
1111111111111111
1111111111111101
1111111111111100
0000000000000101
0000000000001110
1111111111111110
1111111111111011
0000000000000100
0000000000001001
1111111111111111
1111111111111111
0000000000001111
1111111111111111
1111111101011100
0000000000000011
1111111111101111
1111111111111100
0000000000011010
0000000011101101
0000000101010001
0000000001101101
0000000001011011
0000000000110000
0000000001011111
0000000011000000
0000000000000111
1111111111111110
1111111111111101
1111111111111110
0000000000000000
1111111111111111
1111111111111101
0000000000000001
1111111111111111
1111111111110010
1111111111110111
0000000000000001
0000000100110000
0000000100000110
0000000011110100
0000000001100100
1111111111011100
0000000001011111
1111111111001001
0000000001011100
1111111111011101
0000000000000110
1111111111100000
0000000011010000
1111111111111011
1111111111110010
1111111111110111
1111111111111000
1111111111110010
1111111111110111
1111111111111110
1111111111111101
1111111111111010
0000000000000010
0000000000001101
1111111111111101
1111111111110110
1111111111110011
1111111111111010
1111111111110111
1111111111111000
0000000000000110
1111111111110111
1111111111100111
1111111111111001
0000000000001001
0000000000000010
1111111111111011
1111111111111011
1111111111111111
0000000000000100
0000000000000011
1111111111110110
1111111111111111
0000000000000111
0000000000000011
0000000000000000
0000000000000001
0000000000000000
1111111111111011
0000000000001000
0000000000000000
0000000000000110
0000000000001100
1111111111111001
0000000000001000
0000000000001111
0000000000000110
1111111111111110
1111111111111110
0000000000000100
1111111111110111
