1111111111100101
0000000000001101
1111111100111010
0000000100000010
0000000011010101
1111111101101011
0000001000000001
0000000001000010
0000000011010000
0000001110001111
0000000100101011
1111111000100100
0000000100101110
0000000010100010
0000000010100111
0000001001011110
1111111111101110
0000000000011100
1111111011001101
0000000000011000
0000000000000000
1111111101101001
1111111111100000
0000000000101101
1111111101010111
1111111110010100
1111111110101011
0000000111101101
1111110101001100
1111110110111100
1111101001011000
0000010010001100
1111100101001011
1111111010111001
0000011110100111
0000001000110101
1111111100001011
1111111010111000
1111111111100001
1111111110010010
1111111010111111
0000000111100011
1111111101100101
1111111100000111
1111111000001101
1111111111111100
1111111100100101
1111111011110110
1111111110011100
0000000000101110
1111111101010000
1111111111111010
1111111100010111
0000000100011101
0000001011010000
1111111110110000
0000000011011001
0000000001100111
1111111111001011
0000000100000111
1111111000101111
0000000001111000
0000000100100101
0000000101001011
1111111011011110
0000001100011000
0000000100100000
0000000010011101
1111111011010111
1111111110101011
1111111010110111
0000000010001110
0000001000110001
0000000000010010
1111111111001000
0000000100001010
0000000111010010
1111110110101101
1111111111110111
0000000110100100
0000000011100101
1111111101100100
1111111101011011
0000000100111001
0000000111011111
0000000000011100
1111111000001111
0000000110110111
1111111100100000
0000000010001111
0000000001110000
0000000100100000
0000000001100000
0000000001101001
0000001001010111
0000000100000010
0000000011111101
0000000011100101
1111111110010101
1111111101101100
1111111100000111
1111111110011010
1111111100001010
1111111101111100
0000001001001011
1111111011100001
1111111110000101
1111110111111001
1111111110111101
0000000011100111
0000000011110111
0000000100101001
0000000001000111
1111111010011110
0000000001010101
0000000000101111
0000000100011011
1111111101000001
0000000110100010
0000000010111100
0000000101001010
0000000101000000
1111111011001100
0000000000000000
0000001001110001
1111110001101011
0000000000010110
0000000010011100
1111110110011110
0000001000110000
0000000010011010
1111110011101101
1111111101100011
1111111111110101
0000000010011111
0000000110011110
0000001010000001
1111111111111100
0000000101100011
0000001010011101
1111111000110001
0000001000010101
0000000011011011
1111111100101011
0000000011101111
1111111000001001
1111111011100010
1111111100101001
1111111011110111
0000000100111110
1111111111111011
0000000010110001
0000000100010110
0000001001001000
1111110110110111
0000000000110111
0000000000011111
1111111110110111
0000000100101110
0000001001001110
1111111111001100
1111111010011011
1111111001100110
0000000101110100
1111111000100000
0000000000000100
0000000001000100
1111111110000011
1111111111011010
0000000101011010
1111111011001110
0000000000111110
0000000110110110
1111111001000111
0000000000110011
1111111010100110
0000000011111100
1111111010011100
0000000101001001
0000000011110101
1111111110010100
0000000100011111
0000000000100101
1111111101010100
1111111111101100
1111111111001101
0000000000001010
1111111101000001
1111111011101011
1111111100010011
1111111101100001
1111111100100001
0000000011100101
1111111100111001
0000000000100100
0000000010110111
1111111001010001
1111111010010011
1111111011011001
0000000110111000
0000000011000011
0000001000000001
1111111110001011
0000000100111001
1111111001100010
0000000010111101
0000000000011001
1111111100011110
0000000011101001
0000000011001000
0000000001011001
0000000011111101
0000000100001010
0000000001001011
0000000011011000
0000000010000000
0000000000111101
0000000011011011
0000000001011110
0000000111010100
1111111111010101
0000000011101001
0000000100100101
0000000110110110
0000001000000010
0000001001001100
1111111011011101
1111110110110011
0000000001011101
0000000100011000
0000001000111010
1111110101110001
0000000010010100
1111111110000111
1111111111001101
1111111011001100
0000000001111001
0000000100100000
1111111100001101
0000000101000010
1111111010001100
1111111111101100
1111111011001111
1111110110001001
0000000110000111
0000000100011111
0000000110000011
1111111111110010
0000000110011100
0000000011101101
1111111011110100
1111111110011001
1111111011001000
1111111111010001
0000000011101000
0000000010101010
1111111101110011
1111111111000101
1111111110001000
1111111111010101
1111111101001111
1111111011001100
1111111110000010
1111111011001100
1111111111111100
1111110111101001
0000000001000101
0000000011010011
1111111100010111
0000000000000001
0000000011000110
1111111101001001
0000000000000010
0000000100100000
1111111111001110
0000001001001111
1111111110000001
0000000011000010
1111111100101101
1111110001011011
1111110010000001
0000001101101011
1111111111010110
1111111100011011
0000000010100101
0000000011111111
1111111101110000
0000000010011110
0000000100110000
1111110110010001
0000000001111101
1111111111000100
1111111111101010
0000000010101101
1111111101111011
0000000001111000
0000000010101111
1111111100010001
0000000111100101
1111111001111111
1111111111010110
0000001000100011
0000000111111011
1111111110110011
0000000010100110
1111111010111111
0000000010010110
0000000000111011
0000000101100110
1111110111000011
1111111111100011
1111111111100100
1111111111110110
0000000111000000
1111111110100111
1111111111001001
0000000011110110
1111111111011000
1111111101110110
0000000010111101
0000000110010010
0000000011101111
1111111101111111
0000000001011110
0000000001011000
0000000011111010
0000000010000111
0000000100100111
1111111011110101
0000000001110011
0000000001110011
0000000010101011
0000000100000100
0000000000000110
0000000010000000
0000000010011011
1111111111000100
0000000000110010
0000000011110000
0000001001100010
0000000111111100
0000000011110010
1111111011101001
1111111000001001
0000000101001011
1111111101010111
1111111011011100
0000000011100100
0000000110001110
0000000010110000
0000000100100111
1111111101010001
1111111101011010
0000000100000001
1111111110001011
0000000001100000
0000000101110100
0000000011111011
0000000100010011
0000000110101010
0000000011011011
0000000000111001
0000000101001100
1111111110100001
1111111100011010
0000000000111010
0000000010111010
0000000101010000
0000000000010110
0000000000010100
1111111100111101
1111111111111101
1111111110000110
1111111110110010
0000000011001111
0000000110010011
0000001000110110
0000000101000101
0000000001101001
1111111110011011
0000000101101110
1111111110011001
1111111100101010
0000000010111000
0000001001110001
0000000100001011
0000000110010001
0000000000011000
1111111111011011
0000001000001111
0000000011110011
1111111101110100
0000000100011110
0000000000100111
0000000110101110
0000001001110110
1111111100101101
1111111011000111
0000000010101110
1111111000111110
0000000010110100
0000000011101001
0000000011000100
0000000100000110
0000000010101110
1111111100100100
0000000011011111
0000000011111110
1111111010101111
1111111010100110
1111111010111100
1111111010110001
1111110111100000
0000000000100111
1111111100110001
1111111011101101
0000000100011111
1111111011110011
1111111110100100
0000000010101101
0000000101001110
0000000001110010
0000000011100000
0000000101010000
0000000011001011
0000000101001100
0000000101111100
0000000011000001
0000000110000001
0000010010100011
0000001101111100
0000001100110010
0000001001111100
0000000011100001
0000001010100000
0000000100100101
0000000111101011
0000001000001101
0000010001110110
0000010001001000
0000000111010000
1111111111110101
1111111111001111
0000000110001111
1111111111100010
0000000010110111
0000000111101010
0000001100111001
0000001101111011
0000001011111001
0000000101010010
0000000001111011
0000001011000110
0000000111111010
0000001001011000
0000001011101110
0000010011001110
0000010001011001
0000010000000100
0000000010111010
1111111100010110
0000000011010001
0000000000100100
0000000000100101
0000000011110111
0000001010111000
0000001000011111
0000001001100101
0000000000001110
1111111101110000
0000000010110011
1111111111010111
0000000100101010
0000000101000001
0000000111010000
0000000001101000
0000000110110010
1111111111111101
1111111110011010
0000000010111111
0000000011000001
1111111101010010
0000000010100110
0000000010111010
0000000010101000
0000000101010101
0000000001001011
0000000001001010
0000000011010000
0000000010100101
0000000100101101
0000000111011101
0000001010001100
0000001010010000
0000001001111010
0000000010000111
0000000000000101
0000000110000001
0000000010111111
0000000000011101
0000000111001110
0000010001011000
0000010001100101
0000001011011011
0000000011000100
1111111110100100
0000000000000000
0000000110001100
1111111011000000
1111111011011101
0000000011101001
0000000110111100
0000000011000011
0000000101111110
0000000000101100
0000000101101111
0000000100001011
0000000011000000
0000000111010100
0000001100101111
0000000110101110
0000000110001110
0000001110011011
0000000101110100
0000001100011001
0000000100100111
0000000110100111
0000001100010010
0000010000111110
0000010000001011
0000001110000000
0000000001101011
0000000011110000
0000000100110010
1111111100010110
0000000100101110
0000000101001000
0000000101101100
0000000011010111
0000000110111001
1111111011000101
0000000000001001
0000000010110111
1111111111101100
1111111110110100
0000000001100010
0000000100011001
0000000111001010
0000000011100010
0000000011111110
1111111110001110
0000000010100000
0000000010011001
1111111111111111
1111111110011100
0000001011101010
0000001010110010
0000000100010101
0000000010111011
0000000100001001
0000000111100100
0000000000111010
0000000000111100
0000000101111110
0000001001011110
0000001110000001
0000000110001101
0000000100111110
0000000000101110
0000000100101011
0000000000110011
0000000011010111
0000000011011100
0000001000111100
0000000011111110
0000000011101011
1111111101011011
0000000001001111
0000000011101000
0000000010110101
0000000000100110
0000000110011111
0000000111111100
0000001000010000
0000000001010000
0000000000110010
1111111100110101
0000000001000100
0000000000100010
1111111010000100
0000000000000101
0000000011001100
0000000010001101
1111111100111000
1111111010000010
1111111111011110
0000000010110011
1111111100100100
1111111010100111
1111111100100100
0000000010100110
0000000011110000
0000000001000000
0000001000001010
0000000000001101
0000000010000010
0000000011110100
1111111101010001
0000000100011011
0000001010101100
0000000111111010
0000000011100111
1111111110110110
0000000000001000
1111111111100101
1111111110111101
0000000000001001
0000000000001011
0000000000010101
1111111011110111
1111111000111011
1111111111100010
1111111111010110
0000000000001101
1111111111001000
0000000000010010
1111111111001110
0000000010010011
0000000000000010
0000000000010011
0000000000111101
1111111110111101
0000000000001100
1111111111110000
0000000000001111
0000000000010011
0000000010101110
0000000000111101
1111111101010100
0000000000010001
1111111111100001
1111111010010111
1111111111101000
1111111111101111
0000000001000101
0000000010010001
1111111000010000
1111111111110010
1111111111101111
1111111111000001
0000000000100100
0000000011101001
1111111101101100
1111111010011110
0000001101100000
0000000111100101
0000000000011010
0000000000000101
1111111111011101
1111111110001000
1111111111011011
1111111111110011
0000000000101010
0000000011001111
0000000001111110
0000000000100110
0000000000110001
1111111011111011
0000000001111000
0000000000110100
1111111111010010
1111111110100101
0000000011000010
1111111101110111
1111111000111110
1111111011110100
0000000001111011
0000000010000010
1111111101101110
1111111111000010
0000000000001100
0000000001010010
0000000000000101
1111111111110010
1111111110001000
1111111111100101
1111111111110110
0000000000000111
1111111111111011
1111111111001001
0000000001011100
1111111110000010
1111111010000101
1111111100101111
1111111001101010
0000000010010001
1111111110100101
0000000000001101
0000000001000011
0000000010010110
0000000000000000
0000000000100001
1111111111110100
1111111101110110
1111111001001110
1111111110001000
0000000000111100
1111111111011001
1111111111110011
0000000000001111
0000000000001111
1111111111011101
0000000000111011
1111111110111110
1111110001101101
1111101101010000
1111111010000101
1111111010111010
1111110111010110
1111111101110010
1111111110110110
1111111111000101
0000000001001100
1111111111011110
0000000000001010
1111111111100101
0000000110011101
0000000000111101
0000000000000001
1111111011110110
1111111011101001
0000000010101110
0000000001110010
1111111110101011
1111111101111111
0000000101001111
1111111101011111
1111111111111010
1111111110100000
0000000000010001
1111111101011111
1111111100100101
0000000000011110
1111111111111001
0000000100001101
1111111111111101
1111111011010000
1111111110000100
0000000000001000
0000000001011111
1111111111111000
1111111111101110
0000000000000100
0000000101000111
1111111111110001
1111111001110100
0000000001101000
0000000101000110
0000000101001111
0000000100110011
0000000010010000
0000000011101110
0000011011101010
0000001001111001
0000001100110010
1111111110110101
0000000001011010
0000000000110011
1111111111011001
1111111111100010
1111111110111001
0000000110100100
1111111110110100
1111111111101100
1111111011001110
1111111010110000
1111111110001110
0000000000001101
1111111111101100
1111111101010100
0000001011110011
0000000000111100
0000000000011010
1111111111111111
1111111110100011
0000000010001101
1111111110110100
1111111001001110
0000000000110110
0000000110000101
1111111111001101
1111111110011001
1111111110011101
1111111111111101
1111111111100100
0000000001000001
1111111111010010
1111111111110100
0000000000000111
0000000001100011
1111111111100010
1111111110101010
0000000000000100
0000000000100101
1111111011110011
1111111110011111
1111111100010010
0000000011011000
1111111110100011
1111111110100111
0000000001011001
1111111100110101
1111111111110100
1111111110101101
0000000000011111
1111111111100000
0000000010100010
1111111101010010
1111111101111100
1111111010100101
1111110111110111
1111111111000100
1111111111100101
0000000000100101
1111111101110100
0000000001100011
0000000000010001
1111111110100111
1111111111000111
1111111111111010
0000000001011110
0000000000101101
1111111110110101
0000000000100110
0000000001011110
1111111111111110
1111111101111010
0000001000010111
0000000110100111
0000000011011110
0000000011111111
0000000000100001
0000000001110110
0000010110010101
0000001000000000
0000001001111001
1111111110111001
1111111111110011
0000000000100011
1111111110110010
1111111111111110
0000000000011000
1111111111011110
1111111100011010
0000000000011011
1111111011101010
1111111111110001
0000000000001001
0000000000001001
1111111111111010
0000000000011001
0000000000011110
0000000000001001
1111111111000110
1111110100001010
1111111101100111
1111111110001101
1111111110111111
0000000000001011
1111111111010010
0000000010101000
1111111110011110
1111111110110010
0000000000000000
1111111110111111
0000000000110001
0000000000000011
0000000000001111
1111110010010001
1111111100110110
1111111100010010
1111111101011011
1111111101110111
0000000000010000
0000000000010001
1111111111001010
0000000000110011
1111111110101010
0000000001010000
0000000000001100
1111111111110100
0000000000100100
0000000000100011
1111111111110111
0000000000010100
1111111110100000
0000000000001110
0000000000011001
0000000000011100
0000000000100001
0000000000000000
0000000000000000
0000000000000000
0000000000000000
0000000000000000
0000000000000000
0000000000000000
0000000000000000
0000000000000000
0000000000000000
0000000000000000
0000000000000000
0000000000000000
0000000000000000
0000000000000000
0000000000000000
0000000000000000
0000000000000000
0000000000000000
0000000000000000
0000000000000000
0000000000000000
0000000000000000
0000000000000000
0000000000000000
0000000000000000
0000000000000000
0000000000000000
0000000000000000
0000000000000000
0000000000000000
0000000000000000
0000000000000000
0000000000000000
0000000000000000
0000000000000000
0000000000000000
0000000000000000
0000000000000000
0000000000000000
0000000000000000
0000000000000000
0000000000000000
0000000000000000
0000000000000000
0000000000000000
0000000000000000
0000000000000000
0000000000000000
0000000000000000
0000000000000000
0000000000000000
0000000000000000
0000000000000000
0000000000000000
0000000000000000
0000000000000000
0000000000000000
0000000000000000
0000000000000000
0000000000000000
0000000000000000
0000000000000000
0000000000000000
0000000000000000
0000000000000000
0000000000000000
0000000000000000
0000000000000000
0000000000000000
0000000000000000
0000000000000000
0000000000000000
0000000000000000
0000000000000000
0000000000000000
0000000000000000
0000000000000000
0000000000000000
0000000000000000
0000000000000000
0000000000000000
0000000000000000
0000000000000000
0000000000000000
0000000000000000
0000000000000000
0000000000000000
0000000000000000
0000000000000000
0000000000000000
0000000000000000
0000000000000000
0000000000000000
0000000000000000
0000000000000000
0000000000000000
0000000000000000
0000000000000000
0000000000000000
0000000000000000
0000000000000000
0000000000000000
0000000000000000
0000000000000000
0000000000000000
0000000000000000
0000000000000000
0000000000000000
0000000000000000
0000000000000000
0000000000000000
0000000000000000
0000000000000000
0000000000000000
0000000000000000
0000000000000000
0000000000000000
0000000000000000
0000000000000000
0000000000000000
0000000000000000
0000000000000000
0000000000000000
0000000000000000
0000000000000000
0000000000000000
0000000000000000
0000000000000000
0000000000000000
0000000000000000
0000000000000000
0000000000000000
0000000000000000
0000000000000000
0000000000000000
0000000000000000
0000000000000000
0000000000000000
0000000000000000
0000000000000000
0000000000000000
0000000000000000
0000000000000000
0000000000000000
0000000000000000
0000000000000000
0000000000000000
0000000000000000
0000000000000000
0000000000000000
0000000000000000
0000000000000000
0000000000000000
0000000000000000
0000000000000000
0000000000000000
0000000000000000
0000000000000000
0000000000000000
0000000000000000
0000000000000000
0000000000000000
0000000000000000
0000000000000000
0000000000000000
0000000000000000
0000000000000000
0000000000000000
0000000000000000
0000000000000000
0000000000000000
0000000000000000
0000000000000000
0000000000000000
0000000000000000
0000000000000000
0000000000000000
0000000000000000
0000000000000000
0000000000000000
0000000000000000
0000000000000000
0000000000000000
0000000000000000
0000000000000000
0000000000000000
0000000000000000
0000000000000000
0000000000000000
0000000000000000
0000000000000000
