1111111100011010
0000000100111100
0000000110001110
0000000100000110
1111111111011011
1111111111000010
0000000001000110
1111111110110100
0000000110000100
1111111111011001
1111110100000111
1111000100111011
0000000010010111
0000001010011111
1111111110011101
0000000000001000
0000000000101011
1111011001001000
1111111100110000
0000000010001100
1111111110100110
1111111111000010
1111111010010101
0000000000001001
1111111100001111
1111111111111101
0000000100010101
1111110110110101
1111100011111000
1111001001101101
0000000100000100
1111101001110100
1111011010111000
1111110110011101
1111010111010100
1111100001011001
0000000110101110
1111111011101000
0000000001001101
1111110101110001
1111111111001111
0000000011101110
0000000110000011
1111111101111011
1111111100000000
1111111101110101
1111110110010111
0000000001011100
0000000000000100
0000000011111111
0000000100100010
0000000001000011
1111111011010010
1111111001111010
0000000101010000
1111111010101100
1111111011001000
0000000100010001
0000000000000101
1111111011000011
1111111110101011
1111111110101110
1111111100011110
1111111001111001
0000000000010110
0000001001001010
1111111010111100
1111111010111001
1111110001000011
1111111010100110
1111111101101011
1111111111001110
1111110010101000
1111111111010101
1111111101010101
0000001010100010
0000000101011100
0000000111011110
0000000001110100
0000000000101111
0000000010001001
1111110110001010
0000000001011101
1111111011011001
0000000011111011
0000000001010000
1111111101001000
1111111100110001
0000000011001010
0000000111010000
0000000000110010
0000000100111100
0000001010001110
1111111110110101
0000000110101110
0000000001111110
0000001010000111
0000000011100111
0000000001001110
0000000000011001
1111111101001111
0000000011101101
0000000001001000
1111111010010011
0000001000010001
1111111101111110
0000000010010101
0000000100010101
1111111101110110
1111111110111011
1111111011100101
0000000010010001
0000000001111001
0000001000110000
0000000100100011
0000000011011110
0000000110110110
1111111011110100
1111111010011110
0000000001110101
1111111101111101
1111111101010000
0000000000110000
0000000001010001
0000000100110101
0000000110111100
1111111110001000
0000000001110011
0000000000000011
1111111011110000
0000000111111100
1111111100110111
1111111011001011
0000000000000101
0000000011101000
1111111111101001
1111111110000100
1111111011100110
0000000100110011
0000000111000100
1111111100010111
0000000111011010
0000000110100101
0000000110001101
1111111110111000
1111111110101100
1111111101100101
0000000011000111
1111111010010101
0000000001101110
1111111101100000
1111111011011101
0000000001100000
1111111001001001
0000000001110101
0000000110010110
1111111001010110
0000000101100010
1111111101000011
1111111111101010
0000000011101011
0000000100111010
1111111010000111
1111111100110100
0000000110000011
1111111110100100
0000000101001001
0000000010111111
0000000100001010
1111111110101110
0000000000011010
1111111010110011
0000000001011000
1111111110001010
0000000001100101
0000000000000100
0000000010011100
0000000010010100
1111111001011011
0000000001000001
1111111110000101
1111111110011001
0000001001111111
1111111000001101
0000000010001101
1111111101011010
0000000110111110
1111111001010011
1111111100100111
1111110010000100
1111110011100001
0000000010101001
0000000001100110
1111111111100001
1111111011011000
0000000101010110
0000000100101000
0000001101101000
1111111110010000
0000000001000101
0000000100111010
1111111000011100
1111111001011011
1111111010011111
0000000111011100
0000000001101110
0000000100110010
1111111101101110
0000001000101010
0000000110010010
0000000110000111
0000000010111010
0000001011001010
0000000110011001
0000000011011100
0000000110110110
0000000001010000
0000000100111101
0000000110011011
0000000011100100
0000001010000000
0000000100011101
1111111101011001
0000000011000110
0000000011100101
0000001010100011
1111111100010011
1111111100001111
0000000001001110
0000000101111111
0000000010110010
1111110111001110
0000000000011100
1111111111100100
0000000101111011
0000000001100111
0000000000100000
1111110001110111
0000000001111111
1111111100101010
1111111110111100
0000000100100110
1111111111111101
1111111100101110
0000000001001000
1111111101011011
1111111110111100
1111111010001010
1111111100010000
0000000101011010
0000000111111001
0000000011100010
0000000000011100
0000000111100110
0000000010111000
1111111100101000
0000000000000110
0000000000001000
1111111001110010
1111111111110101
1111111100111111
0000000001111100
1111111011110110
0000001101110000
1111111111000011
1111111101001001
1111111011111111
0000000100000000
0000000000110110
1111111011101111
1111110110101010
0000000100101101
0000000001100111
1111111010101100
0000000001001110
1111111111101111
0000000001111000
0000000110110001
0000000010100011
1111110110001111
0000000110101010
1111111011110100
0000000111100110
1111111101101111
0000000100110001
1111111101101011
1111111101111101
1111111101101001
0000000000000111
1111111011011010
1111111001000111
0000000001101111
1111111111101011
1111111000000000
1111111011000101
1111111001010110
1111111111111011
0000000111000100
1111110111111010
1111111101010011
1111111110100001
1111111110100000
0000000001100110
0000000000000011
0000000110011110
1111111101111000
0000000011101100
1111111111000011
0000000001100101
1111111000011011
1111111100100010
1111111110011100
1111111110000000
0000001010100110
0000000110110001
1111111101000100
0000000001111110
1111111010111011
1111111011001100
0000000100110010
1111111110111100
1111111111000000
0000000001011110
0000000110011000
1111111110000100
0000000100001111
1111111011000101
1111111110110110
1111111111110011
0000000011000011
1111111101100111
1111111101100101
0000000100111110
0000000110110101
0000000000110000
0000000000000011
1111111011101001
0000000011011010
0000000001100001
0000000000000010
0000000011111111
0000000011001111
0000000000011011
0000000001000101
1111111110101100
1111111110110110
0000000001000010
1111111100011001
0000000001001010
1111111100101010
0000000001010110
1111111001010000
1111111000100011
0000000000000001
1111111010100110
0000000010111000
0000000010101101
1111111001101101
0000000101001001
1111111111010010
0000000010101010
0000000010111001
0000000001110110
0000000000100100
1111111011011010
1111111110001001
1111111111100011
0000000000100100
0000000010101110
0000000000110110
1111111101001001
1111111110001000
1111111101001110
0000000100000100
1111111100001101
1111111101100000
0000000101010001
0000000100001011
1111111101011101
1111111111011001
0000000010000100
0000000000111000
0000000101101000
0000000011010111
1111111100101000
0000000000010001
0000000001000011
1111111110101011
0000000100011010
0000000011101110
0000000101111001
0000000011101000
1111111111001100
1111111111100000
1111111110001100
0000000010100011
0000000100111001
0000000001001110
1111110111011100
1111111011100001
0000000001011011
1111111101111100
0000000010011001
0000000000000011
0000000001010101
0000000010111001
0000000001000101
0000000011001000
0000000101100101
1111111101001100
0000000001001111
0000000101111110
1111111111011111
1111111111100010
1111111100001110
0000000010011010
1111111001111000
0000000000011010
1111111011100010
0000000011101010
1111111111001111
1111111101001111
0000000101100101
1111111110010011
1111111111001100
1111111001100111
0000000110100111
1111111110101110
1111111100001000
1111111111111100
0000000001101010
0000000110110100
0000000001010100
1111111110000100
0000000001100100
0000000010011000
1111111110000101
1111111111100100
0000000001010001
0000000100001010
0000000000000101
0000000001010000
1111111000110001
0000000001101000
0000000010010011
0000000010101110
1111111111100101
0000000000101011
0000000000110110
0000000000101111
0000000100101100
0000000110000111
0000000110000010
0000000100010100
0000000010010000
0000000101001011
0000000011101000
0000000010110011
0000000010011101
1111111011001010
0000000000110100
1111111010111101
0000000101001111
1111111111101011
1111111011011110
0000000000011000
1111111101110111
0000000011010110
0000000000001100
1111111001111111
0000000001111010
0000000110010110
0000000110001000
0000000010101111
0000000010110110
1111111110110100
1111111110010000
0000000000000011
0000000011110110
1111111100000000
0000000011001110
0000000001111010
0000000001101010
1111111010110100
1111111101001001
0000000010010001
1111111011000000
0000000101001111
1111111100001110
1111111100100110
0000000011101110
1111111111101111
0000000000000011
1111111101011011
0000000100011111
0000000011010101
0000000011010000
1111111110110100
1111111100110011
1111111100110010
1111111101001101
1111111111001001
0000000000011101
1111111001111010
1111110110110010
1111111111101100
1111111011001001
1111111101000110
0000000000110000
0000000001000111
0000000011110000
1111111001100001
1111111110000100
0000000110110011
1111111011000110
0000000101111010
0000000011111101
1111111110000101
0000000011110011
0000000100001100
0000000001111111
0000000010110111
0000000101011111
0000000100010111
0000000100010001
0000001000011010
0000000100100101
1111111111010100
0000000111110100
0000000011111001
0000000000010011
1111111110101110
0000000001111000
1111111100100011
1111111101101100
0000000001001011
1111111111000011
0000000000010011
1111111101100111
0000000000001100
0000000100000010
0000000100101110
1111111001000010
1111111100011001
0000000001110000
1111111110001110
0000000001011101
1111111100000010
1111111011000011
1111111110110010
0000000011000110
0000000001111110
1111111110111111
0000000000100111
0000000000010001
0000000001101110
1111111100001011
0000000010110010
0000000010101110
0000000000101100
0000000001110110
0000000001111101
0000000000001101
1111111111111011
0000000100110110
0000000001101101
1111111011001010
0000000001010011
0000000010001100
0000000011001010
0000000000010000
0000000100011100
0000000001011111
0000000000100110
1111111111101101
0000000011110101
0000000000010000
1111110101010111
0000000010001000
0000000000111110
0000000000100100
0000000011010000
1111111111010000
1111111110000011
1111111111010010
0000000001001010
0000000101111000
1111111100110000
1111111111001010
0000000000010010
1111111001001110
1111111110110010
1111111000111110
0000000011101100
0000000010101111
0000000010011101
0000000000000110
0000000011101100
1111111111101111
0000000101010010
1111111110110100
0000000010011111
1111111111010100
0000000000001000
1111111001101110
1111111111011100
0000000010010010
1111111101111100
1111111111000010
0000000010010100
0000000000010100
1111111111010001
1111111111110100
1111111111110110
0000000000000100
0000000000000011
1111111111110101
1111111111110100
1111111111110101
1111111111111111
0000000000001000
0000000000000101
0000000000000100
0000000000001101
1111111111101100
1111111111110101
1111111111111101
0000000000000101
0000000000000001
1111111111111000
0000000000001101
0000000000010010
1111111111111101
0000000000000011
0000000000000001
1111111111110111
0000000000000100
1111111111111101
0000000000001000
1111111111110001
0000000000000100
1111111111111011
1111111111111000
1111111111111111
1111111111111000
0000000000001110
1111111111110111
0000000000001100
1111111111110010
1111111111111101
0000000000001000
0000000000001011
0000000000000011
0000000000001010
0000000000000001
0000000000000110
1111111111111000
0000000000001001
1111111111110011
1111111111101101
0000000000001011
0000000000001000
0000000000000111
1111111111111110
1111111111110110
1111111111110011
1111111111111011
0000000000000000
1111111111111010
1111111111101000
1111111111101101
1111111111110110
1111111111110010
0000000000000110
1111111111111000
1111111111111011
0000000000000110
1111111111101101
0000000000010010
1111111111111011
1111111111011010
1111111111101100
1111111111110100
1111111111111110
1111111111111000
1111111111101111
1111111111111100
1111111111111000
1111111111110110
0000000000000100
0000000000001111
0000000000010101
1111111111111001
1111111111011000
1111111111110000
0000000000000101
1111111111110110
1111111111101101
0000000000000110
1111111111111011
1111111111110111
0000000000001111
1111111111101110
1111111111110000
1111111111100110
1111111111101011
1111111111101010
1111111111101111
1111111111111001
0000000000001100
0000000000000001
0000000000010001
0000000000100001
1111111111110101
1111111111101101
1111111111110110
1111111111101011
1111111111111010
1111111111110110
1111111111111100
1111111111110010
1111111111110100
1111111111111101
1111111111111101
1111111111111011
0000000000000110
0000000000000001
0000000000000111
1111111111111111
0000000000000100
0000000000000100
1111111111111011
1111111111111101
1111111111111011
0000000000001100
1111111111111100
0000000000000100
1111111111111011
0000000000001110
0000000000000001
0000000000011001
1111111111111110
0000000000000110
0000000000000010
1111111111110101
1111111111110010
1111111111110100
0000000000010100
0000000000010000
1111111111111011
1111111111110100
0000000000001000
1111111111110100
1111111111110110
1111111111110001
1111111111101100
0000000000000101
1111111111111100
0000000001000011
0000000000011110
1111111111111000
0000000000011111
0000000000011011
0000000000001111
0000000000000000
0000000000001001
1111111111110111
1111111111111001
0000000000000110
0000000000000101
0000000000000000
1111111111110110
1111111111111111
0000000000011001
0000000000000100
0000000000000010
0000000000000011
1111111111111110
1111111111111001
0000000000001001
0000000000001101
1111111111111101
0000000000000100
0000000000011000
0000000000001011
0000000000001001
1111111111110000
0000000000000001
1111111111101001
1111111111101101
1111111111111000
1111111111101110
1111111111110001
1111111111111010
1111111111110011
1111111111111000
1111111111101110
1111111111101010
0000000000011110
0000000000001010
1111111111111000
0000000000000011
0000000000010000
0000000000001000
1111111111101101
1111111111110010
1111111111011001
0000000000000011
0000000000001001
1111111111111010
1111111111111100
1111111111110001
1111111111110100
1111111111111010
1111111111111010
0000000000011001
1111111111111010
1111111111101111
0000000000001110
0000000000000010
1111111111110101
1111111111101010
1111111111111100
1111111111101101
1111111111111111
1111111111111100
0000000000000011
1111111111111010
0000000000000111
0000000000010001
0000000000010010
0000000000001100
1111111111101001
1111111111110110
1111111111110111
1111111111110001
1111111111101100
0000000000001001
0000000000010010
1111111111000000
0000000000001011
1111111111111010
1111111111110011
0000000000010010
1111111111110101
0000000000000111
0000000000001110
1111111111110011
1111111111101100
1111111111110110
1111111111110000
1111111111110000
0000000000000001
0000000000000101
1111111111111101
1111111111111000
1111111111111111
1111111111110000
0000000000000101
0000000000000001
1111111111111101
0000000000001111
0000000000000000
1111111111111110
1111111111110110
0000000000000000
1111111111111101
0000000000000100
1111111111111100
0000000000000111
0000000000000011
1111111111111011
1111111111111010
0000000000011000
0000000000010011
0000000000000011
1111111111100111
1111111111101110
1111111111011010
0000000000000000
1111111111111010
1111111111101110
1111111111111011
1111111111111001
1111111111111110
1111111111011111
1111111111101100
1111111111111111
1111111111111010
1111111111110110
1111111111111011
1111111111111100
0000000000000011
0000000000000010
1111111111110010
1111111111111111
0000000000001011
0000000000001010
0000000000000110
0000000000001101
0000000000000000
0000000000000000
0000000000000000
0000000000000000
0000000000000000
0000000000000000
0000000000000000
0000000000000000
0000000000000000
0000000000000000
0000000000000000
0000000000000000
0000000000000000
0000000000000000
0000000000000000
0000000000000000
0000000000000000
0000000000000000
0000000000000000
0000000000000000
0000000000000000
0000000000000000
0000000000000000
0000000000000000
0000000000000000
0000000000000000
0000000000000000
0000000000000000
0000000000000000
0000000000000000
0000000000000000
0000000000000000
0000000000000000
0000000000000000
0000000000000000
0000000000000000
0000000000000000
0000000000000000
0000000000000000
0000000000000000
0000000000000000
0000000000000000
0000000000000000
0000000000000000
0000000000000000
0000000000000000
0000000000000000
0000000000000000
0000000000000000
0000000000000000
0000000000000000
0000000000000000
0000000000000000
0000000000000000
0000000000000000
0000000000000000
0000000000000000
0000000000000000
0000000000000000
0000000000000000
0000000000000000
0000000000000000
0000000000000000
0000000000000000
0000000000000000
0000000000000000
0000000000000000
0000000000000000
0000000000000000
0000000000000000
0000000000000000
0000000000000000
0000000000000000
0000000000000000
0000000000000000
0000000000000000
0000000000000000
0000000000000000
0000000000000000
0000000000000000
0000000000000000
0000000000000000
0000000000000000
0000000000000000
0000000000000000
0000000000000000
0000000000000000
0000000000000000
0000000000000000
0000000000000000
0000000000000000
0000000000000000
0000000000000000
0000000000000000
0000000000000000
0000000000000000
0000000000000000
0000000000000000
0000000000000000
0000000000000000
0000000000000000
0000000000000000
0000000000000000
0000000000000000
0000000000000000
0000000000000000
0000000000000000
0000000000000000
0000000000000000
0000000000000000
0000000000000000
0000000000000000
0000000000000000
0000000000000000
0000000000000000
0000000000000000
0000000000000000
0000000000000000
0000000000000000
0000000000000000
0000000000000000
0000000000000000
0000000000000000
0000000000000000
0000000000000000
0000000000000000
0000000000000000
0000000000000000
0000000000000000
0000000000000000
0000000000000000
0000000000000000
0000000000000000
0000000000000000
0000000000000000
0000000000000000
0000000000000000
0000000000000000
0000000000000000
0000000000000000
0000000000000000
0000000000000000
0000000000000000
0000000000000000
0000000000000000
0000000000000000
0000000000000000
0000000000000000
0000000000000000
0000000000000000
0000000000000000
0000000000000000
0000000000000000
0000000000000000
0000000000000000
0000000000000000
0000000000000000
0000000000000000
0000000000000000
0000000000000000
0000000000000000
0000000000000000
0000000000000000
0000000000000000
0000000000000000
0000000000000000
0000000000000000
0000000000000000
0000000000000000
0000000000000000
0000000000000000
0000000000000000
0000000000000000
0000000000000000
0000000000000000
0000000000000000
0000000000000000
0000000000000000
0000000000000000
0000000000000000
0000000000000000
0000000000000000
0000000000000000
0000000000000000
0000000000000000
0000000000000000
0000000000000000
0000000000000000
0000000000000000
0000000000000000
0000000000000000
0000000000000000
