1111111110000111
1111111101010001
1111111110101000
0000001000001001
0000000011010010
0000000011001111
0000000010100001
0000000100110001
0000000011101011
0000000111110100
0000000001001000
1111111111011001
1111110110000010
0000010100101011
1111111100101100
0000000110100111
1111111010110010
0000011000001001
1111111110111100
1111111101111111
1111111110100111
1111111101111010
1111111100100111
1111111111001001
1111111101110101
1111111111111110
1111111111101101
0000000001111000
1111111110100100
1111110100011010
1111111111011100
0000000011011010
0000010111000011
1111110001110100
0000000000110100
1111110001110001
1111111101001110
1111111111010111
0000000100011010
1111111111011101
0000000010100011
1111111110110001
1111111111101001
1111111100010111
1111111111001001
1111111100101101
0000000100011100
1111111010011010
0000000000000100
0000000010011011
1111111111000011
0000000101111110
0000000100011011
1111110110111100
1111111001110000
0000000001101000
1111111001111000
0000000011100000
0000000001011011
1111111100110100
1111111101001111
1111111100111111
1111111010010000
1111111011111101
1111110110101110
1111110101001011
0000000001001110
1111111010000001
0000000100110111
0000001000000100
0000000001110010
0000000000001110
1111111001001100
1111111100110011
0000000000001110
0000000101110101
0000000011110100
0000000010011100
0000001000100010
0000000101001111
0000000001001001
1111111111000011
1111111110011101
1111110110000110
0000000001001011
1111111110011010
0000000001101010
0000000010111001
0000000101110011
1111111100101101
1111111101011101
1111111110001000
0000000101000111
0000000111111000
0000000110110101
0000000100011011
0000001001100001
0000000000100100
0000001001010011
1111111011111111
0000000001111111
1111111110101100
0000000000110001
0000000100000011
1111111110001100
0000000100000101
0000000101111010
0000000010001100
1111111111100001
1111111101001000
1111111011011000
0000000100111010
0000000001111011
0000000101001101
0000001010000111
0000001001000111
0000000101110001
0000000011010000
1111111011001010
1111111100001011
1111111110001110
1111111111100101
1111111001010000
0000000000111000
0000000011011011
0000000101011101
1111110110101111
0000000001000001
1111111001010000
1111110110010101
0000000110000111
0000000110000001
0000000110000010
1111111110000000
1111111010100010
0000000001011101
1111110000100001
1111110111010100
0000000100001001
0000000011000110
0000000100011011
0000000111100011
0000000101111101
0000000111110101
0000000000010000
0000000000011110
1111111010101011
0000000100001101
0000000000010110
1111111111111101
0000000001001100
1111111101011111
0000000010101000
1111110111000101
0000000000111011
1111111011000111
0000000001111001
1111111000101101
1111111101001101
1111111111100001
0000000100011000
1111111110001100
1111111100101010
0000000100001111
1111111111010010
0000000000000010
0000000000100101
1111111011011001
0000001001101000
0000000010101100
1111111101000000
1111111111110000
0000000000110101
1111111101000010
0000001011000000
0000000001101011
0000000011010010
1111111011000000
1111111011101111
1111111111010001
1111110001001101
0000000110101101
1111110110010111
0000000000110001
1111111110111000
1111111110100000
0000000101010011
0000000010000001
1111110111101000
0000000101001010
1111111010111110
0000000101010001
1111111111110101
1111111101010110
0000000001010011
1111110000010111
1111110110111111
1111111111111011
0000000000001011
0000000001111100
0000000001000011
0000000000001101
1111111110110111
1111111011100111
1111111110101010
0000000110000000
1111111111111101
0000000011101110
1111111111101001
0000000110101010
0000001000100011
0000000101111001
0000001000101010
0000001110010010
0000001111011011
0000001011111011
1111110011000010
1111111100101011
1111111011101011
0000001000011110
0000000101101000
0000000011010001
0000000111110011
0000001011100100
0000000110010100
0000000000010010
1111111001010101
1111111100100110
0000000001101001
0000001010000111
0000000011100100
1111111100110010
0000001011111000
0000000001000101
1111111101110010
1111111111000101
0000000011011000
1111111100011011
1111111111010110
1111111110110000
1111111010010100
0000000100001111
0000001000110010
1111111011010101
1111111111101011
1111111100001010
1111111111011010
1111111111110101
0000000001010000
1111111101100101
0000000001000110
1111111100101101
1111111101001110
0000000100110010
1111111111101001
1111111111100000
1111111111001110
1111111100100000
0000000101000100
1111111010110011
1111111110000010
0000001001100110
1111111010001101
0000000010011101
0000000000110001
1111111111100101
0000000000010001
1111111001111100
0000000110010111
1111110101010010
1111110010011101
1111110110000110
0000000101010100
0000001000000110
0000000101001111
1111111111110100
0000000100000100
0000000001010000
0000001001010011
1111111110001111
1111110101000111
0000000001110001
1111111110010011
1111111110100000
1111110001101000
1111111101001011
0000000100100010
1111111101011111
0000000001111000
0000000000100111
1111111101110111
1111111111111111
0000000001111101
0000000010100010
0000000000011101
1111111101011001
0000000101100010
1111111110010110
1111111111101000
0000000010100001
1111111011110000
1111111011100010
0000000100010000
1111111000111100
0000000110101001
0000000010010110
0000000010011011
1111110111000100
0000000000101110
1111111011111101
1111111111001000
1111111110011111
0000001100010010
0000000011100010
0000000001111011
0000000000001100
1111111101011111
1111111110000001
0000000101011001
0000000001110001
0000000010101010
0000000001100111
0000000101111101
0000001010101001
1111111001110101
1111111111101110
0000000100000001
1111111110010110
0000000011001110
1111111011111110
1111111010011110
1111110101001001
1111110110111001
0000000110111100
0000000101011011
1111111111100000
0000000001000010
0000000001000110
0000000010011001
0000000000000010
0000000001110010
0000000000101001
0000000000110100
0000000000100011
0000000100011111
1111111011010001
0000000000001010
1111111110010010
1111111110001011
1111111010000001
0000000010110000
1111110111001101
1111111111011100
0000000011010101
0000000000011110
0000000000101100
1111111110010100
1111111010000111
1111111111010010
1111111111110010
0000000000000100
0000000000001100
1111111111110001
1111111110011111
0000000001011110
0000000000000100
1111111110110011
1111111110111001
0000000001001011
0000000110001110
0000000011100111
1111111110110000
1111111110010001
1111111001111001
0000000000100000
0000000010111110
1111111101111110
0000000101100010
0000001011010101
0000000100010101
1111111110100100
0000000001110100
0000000000111100
0000000010000111
0000000011011100
0000000011101011
1111111100111011
0000000100001100
0000000011000001
1111111111011011
0000000100111110
1111111011010000
0000000100011110
0000000000010011
0000000001101111
0000000100110101
1111111101110010
1111111100110000
1111111101101110
0000000100010110
1111111101111011
1111111111000011
1111111111001110
0000000011100100
0000000100110000
0000000000000000
1111111110001011
0000001001100111
0000000001110111
1111111111100001
1111111011100010
1111111111010110
0000000000011101
1111111110001010
1111111011010101
1111110011110110
1111111111010111
0000000011100111
0000000010010000
0000000011000010
0000000010000011
1111111001111011
0000000000111100
1111111100110110
0000000100011101
0000000001000010
1111111100101100
0000000100001110
1111111110000001
0000000100111110
0000000110110000
0000000000001111
0000001000001001
0000000100010000
0000000011110011
0000000101000010
0000000011011001
1111111110110001
0000000001011001
0000000011000110
0000000001100101
0000000000010111
0000000011110000
1111111100110110
0000000011011111
0000000001111011
0000000010101110
1111111101011010
1111111111111010
0000000000101010
0000000011011101
0000000010101011
0000001000001011
0000000110100110
1111111111100010
0000000001000111
1111111111100010
0000000011111011
0000000010101101
1111111101001011
1111111010101111
0000000001111100
0000000100011010
1111111111000001
0000000010011110
0000000100111111
0000000001110101
1111111010001111
1111111100011100
1111111010011110
1111111110010110
0000000000100100
0000000000110101
0000000010101011
1111111111010100
1111111110111110
0000000011001000
1111111100001010
1111111110101001
0000000000011101
0000000100000101
1111111100111101
0000000000100110
0000000010011110
0000000000100010
1111111000011101
0000000000100110
0000000010010100
0000000110010101
1111111100111100
0000000101111111
1111111101111010
1111111011001110
0000000101100001
0000000010101101
0000000001010011
0000000101111111
0000001001000100
0000000000010011
1111111011101111
1111111101001010
0000000100111010
1111111110101100
0000000001010010
1111111110011001
0000000011001001
0000000100001010
0000000100010100
1111111110011001
0000000100001001
0000000011101000
1111111110010000
1111111111000011
0000000011100000
1111111010101111
0000000000101001
0000000011000010
0000001001010011
1111111001110010
1111111010010001
1111111111011100
0000000000000100
0000000111011000
0000000110011011
0000000111011111
0000000011001011
0000000001001101
0000000011010101
0000000001001110
0000000010000001
1111111111111011
1111111011001010
0000000010001110
1111111110001111
0000000000000010
1111111000100101
1111111100101111
0000000011110000
0000000010011000
1111111010001001
1111111100000111
1111111110111100
1111111111100001
1111111001001011
1111111011111101
0000000100010101
0000000001000101
1111111111110011
0000000011010110
1111111011100001
0000000000101110
1111111101001101
0000000000000110
0000000011100001
1111111111010011
0000000000100100
0000000001011000
1111111011110000
0000000111110001
1111111011101100
1111110110000110
0000000000010000
1111111101100010
1111111011100001
0000000111100110
0000000000111000
1111111111111011
0000001001011011
0000001001111011
0000000100001110
0000000001000011
0000000001100110
0000000000110101
1111111100000000
0000000010110010
1111111111001101
0000000000110100
0000000010100100
1111111101010111
1111111111110000
1111111011000011
0000000111110011
0000000001010011
0000000001010010
1111111000011100
1111111111111110
0000000011111110
0000000001001010
0000000000001111
1111111100110110
0000000010011001
0000000010000001
0000000000100001
1111111101010110
0000000010001010
1111111011100110
0000000010111001
1111111110111000
1111111110101111
1111111011000011
1111111110000011
1111111100000110
0000000011100100
0000000011101011
1111111110101001
1111111100111011
0000000110111110
0000000011100001
1111111111111111
1111111101000101
1111111000101001
1111111101101111
1111111101111100
1111111100001001
1111111110110100
0000000010010110
0000000000011100
1111111111010001
1111111111101000
1111111110110101
1111111101111000
1111111100001010
0000000000101101
1111111110111100
1111111111000001
0000000000010110
1111111101011100
1111111101110010
0000000000100111
0000000100000000
0000000000110000
0000000000001100
0000000010001001
1111111110000101
1111111110111101
1111111111011011
1111111111111001
0000000000001101
0000000000011100
0000000001001000
1111110110100011
1111111001011100
1111111100111111
1111111001001111
1111111110000101
0000000010000111
1111111101100000
0000000010011010
1111111101000000
1111111111111010
0000000100111011
0000000001010011
0000000101011110
0000000100010010
0000001000111000
0000000110011001
0000000110001011
0000000000111110
1111111111111001
0000000010000110
0000000001100000
0000000000001000
1111111110110111
1111111100110101
0000000001010001
0000000000110110
1111111110000000
1111111011001110
1111111101110100
1111111111110010
0000000000111010
1111111111010110
0000000001111110
1111111111011110
1111111100001010
1111111010110011
0000000010100011
1111111111011110
1111111110100101
1111111111100110
0000000010110110
0000000010000110
0000000000010111
0000000001000001
0000000010001111
0000000001010101
0000000001100101
1111111010100101
1111111111110110
1111111101110011
1111111111000111
1111111101100000
0000000000111010
1111111010100000
1111111110011111
1111111110001110
0000000010110110
1111111101101101
1111111110010100
1111111101010000
0000000010101001
0000000001000000
1111111011110110
1111111101100101
1111111010010000
1111111100010101
1111111111111101
0000000000010001
1111111000000001
1111111101110010
1111111101110010
1111111110010011
1111111011010100
1111111111100001
1111111110111001
0000000000101101
1111111111111000
0000000000110110
0000000010001000
1111111110000011
1111111101111011
0000000010001001
1111111100010001
1111111110010001
1111111111110010
0000000001010011
1111111110101010
0000000000100111
0000000010101010
0000000000111101
1111111101100000
1111111110110000
0000000000001011
1111111101010000
1111111100100110
0000000000010110
1111111111100101
0000000011000111
1111111100111101
0000000000101100
0000000000010101
0000000000001001
0000000001000111
1111111110110000
0000000010001110
1111111111001000
1111111001000101
1111111110000111
0000000000011001
1111111111101100
1111111111100101
1111111111100111
1111111111010110
1111111011010011
1111111110001110
1111111101001011
0000000101000101
1111111101111111
0000000110100010
0000001011101111
0000001100001011
0000010010011100
0000001011110011
0000001101100001
0000001100101101
1111111101111111
1111111111111100
1111111110111010
0000000001010000
0000000000011100
0000000001010011
1111111110011110
1111110111001101
0000000000110001
0000000000111010
0000000000101111
0000000010001001
1111111011111100
1111111011011011
1111111011111001
0000000011111100
0000000100010000
0000000100011011
1111111101111011
1111111111100101
0000000000011001
0000000001100100
0000000000111111
1111111011111000
0000000001000000
0000000000100010
1111111011101000
1111111100100111
1111111111111110
0000000001001110
1111111100110010
0000000000000001
0000000001000000
0000000001001010
1111111100000001
1111111110001100
0000000000101011
1111111110101101
1111111111111100
1111111110111110
1111111101100000
0000000000011101
1111111100110100
0000000000010000
0000000000100010
1111111111000101
1111111101100111
0000000000101010
1111111111100011
1111111110000011
0000000000011001
1111111111010010
0000000000100011
0000000010011010
0000000011011100
0000000011010010
0000000010010001
0000000001110111
1111111110010111
0000000000011110
1111111111110000
0000000001010101
0000000001111110
1111111111101001
0000000000000000
1111111101001100
1111111111000111
1111111111010100
1111111100000101
1111111011101001
0000000000011101
0000000001010110
1111111111010011
1111111110100011
0000000101001100
0000001011101000
0000001101110011
0000001110100010
0000001001011100
0000000111111101
0000001000011111
1111111110011000
1111111110100101
1111111110111101
1111111101001111
0000000000111011
0000000001110111
1111111110011100
1111111111001000
0000000001001010
1111110111001000
1111111110011010
0000000001001110
1111111111000011
1111111111010000
1111111110101111
0000000000101111
1111111111100011
0000000001110101
1111111010101100
0000000001011001
0000000000011000
0000000010111000
1111111111101011
1111111100111000
1111111101101100
1111111101100001
0000000001111100
1111111101111101
0000000001110111
1111111111011110
1111110101110000
1111111001111111
0000000000010001
1111101010101000
1111111001010101
0000000010011101
1111111011111000
1111111101100010
0000000000110011
0000000000001100
0000000000000011
0000000010000001
1111111111010101
0000000000110011
0000000000100100
1111111110011110
1111111111001111
0000000000000110
0000000001010110
1111111111111011
0000000100010011
1111111110100011
0000000010001000
0000000001110000
0000000000000000
0000000000000000
0000000000000000
0000000000000000
0000000000000000
0000000000000000
0000000000000000
0000000000000000
0000000000000000
0000000000000000
0000000000000000
0000000000000000
0000000000000000
0000000000000000
0000000000000000
0000000000000000
0000000000000000
0000000000000000
0000000000000000
0000000000000000
0000000000000000
0000000000000000
0000000000000000
0000000000000000
0000000000000000
0000000000000000
0000000000000000
0000000000000000
0000000000000000
0000000000000000
0000000000000000
0000000000000000
0000000000000000
0000000000000000
0000000000000000
0000000000000000
0000000000000000
0000000000000000
0000000000000000
0000000000000000
0000000000000000
0000000000000000
0000000000000000
0000000000000000
0000000000000000
0000000000000000
0000000000000000
0000000000000000
0000000000000000
0000000000000000
0000000000000000
0000000000000000
0000000000000000
0000000000000000
0000000000000000
0000000000000000
0000000000000000
0000000000000000
0000000000000000
0000000000000000
0000000000000000
0000000000000000
0000000000000000
0000000000000000
0000000000000000
0000000000000000
0000000000000000
0000000000000000
0000000000000000
0000000000000000
0000000000000000
0000000000000000
0000000000000000
0000000000000000
0000000000000000
0000000000000000
0000000000000000
0000000000000000
0000000000000000
0000000000000000
0000000000000000
0000000000000000
0000000000000000
0000000000000000
0000000000000000
0000000000000000
0000000000000000
0000000000000000
0000000000000000
0000000000000000
0000000000000000
0000000000000000
0000000000000000
0000000000000000
0000000000000000
0000000000000000
0000000000000000
0000000000000000
0000000000000000
0000000000000000
0000000000000000
0000000000000000
0000000000000000
0000000000000000
0000000000000000
0000000000000000
0000000000000000
0000000000000000
0000000000000000
0000000000000000
0000000000000000
0000000000000000
0000000000000000
0000000000000000
0000000000000000
0000000000000000
0000000000000000
0000000000000000
0000000000000000
0000000000000000
0000000000000000
0000000000000000
0000000000000000
0000000000000000
0000000000000000
0000000000000000
0000000000000000
0000000000000000
0000000000000000
0000000000000000
0000000000000000
0000000000000000
0000000000000000
0000000000000000
0000000000000000
0000000000000000
0000000000000000
0000000000000000
0000000000000000
0000000000000000
0000000000000000
0000000000000000
0000000000000000
0000000000000000
0000000000000000
0000000000000000
0000000000000000
0000000000000000
0000000000000000
0000000000000000
0000000000000000
0000000000000000
0000000000000000
0000000000000000
0000000000000000
0000000000000000
0000000000000000
0000000000000000
0000000000000000
0000000000000000
0000000000000000
0000000000000000
0000000000000000
0000000000000000
0000000000000000
0000000000000000
0000000000000000
0000000000000000
0000000000000000
0000000000000000
0000000000000000
0000000000000000
0000000000000000
0000000000000000
0000000000000000
0000000000000000
0000000000000000
0000000000000000
0000000000000000
0000000000000000
0000000000000000
0000000000000000
0000000000000000
0000000000000000
0000000000000000
0000000000000000
0000000000000000
0000000000000000
0000000000000000
0000000000000000
0000000000000000
0000000000000000
