111111111001100001110000
111111111111100010101111
000000000000100010001101
000000000011101101110010
111111111000101110100011
111111110110011000100100
111111110111101111110101
111111110011111110111111
000000000011000100001101
000000000010000100011101
000000000101010000110100
111111111010001110011101
111111110100011111000101
000000000100110011101110
000000000010010111100011
000000000111001001010000
000000000110010001101101
111111101101010001101101
111111111000110011110001
111111101011100101111100
111111111001010100101000
111111100001010000010101
111111111100011011000101
111111111100110110011010
111111111101010011010101
111111111100110101100011
111111111101101001111010
000000000011101110011100
111111110100100000100010
111111110111011111100101
000000000100110010111110
000000000101110010111111
111111110101011011000010
111111111010101110100110
111111011001111101011101
111111111101010110001001
111111110101110010001000
111111111100000010100010
000000001001111010100000
000000000010000100000101
000000000001000101100111
000000000111110101111110
111111111011001101011100
111111110100011010100101
111111111011001111001101
111111111100100100010001
000000000101101000011010
111111111110011100110111
111111110110110001110110
000000000100000111010000
111111111011110111111000
111111101110101000001111
000000000111100010101000
000000000110000010010001
111111111100000111111100
111111111101011100101011
111111111101011101100111
000000000000011111001000
111111111101000001001011
000000000110010100100000
000000000000001110010010
111111111000110010101001
111111110111101011111000
000000000001000110010011
111111111100010100101111
111111111110010000001100
111111111011100010001101
111111111110111101101110
111111110010001111110010
000000000000011110010001
000000000001011000101001
111111111100110110001100
000000000111100100011010
000000000100010010001000
111111111110001010111111
000000001000101001111010
111111111011110101100011
000000000001100001011110
000000000001010101001001
000000000000110110001001
000000000101111111101101
111111111000011111111111
000000000001000100010101
000000000010110010001010
000000000000110001001001
111111111010101111111011
000000000010000101110101
111111111011110110000010
000000000101001100110000
000000000010000111101010
111111111110100110100111
000000000001000000011001
000000000011001001111011
000000000011011101100000
000000000110000000000010
000000000101000001010100
000000000010001110000001
000000000010101001010110
000000000100100001000110
000000001001001100100111
111111110111001010001111
000000000101100000001100
000000000101100101010111
111111111100111010101110
000000000011101111101111
111111111011110001101100
111111111101001011001001
111111111111111010101000
000000000011111001010000
000000000000111101001100
000000001011010000010100
000000000101001011011101
000000001000000001111110
000000000010100111000000
000000000101000100011101
111111111111100010100101
000000000100111001100010
111111111110000100010010
000000000101011011010001
000000000011000011100110
000000000111000000001010
000000000010000001010101
000000000100111111000000
111111111101000111010000
111111111101111000101100
111111111110011110011011
000000000110100111000001
000000000100011011110100
111111111000100110111100
000000000000000101011001
000000000100010101000100
000000000101101100100100
000000001001000010010010
111111111100001110001100
000000000011110010000010
111111111111101000010100
000000000001101110111100
000000000010110011100111
000000001000001011101101
000000000111111011001111
111111111100001010101000
000000000101100011011110
111111111101000101111010
111111111101000110111010
000000000000100101101110
111111111101010111110101
000000001001010111110000
111111111001011001000101
111111111110000100001011
111111111011111110101000
000000000001100011000111
111111111100110010100101
111111111100110010011010
000000000111001011001100
000000000101011101011000
000000000100000101011101
000000000011100111011001
111111111111111010110000
111111110111111000000101
111111111100101011000000
111111111011111000011000
000000000100100100111011
000000000111111011000010
111111110101111110111011
000000000110010111101101
111111111111101001101010
000000000110110000001010
111111111101100011011000
111111110110111101101001
000000000000111101011000
111111111011000000010000
000000000010100110111111
111111111010101100101100
111111111110010101011001
111111111110100001101011
000000000011000010010011
000000000110001101010110
000000000001001111001011
000000000010011100000011
111111110111101110111100
000000000000001110101010
000000000001101001011011
000000000010001101000000
000000000001001100001101
000000000010001100100110
111111111101110010001110
000000001000101100011100
000000000001011110101111
111111111110110100110101
000000000000111011101001
000000000101000000000111
111111111101011010110100
000000000001010111110111
000000000010010111000001
111111110010010101000110
000000000011110010111010
111111111011100011011011
000000000100101000011110
000000000110000000101101
000000000100000110001111
000000000100001000011101
000000000010101111110000
000000000100111011011001
111111111010111001110100
000000000010111111101011
111111111010011111100101
111111111110111000101110
000000010010110010010100
000000001110111100000000
000000000111001011010010
000000000011110011010110
000000001010010100111111
000000001001000001000011
000000000001011100111101
000000000100111001000011
000000000011100111100001
000000001010010101111100
000000000111000010010101
000000000001100101101110
000000001000101100110111
000000000001110101111000
000000000111011111000110
111111111111101100110111
000000000100000001101011
111111111100111101101001
000000000010001110110000
000000000001110101110100
111111111100011111011010
111111110110010100110000
000000000000011101101101
000000000011001100111001
111111111011101110010100
000000001001010110101110
111111111101001100110101
111111111010010101010000
000000001011001010111101
000000001010101101010101
000000000000010011001100
111111111110001001010001
000000000011010000101100
111111111011110000001001
111111111110000010111101
000000000001100100011011
111111111010101110100111
000000000010001111100100
111111111000111101011010
000000000000110001010001
000000000110000101110101
000000000001010000101101
000000000101110011011001
111111110011010010000110
111111111100000011010011
111111111111011110111011
000000000011101000111011
000000000000101111110011
111111111100000000101000
111111111010010100111010
111111111011100010000010
111111111110000111011100
111111111100100101011001
111111111010101101000111
111111111110000111010001
000000000010101100010011
111111111000111101010101
111111110101001110000100
000000000011011111110011
000000000101010010100000
111111111100100100011001
000000000111111001000110
111111111101111111100000
000000000000001100100011
000000000001010111000111
111111111111110010111101
000000000010000111111100
000000000101100101011110
000000000100011111110000
111111111100010111000010
111111111111100110100010
111111111101011111100100
111111111101100110011001
111111111110001001000100
111111101111110001001111
111111111010010110001110
111111110101100111000111
000000000011000001101011
000000000101110111010110
000000000001100101101101
000000000010010011011111
000000000100110101010011
000000000000010011110001
111111111010110011000110
000000001000001100000100
111111111010100010110110
111111111100100010000100
000000000001001101001111
111111111111010101010100
111111111111100100101000
000000000001111111110111
000000000011110100101100
111111111100000011101100
111111111110011000111110
000000000000000101000001
000000001000100101010011
111111111101110110011100
000000000000100111011001
111111111111111001000110
111111111001011001010000
111111111010111001000000
111111111101010101100001
111111111010100111110000
111111111111010010110101
000000000001000011111011
000000000001110110001110
000000000010001110101100
111111111111100111111100
000000000001000111111110
000000000101100001101000
000000001001001111111110
111111111011100010011110
000000001100010011000010
000000000000111110011111
111111111111000100011100
000000000111000100000001
000000000110011110110110
000000000100000100000101
000000000011100000111110
111111111110000011000011
000000000001000010100101
000000000011001001001011
000000000010101011110000
000000000110010110111111
111111111001010011000101
111111111101111011001100
111111111011110000011001
000000000010011000101100
000000000100000010101111
111111111001111101100001
000000000100001100110000
111111111110101000101001
111111111100110000101100
111111111110111111101111
000000000001110011011111
111111111110110111101110
111111111110011101100111
111111111111101110001110
111111111001000011111011
000000000001110010010011
111111111101010110111100
000000000000010111011000
000000000011000001010111
111111111001101000001101
000000000010000000110001
111111111111100110101101
111111110101110110001111
000000000011111011111010
111111111101110010011000
111111111100100011101001
111111111100110011110111
111111111110111101110111
111111111010100001101000
111111111010010100101010
000000000001010111111111
000000000001111100001100
111111111101101101001000
111111111101011000001011
111111111100001111001010
111111111110011110011100
000000000101100001101111
111111111111000001010010
000000000001101111010101
111111111101111000101000
111111111110101011001010
000000000100100011001000
000000000101110111110111
111111111110111000000100
000000000101101101110111
000000000011010111011110
111111111101101011101010
111111111110011100111101
000000000011010110100101
111111111100100100101000
000000000010101001000101
000000000100111011110010
000000000001100110100001
000000000101000101100101
000000000010111110101110
000000000000100100101100
111111111111011110110101
111111111000001010101011
000000000101000100010011
000000000010100001110101
111111111110011111100001
000000000011100111000000
111111111011000101111001
000000000010011010001110
111111111010110001111000
111111111100100010011111
111111111101111011100010
111111111001101001000011
111111111001100101001010
111111111110010001111101
000000000110100000100010
111111110110111111011001
111111111111001000100010
000000000011111010101101
111111111111101001000101
000000000001000010000101
111111111010100010001101
111111111110001001000011
000000000101011110011110
000000000001101101001000
000000000010100110110110
111111111110110010001110
111111111010110001101110
111111110110000101100000
111111111101010110000010
000000000000110011101011
111111111010010010111001
111111111011001111011101
111111111010011011110110
111111111110111101000110
111111111101010110000010
111111111101000010010101
000000000101110111000011
111111111100111001110101
000000000101001110111111
000000000001110001100100
000000000000010011000000
000000000111110010000001
000000000010001001110000
000000000001100110001001
111111111100011010010111
000000000100100010000000
000000000111101000110001
000000000010100101001101
000000000000001111100001
000000000100001101110000
000000001001010001101110
000000000101101100101011
111111111110100110011011
000000000100010101001010
000000000001010001001000
000000000001010100000100
111111111011001011111110
000000000000100111010010
000000000001010001110000
111111111110010110110000
111111111010110100100000
111111111000100101010001
000000000000101111011000
111111111001010011000111
111111111110111001001000
000000001011001111111010
000000000111011000111100
000000000011011111100010
000000000101111101101101
000000000111011000001010
000000001001001001100110
000000000010001010001100
111111111000001100111001
000000000011011110001110
111111111011001101010000
000000001000000010010100
000000000010010011111001
000000000111100110001101
000000000100111111110110
111111111100010110100001
000000000111000001000000
000000000001101111001110
111111111110011011111000
000000000000010110010101
111111111110101001100000
000000000011100110010100
000000000010100010101001
000000000000100011001111
111111111001110111011100
000000000110100010010111
111111110110100100110010
111111111101101010100001
000000001000101111000111
000000000100000010011110
111111111110001001111111
111111111000111110100011
111111111011010111011110
111111111101110000100011
000000000101110011110011
111111111011000101100001
000000000100000100001111
111111110111011111101011
111111111110101001110000
111111111100110011111000
000000000001000100011000
000000000100010010101011
000000000100000001010011
111111111111010000001100
000000001000111110100100
111111111100000001100100
111111111111100001001110
000000001000111010001100
111111111110001111101111
000000000010001010011110
000000000100010111101110
000000000110101110101001
111111111110001000100101
000000000001101100000011
111111111111011111100110
111111111110111100001010
111111110111111001010000
111111111111101110011111
000000000000011011110000
111111110100001001001101
111111111100001001001010
000000000000000100110010
000000000101011100001000
000000000001010011101110
000000000011101000100100
111111111111000110111011
111111111101011001100111
111111111101111100101001
111111111111100010000100
000000000111111011000000
111111111111010100110000
000000000100110100101110
000000000011001100101111
000000001011001101001001
000000000110101100000101
000000000110000100101011
000000000011010011011001
000000000011100001110000
000000000001011100001010
111111111111110011010010
111111111101110110100111
111111111110111010001000
111111111110101011100111
111111111111001001001011
111111111111100010001010
000000000010110111010010
111111111100100011110110
000000000000001101000100
111111111111011001111100
111111111111010011011110
111111111000101100011000
000000000011100101110101
000000000000001111101000
111111111101101101001111
000000000001101011001000
111111111001001000010010
111111111111010101100101
111111111000011001101110
000000000101010110010111
111111111001001010101011
111111111111101010111111
111111111011101111111011
000000000000010000001001
000000000010110100010000
111111111100001011100011
111111111100010011100010
000000000110011110011011
000000000001010100001101
000000000001110101001011
111111111110011010100011
000000000001010000000111
000000000010110101110000
111111111100100011100011
111111111010001000110100
000000000001100011000000
111111111101110111101110
111111111111010000000100
000000000011100011010101
111111111101000110001100
111111111111001100100010
000000000101110100111100
000000000011110000100110
000000000011010010001011
000000000011000101100011
111111111011110111000010
111111111111011011100011
000000000010010010110100
000000000100011110100011
000000000101011110101101
111111110101101000111100
111111111100010101000100
111111111100111110110111
000000000100111010010110
000000000000001001011001
111111111101011100000100
111111111011001011101010
000000000000100000111110
111111111100101111110110
111111111111011011111010
000000000000101000101101
111111111101011111111010
000000000000110000110111
000000000000000011111011
111111111001100001100011
111111111010110110011111
000000000110110010101000
000000000110111011010010
000000000101010000010001
000000000001111111010011
000000000010010111011101
111111111101010101110011
111111111011011000000110
111111111111010000001001
000000000001001000010000
000000000111100011001001
000000000010100111111010
111111111101111111111101
000000000011010110000011
111111111110110010100010
000000000001111110011001
111111111010101010111000
111111111101111111001101
111111111101111110001000
111111111101110011101000
000000000010010111110001
111111111101110000011101
000000000011100010000011
000000000001001010110100
111111111110011010010111
111111111100110111111011
111111111011100000010000
111111111111011111011100
000000000001000100101011
111111111100110011100110
000000000010000010100000
000000000000110110111111
111111111111000011100111
000000000000110110000000
000000000001001100101101
000000000000111001011100
000000000010110011101100
111111111110111110011101
111111111111000100000000
000000000000101100011101
111111111101011111001010
111111111111010001101000
111111111111101000010101
111111111100100001111101
000000000010101001101100
111111111110000000010001
000000000001010101010110
111111111111011011011111
000000000000111100000001
111111111110010010000011
000000000000000111101000
111111111111001101110011
111111111101111000110100
000000000001110001100010
111111111111101000110110
111111111111011101000000
000000000010110101100100
111111111101110100100100
000000000010111011001010
000000000000110111010110
000000000001010100000000
000000000001001001010111
111111111110010111011111
111111111100010011011111
111111111011010100001011
000000000001101000111001
000000000000001110001000
000000000001001110100110
111111111111001110101000
111111111101010010000010
111111111111110011101001
111111111111001000001111
000000000001000111011011
000000000000000000011100
111111111100110101110100
000000000000010111101001
111111111111100111011011
000000000000000010011100
111111111110100110110011
111111111010010010000110
000000000011001010101100
000000000000101101000000
111111111110101100110101
111111111101101101000110
000000000100001111010011
111111111111111011111000
111111111111000101010001
000000000001011110100011
111111111111101001101101
111111111101101110111001
000000000000000010110111
000000000000010111000111
000000000000011000001011
000000000010101001101001
111111111100000001010001
000000000001101100100001
000000000010101111010001
000000000010111110111100
111111111100101000000111
111111111100110110100100
000000000000001010010010
111111111101011111110100
111111111111011011100110
111111111110110011011000
111111111111001010100111
111111111101010110011000
111111111111010100111001
111111111100100100110010
111111111110111001011111
111111111110001101001111
111111111100110011110110
111111111110001110000111
111111111111001100100100
000000000000110110000100
111111111110110000010100
000000000010111001000010
111111111110100111100111
000000000001011011111100
111111111100100001010011
000000000001000000001000
111111111110010110000011
111111111111110001110000
000000000000101100101100
111111111111011000101110
111111111111000110111111
111111111101111010000101
000000000001001100110110
111111111101011111010110
000000000010011110111100
000000000000101011001000
000000000100110100110100
111111111111001101110110
000000000000101001110111
111111111111001011000100
000000000000011010100010
000000000000011110110100
111111111101010000100111
111111111111101010101011
111111111110001000000111
111111111110111111011001
111111111010100011100011
111111111110000100100010
111111111110110001100100
111111111110100000000011
000000000000011100001110
111111111100011110001011
111111111110001011001101
111111111110100101100100
111111111101110100101110
000000000000001111111101
111111111101101101110001
111111111111100011011011
000000000010110010100001
111111111111011111011100
000000000000100011100011
000000000001110111010011
111111111111111101101111
111111111100101110000000
000000000000000000011000
111111111011101110000000
111111111110111001111001
000000000001111000110110
000000000111001100110000
000000001011111100111101
000000000111011001000100
000000000101100111000101
000000001001100100101111
000000000100100001000100
000000000101100101000000
000000000110010110110010
000000000000010000000000
111111111110001101000011
000000000001101011100101
000000000100001000001100
111111111111110000101110
111111111111000010111110
000000000011111111111100
111111111110011101010100
111111111111010100010111
111111111111111000101110
000000000001000000110110
111111111110110111000010
000000000001000111000101
000000000000010001101011
111111111101100101100110
000000000001010110010101
111111111111100111000100
000000000000001011101111
111111111111001100000100
000000000010000101101111
111111111101001111010110
000000000001101010011000
111111111110110001111001
111111111111101000111000
111111111111000001110011
111111111111101001011100
111111111011001101110111
000000000010000100111010
111111111101110111001011
000000000011000000101110
111111111111101000010011
111111111110000001110001
111111111111101011000111
111111111111110011110111
111111111111010100110000
000000000011001111011001
000000000001110001010111
111111111111100010101111
000000000000011010110101
000000000001010110001100
000000000001011110110101
000000000001000110110100
111111111110011110110110
111111111110110010100000
111111111110100001110010
111111111100111000011110
000000000000000010011111
111111111110111000111010
000000000001000100001100
000000000010001111000010
111111111010100000100001
111111111100011010011000
000000000001110011111011
000000000000110111101001
000000000000100100011000
111111111100101111011011
111111111111000110110110
111111111110111011000100
000000000000111001111101
111111111110001010101101
000000000000000101001100
000000000010101111111011
111111111100100111110000
111111111110100111100010
000000000010110101110000
111111111111001110011011
000000000001111101101010
111111111101010111111011
111111111111010110010111
111111111110101110110110
111111111111001111000100
000000000010100010101001
000000001000011100011100
000000000110110001011111
000000001010101010101001
000000000010111000011101
000000000011001101000111
000000000111111000011101
000000000010011100111001
000000000010100000010100
000000000101001011101011
000000000000100011110100
000000000000010000001111
000000000001100011100000
111111111110101001110011
111111111110010010110010
111111111101010011010101
000000000010000101111001
000000000000000101111011
111111111110010010100101
111111111101011101100011
111111111110111100010100
111111111101011110011010
111111111100110111011000
111111111100110011100110
000000000000111101100000
111111111101010101111011
111111111100001001011010
000000000010110111000101
000000000001010110100111
000000000001010011000111
111111111110110010000001
111111111111111000000010
000000000010110110101000
111111111110011101011110
111111111110110010110111
111111111111001001000010
000000000010111110101101
000000000001001111100000
111111111111101010000010
111111111101100010000110
000000000000111111110110
000000000000001110011100
111111111110100011111000
000000000001111100111011
111111111110000101010100
000000000100000111001000
111111111111010111011010
111111111111110001100111
000000000011111011010000
111111111111011110110000
111111111101101100000011
111111111100100010011110
000000000010000011110000
111111111101100101010111
000000000000110000110100
111111111100111100011111
111111111100011101000010
111111111101110011011111
111111111101111011111101
000000000011010111111111
111111111111001001000010
000000000000011011110111
111111111100111001011010
111111111110111101000110
111111111111110010111011
111111111111001100010111
111111111111111110010010
111111111111110001100000
000000000000000110100001
000000000011110010111110
000000000100011100100011
000000000010111010001111
000000000000010001010101
000000000000000001110011
000000000000000001011000
000000000000111001000001
111111111111111001111111
111111111111110111101110
111111111111110110111000
111111111111111010000001
000000000000000001001010
111111111111111010000101
111111111111111100010000
111111111111111011000100
000000000000000011001100
111111111111111110100111
111111111111111100000101
111111111111110000011101
000000000000000011010110
111111111111111101001110
000000000000000010011101
000000000000000000100000
111111111111110101010010
111111111111110001000100
111111111111111100110110
000000000000000001010011
000000000000000011010011
111111111111110110001101
111111111111101111101100
111111111111110110011010
111111111111110000010011
111111111111100101001100
000000000000100100000111
111111111111111000100111
000000000001000001011000
111111111111010101101000
111111111111101000001001
000000000000001000011100
000000000001010100011101
111111111111100011101110
000000000001001110111111
111111111111101110100000
000000000000000101101000
000000000000000111001011
111111111111111011111101
111111111111111100000110
111111111111111000011010
111111111111110110010100
111111111111111010001101
111111111111111000100111
000000000000000011101111
111111111111110000101010
111111111111110001100110
000000000000001010100111
000000000100111111110111
000000000101010010110001
000000000101111110001010
000000000011111010100001
111111111111111011101101
000000000000111100100011
000000000010111011010010
000000000000111000011110
000000000000010011110111
000000000001101110110100
000000000000010101000010
111111111111100001011100
111111111111111110010011
000000000000000011101110
000000000000000001000110
000000000000001001000011
000000000000000100110101
111111111111111010011110
111111111111111011101100
111111111111111010111000
000000000000000110101001
000000000000001000001010
111111111111111100101111
111111111111111110100101
111111111111111011010100
111111111111111100010101
000000000000000010001010
111111111111111011010100
111111111111111101100010
111111111111111110001111
000000000000000010010010
111111111111110111110100
000000000000000100001000
111111111111111001001001
111111111111111000001111
000000000000010010010100
111111111111111010010011
111111111111111101011001
111111111111110110001100
000000000000000110100000
111111111111111100111000
000000000000000100100010
111111111111111011011000
111111111111110101001100
111111111111111011011000
000000000000000111010000
111111111111111101111101
111111111111111010101011
111111111101110101101001
000000000000000111010011
111111111111110100011001
000000000000110011101110
111111111111101101001100
000000000010000010011100
000000000011101111110110
000000000010110101100011
000000000001011111100011
000000000011000011011010
000000000010011111100100
000000000101001111001011
000000000000001001111110
000000000000000000001011
000000000000000100111101
111111111111111100110010
111111111111111001111000
111111111111111011111100
111111111111111011010100
111111111111111011110110
111111111111111000101001
111111111111110011111111
111111111111101100000000
111111111111111011100001
000000000011010101100100
000000000100110111111010
000000000010110010100100
000000000010101010010010
000000000000011101110001
000000000001011011001101
111111111111011001011000
000000000000011110001001
000000000000100100010000
111111111111001000110110
111111111111101110110111
000000000001101001010100
000000000000000100101011
000000000000000100011000
111111111111111111110001
111111111111110011101101
000000000000000111001110
000000000000000000101110
000000000000000001100110
111111111111111101101101
111111111111111111011010
111111111111110111101000
000000000000001100000010
000000000000001010101001
000000000000000001100001
111111111111111011111001
000000000000000000110101
000000000000000011101011
000000000000000101001110
111111111111111101011101
000000000000001001110000
111111111111111110010000
000000000000000101010111
000000000000000010011010
000000000000001000111111
000000000000001110101111
000000000000000010001001
000000000000000101100111
000000000000001010101100
000000000000000110001101
000000000000000001011011
000000000000000001011100
000000000000000000010010
000000000000000011111001
000000000000000000111100
000000000000001010000001
111111111111111000110110
000000000000001101111100
000000000000000000001111
000000000000000100010000
111111111111111101011001
000000000000000000001001
111111111111110011100000
111111111111110100000010
111111111111110101100010
000000000000000110010101
111111111111111101000011
111111111111110010010011
111111111111111010001001
111111111111101111111001
