111111111100000101001101
000000000011101000000111
111111111010010000010010
111111111111010001111011
111111111111100101000101
111111111100111101010011
000000000111001110101100
000000000000010101011000
111111111111101001010011
000000000001100110101000
111111111110111010010001
000000000110100111111001
111111111100100100100111
000000000010000110110100
111111111110110101111100
000000000011010000110010
000000001101101001000000
000000000111001001011110
111111111110100110000101
111111111000100000110110
000000000010110010001100
111111110111110111001110
111111111110111100101010
111111111100101000111101
000000000011111101000100
000000000000100010111001
111111111111110100011100
111111010101010111111101
111111011100111001011110
111111111011100101111110
111111110001011010010010
111111001001100100011000
111111100100101110011110
111111101000000110001001
111111100100100001100111
111111011001100100100001
000000000111011110100110
111111111100000000111011
000000000101001100111110
000000000101001011110100
111111111001011000000111
111111111000101000001010
111111111100110000111001
000000000001011000100000
111111111110110010011001
000000000100101001010110
111111111010111000001010
111111110110100010111110
111111111100101010001101
111111111111010111111011
111111111110010101111011
000000000111110001001101
111111111011010101111111
111111111110101101010111
000000000011000000111111
111111111011100110111100
111111111110011111011001
111111111111010101000001
000000000011011011001100
111111111110011010111101
111111111100001010101010
000000000001100111111001
000000000011001100011010
111111111100110011110101
000000000001111011010010
000000000000000111000011
111111111001011001000111
000000000001101100101000
111111111011100100101010
111111111011001110001010
000000000110100010111011
111111111011010010011110
000000000001100010110100
111111111001101111101011
000000000000010101010100
000000000011001110001100
000000000011010001011011
000000000000001000001011
000000000101001000000111
111111111101101110011101
000000000100000010100000
111111111101001010110011
111111111001011111000100
111111111110001111001011
111111111101011101011111
000000000100011000001000
000000000001110101011011
111111111111000001001011
000000000000011010100111
000000000011010000110011
000000000011110001011010
000000000010001101110100
111111111110011000000001
000000001100000100111011
000000000100111100010000
000000000010100110100100
000000000001110000011001
000000001000010110110001
111111111101001001001011
000000000011011111101100
000000000100101000101111
111111111000100101001101
111111111011011010000110
111111111100001100001101
111111111111110011101011
111111111101011111101001
000000000110010010111101
000000001001000010101111
000000000011010001011000
111111111100110001100000
111111110111101000011110
000000000010110111110011
000000000010110000100001
111111111101000001001111
000000000011101101010111
000000000001101110000010
000000001001011100111010
111111111100101100101111
111111111010000110100110
111111111010101011000000
111111111100101000000101
000000000000110101010011
000000000100101100101000
111111111111011010000110
111111111101011110111011
000000000100100100001110
111111110110111101011001
000000000000111010001111
111111111110100100110010
111111111110101010011000
000000000010011100110010
111111110111111100100110
111111111101010000010101
000000000001101100000100
000000000001000000100101
000000000001101111110111
111111101110011111101111
000000000010011111011000
000000000001000101100110
000000000111000001100101
000000001001010101010100
000000000100110001001100
000000001001001101111111
111111111010001001111011
111111111010111000100111
000000000010010110100011
111111111010110011010000
111111111110110110111001
000000000011100011011011
000000000011101010001011
111111111110011110111101
000000000000010111111011
000000000100011110110011
111111111110010001010000
000000000001110111000000
111111111001100010011100
111111111111101001101111
000000000110001011101010
000000000010011001010000
111111111110110101101101
111111111011010101010011
111111111011011100011000
000000000001100110100000
000000000110010101110010
111111110111001100010011
111111111000010101101001
111111111001101011010000
000000000110010000101001
000000000011101010110000
111111111010010111110011
111111111100001110101001
000000000000101101001101
111111111001100100101110
111111111101011100001101
000000000000110110010001
111111111011111011010010
000000000101101110101100
111111111000011100100100
111111111010001010101101
000000000010000011100100
000000000110000100011011
000000000001000110001001
111111111101011000010101
111111111100110110101111
000000000010110110111100
111111111010101011101110
111111111111101100010000
000000000001101011010100
111111111001111000101011
111111111101100110001011
111111111110111110001100
111111111110111011000101
111111111011110010111110
000000000100101110001111
000000000000110010101110
000000000101000000111010
111111111101111000100001
111111111101100110100011
000000000000010011100100
000000000011000111001000
111111111101101101011001
111111111010111010111101
000000001000110101000001
111111111111111010110101
000000000010101000100100
000000000001001010000000
111111111101010100000110
000000000011011000011001
000000001000000110001001
000000000101100001111001
000000000001100101100010
000000000101000111101000
000000000010100001111110
111111111110000000011011
000000000011101100110101
000000000011100110010100
111111111101010111111000
111111111101001110111011
000000000000101000011111
111111111111100111100110
000000000100101110111111
000000000101011100101110
000000000010010011001110
000000000001101010001100
000000000000101110110000
111111111011101010110000
111111111001100011000000
111111111110101111001000
000000000101100000011011
111111111100010001011000
111111111101001010011111
111111111111000100010111
000000000001100010111000
111111111111010110010110
000000000000110110101000
111111111010001010101010
000000001000101101011011
000000000011011110010001
000000000000010010011100
111111110101001100000000
111111111000100111110011
000000000011010101110100
111111111110101101001010
111111111100110111101100
111111111011100101100101
000000000010011100100110
000000000010000001011101
000000000101100001011110
000000000101101101100101
000000000010011001001001
000000000011011000100101
000000000001110101000010
000000001000101001101101
111111111010000011100100
111111111101101101000000
111111111010100100101110
000000000110010110000100
111111111111010000000011
000000000011100001100100
000000000011001101010111
111111111101110000001000
000000000001000101111000
111111111100100001111011
000000001000100111111000
111111111111001000001111
000000000010001000000110
111111111110000000110101
000000000111010000001100
000000000000011100100111
111111111011111100111111
111111111100100000010010
000000000011100010100101
111111111100111010101111
000000000011010010110111
000000000011101101101111
000000000101100001100010
111111111011001101100000
111111111111111110001011
000000000011101000110011
111111111010010001101011
111111111110011100101001
000000000011010001111101
000000001010010001100100
111111110101000001001011
000000000101000010000100
111111111101000000111101
000000000100111110010011
111111110101111110100101
111111111110111101010001
111111111111001101100001
111111111011110000110101
111111111110101100010000
000000000110000000101011
111111111100101101110100
111111110010101100001101
000000000011010010110010
000000000100101110110111
111111111010100111101010
000000000110111011110010
111111111100110011110001
000000000000011000100001
111111111110101000010100
000000000111001001110000
000000000000101110111001
111111111110001111011011
111111111100101111010010
111111110001110011111010
000000000010001111101101
111111111111101011100010
111111111100101110101010
000000000000001011010101
000000001101100111100101
000000001010011000000011
111111111110001011010111
000000000011111100001011
000000000010101100000001
000000000100111111101110
000000000011010101111001
111111111101101011010010
111111111101110111100100
000000000010100100111101
000000000001110011010001
000000000110110100111010
000000000000001011010110
000000000001001010000101
000000000010110000001100
111111111110000100101100
000000000011001110011111
000000000001111101011011
000000000000000001001010
111111111011011110001101
111111111000100111000001
111111111011001010000101
000000000000111011110100
000000000001011110001100
000000000011110111011001
000000000011100001001111
111111111110100110000110
000000000010001110000001
111111111110110100111000
111111111100000011110010
111111111011000000111000
111111111110010010010011
000000000011010000111110
111111111111001011101110
111111111011011111101010
000000000000111010111101
111111111011111101100010
111111111001011000001111
111111111100101010001001
000000000000101010110110
000000000010000101011011
111111111100100110010111
000000000100100110101011
000000000011110001001011
000000000011101110111111
000000000010101010111010
111111111110001011110001
111111111011011000101001
111111111001100000100011
111111111010010001001001
111111111110110000000010
111111111100001011010011
111111111001100110011011
111111111010110100010010
111111111100001010101001
111111111101001010001000
111111111101000110101101
000000000001011001111001
111111111111110001000111
111111111101100110111111
111111111101011100101101
000000000001010101100010
111111111101000110110000
111111111011011111010011
000000000001101101100101
111111111110110000100001
111111111101011010000110
111111111011101010111010
111111111101010101000100
000000000010010000100011
000000000011111111111111
000000000100001101110101
111111111011110101011110
111111111101000010111111
111111111111101100100110
000000000001100001111000
111111111110100011011011
000000000011010100100001
000000001000010000000000
111111111111000001111101
000000000001001001110111
000000000000111101001100
000000000100001000010110
111111111110111100010100
111111111111000111011110
111111110111111110001110
111111111110011101100010
000000000001110101111000
111111111011001110110110
111111111110011111110010
111111111011101011010011
111111110111110011100100
111111111111001101001011
000000000011011101110001
111111111100001111111001
111111111111111110111110
111111111111111010101011
111111111001101010010011
111111111010011000100110
111111111100110101010010
111111110110000000010100
111111111001100000100100
111111111101111001000011
000000000010100011011111
000000000001010011101010
111111111101110000000100
111111111110000100111011
111111110111010001011001
000000000010111001001000
111111111001101010110001
000000000001001001110110
000000000101111010010000
000000000000111111101111
000000000011101000010011
111111111011001110100100
000000000010011100000101
000000000000111010000000
000000000001110101101000
000000000001001100110011
111111111101110101001000
000000000101000001111010
000000001001101110100111
000000001010100111010111
000000001100011100111100
000000000110011010100100
000000001101010111011110
000000001001000011000100
000000000010011110011010
000000000101001101010000
000000000001100111110011
111111111101100110001101
111111111101101110001010
111111111001100010110000
111111111010110011110001
111111111000111111110110
111111111010001111001110
000000000001001110111111
111111111100000001111000
000000000001000111101000
000000001001010011001000
000000001000001010110001
000000001000101100100100
000000000101111110010101
000000001110010111001111
000000001001101111111110
000000000101010011100101
000000000111011101011001
000000000101111011011100
111111111100100111111101
111111111111111001101100
000000000001110111011001
000000000000001010100101
111111111110111101111110
000000000011100101110001
000000000101011101011110
111111111110011101011010
000000000000001011010000
000000000000001011000000
111111111111111011011001
111111111101101111111100
111111111101111000110111
000000000000001010110000
111111111110001011111011
111111111000010001001011
111111111010110010100110
000000000011111000011101
000000000100101011100011
111111111011010011010011
111111111011001101110000
111111111011101010011011
111111111111001010000110
111111111000101100011100
111111111111001111100000
111111111111101010111110
000000000110011100111110
000000000001011100000000
111111111011101011010100
111111111000010101101111
111111111010010010110101
000000000010110100111100
111111111101010111101011
000000000001100010001010
000000000100001011001001
111111111110101000000001
111111111101111101111110
000000000100011101000101
111111111011101110000101
000000000010111010111110
111111111101111000011011
000000000010011101111001
111111111110010101101111
111111111111110101000000
111111111111101010010111
000000000101100111001010
111111111110011001101001
000000000100101111111110
111111111110100111010110
111111111111010110100011
111111111110011110110110
111111111001001110000011
111111111110111111001001
111111111111110001100101
000000000011101000000100
000000000010110101011000
000000000100011001111110
000000000010111111010000
000000000011100111011110
000000000010111000010111
111111111101100011111111
111111111101001101011011
111111111011110111000110
000000001110110110100011
000000001101010100101010
000000001010001110101100
000000001001001011101110
000000001000110100100010
000000001001001011010000
000000000010100110111001
000000000010110101100001
000000000101100000111100
000000000001010010010001
111111111110101110111001
000000000000100010101110
111111111101011111011011
000000000011100011110101
000000000010110011101001
111111111000011000111010
111111111100101001110100
000000000000101111101101
111111111111101010000101
000000000010100110110100
111111111001011000111100
111111111101111101110110
111111111110100000100000
000000000000101011001000
111111111110100100001011
111111111110000001000111
000000000010011010110000
111111111101001010000010
000000000011010000011110
111111110101101101010001
111111111100001100011100
111111111101101110010011
000000000101001010011010
111111111111111100001111
111111111010111011000100
111111111111010011110111
111111111101100110001111
000000000101101101110101
000000000000011100000101
111111111101111001110100
000000000011100111000000
000000000001100110111100
000000000011011101110111
000000000001010100000100
111111111111011111010110
000000000111010010000010
000000000110000010001101
000000000101110000010101
000000000100110000000101
000000000101010011110011
000000000011101101111010
000000000100000100001011
111111111110111100010010
000000000101100011101110
000000000011000100000111
111111111110101100011101
111111111001001001011100
000000000001111010111110
111111111111010001101001
111111111111000101000111
111111111100110111111100
111111111001110110010101
000000000011010011001011
000000000000010010110011
111111111110110000101100
000000000010001110101110
000000000100101011011000
000000000001000011110010
000000000001110001000000
000000000010000010110011
111111111111001110010101
111111111001111100001100
000000000011100011011011
111111111110101100110101
111111111110001001000110
111111111101000111100000
111111111101111111101111
111111111111000100101011
111111111010001100010001
000000000000101111100011
111111111010101100001001
111111111110000011011011
000000000011101000010101
000000000100110000111101
111111111110101111010101
111111111111011100001010
000000000000001010011000
000000000001101100001001
111111111111011111011000
111111111101010100100000
000000000000001001110001
000000000000000001001111
111111111111101110101101
000000000000000100001011
111111111111111011100110
000000000000001100111000
000000000000000100011001
000000000000000110011100
111111111111110100011110
000000000000000100010011
000000000000000100110111
111111111111110011101000
000000000000000100000011
000000000000001001101100
000000000000010011011101
111111111111110001001100
111111111111101111011100
000000000000000111000010
000000000000000001011011
111111111111111000001101
111111111111110111000011
000000000000011111101100
000000000000000101111001
000000000000001100001101
000000000000001001101010
000000000000000110100101
111111111111111010101101
111111111111111101011100
111111111111110111010101
111111111111100110000010
111111111111101111110010
111111111111110110000110
111111111111110101110001
000000000000000011011101
000000000000010011000110
000000000000001100100011
111111111111111111001101
000000000000001101011111
000000000000001011011011
000000000000010100010111
000000000000001010011110
000000000000001110101101
000000000000001000100001
000000000000001000010101
000000000000010010001100
000000000000001100100100
000000000000001100001101
111111111111111110010100
000000000000000000101110
111111111111111010011001
111111111111111110011100
000000000000010111110101
111111111111111011001100
000000000000000011001111
111111111111111010000000
000000000000000011000000
000000000000000001110010
000000000000000000110100
111111111111111110011111
000000000000000111010100
111111111111111000011011
111111111111111100110010
111111111111111010101000
111111111111101100000110
000000000000000111110001
111111111111101100110001
000000000000010010011100
000000000000001100010000
111111111111111001001101
000000000000001110000111
000000000000010110000111
111111111111110110111110
111111111111111111100010
111111111111110110101001
000000000000000111110011
111111111111111100011011
000000000000001101011100
000000000000001100001010
000000000000010000000111
000000000000010000100111
000000000000010100011110
111111111111110101010011
111111111111110110110110
000000000000001011011100
111111111111101010100110
000000000000000010011000
000000000000001011101100
000000000000000110111001
111111111111111101011111
000000000000001011111110
111111111111111011111001
111111111111111100110010
111111111111110000111001
000000000000001000101011
000000000000010100000011
000000000000000111101010
000000000000001111101010
111111111111111101101100
000000000000001001011010
000000000000010010110001
000000000000010001101000
000000000000010011001101
000000000000000001000110
111111111111111001001100
111111111111110110000111
111111111111111101110101
111111111111110111101110
111111111111111001000000
000000000000001011100111
111111111111110110011001
000000000000100000001100
111111111111101010001100
000000000000000101100111
000000000000000001101110
111111111111111110010111
000000000000000100111100
000000000000000011101101
111111111111111000101010
000000000000001011011100
000000000000000001101100
111111111111111110000110
000000000000000100101001
000000000000000010101010
000000000000011100100001
000000000000000011101100
000000000000011111001110
000000000000010010011101
000000000000010001001001
111111111111110001111000
000000000000010001110001
000000000000010011010001
000000000000010001001101
000000000000001111100010
000000000000001011101100
111111111111101010111001
000000000000000101110111
000000000000001101001110
111111111111110111011011
000000000000010011100011
000000000000000101101100
111111111111111111000111
000000000000010111101011
111111111111111010111111
111111111111111000111100
000000000000100100110010
111111111111111111100000
111111111111111011100101
000000000000100110110110
000000000000001101000100
000000000000100011101100
000000000000011110111111
000000000000011001001100
000000000000011110111100
000000000000110000101111
000000000000001000101111
111111111111110001110110
000000000000000110111001
000000000000000110011110
111111111111111111110111
000000000000000111100010
000000000000000111101101
111111111111111100001011
111111111111111111001000
000000000000000011111111
000000000000000100100110
000000000000001010100001
000000000000001101101101
111111111111111110001111
000000000000000010011000
000000000000010000010010
000000000000010011010000
000000000000000011110100
000000000000001101110111
000000000000010010001111
000000000000001010111100
000000000000001101010000
111111111111110010100011
000000000000001101001110
111111111111111000010100
111111111111110101110101
000000000000001011100000
000000000000000010000101
111111111111101000011101
000000000000000011110011
111111111111111001100010
111111111111110000011000
000000000000000001101111
111111111111111100111000
000000000000000011101111
000000000000000001101111
000000000000010001000110
000000000000001010100100
111111111111111011010010
111111111111111110010000
000000000000001011000011
111111111111100001000110
111111111111111011000110
000000000000000000000010
000000000000000000111001
000000000000001111100011
000000000000001000010011
000000000000011101011001
111111111111101110011110
000000000000011110110111
111111111111111110100010
111111111111111110100111
111111111111101001010111
000000000000001010011111
111111111111111000011101
111111111111111011110100
111111111111111010100000
000000000000000010111010
111111111111111001001100
000000000000011101100101
111111111111111000111111
000000000000001011101100
000000000000010010010011
000000000000001110101100
000000000000011010101010
000000000000001100101000
111111111111111101101101
000000000000001011011010
000000000000000001110001
000000000000000000000000
111111111111111010100001
000000000000001001001111
000000000000010110011010
000000000000110111000100
000000000000000101110110
000000000000001100111110
000000000000010100110101
000000000000001101101100
111111111111111001111000
000000000000001111110011
000000000000001111101101
000000000000010010000000
111111111111111111010000
111111111111110110101110
000000000000000111000000
000000000000000001101111
111111111111110000100110
000000000000000100110110
111111111111111101010111
111111111111011111110110
111111111111111101110101
111111111111110100100001
111111111111101101011111
111111111111111000110110
111111111111111000000100
000000000000000100100011
111111111111111100010011
111111111111111111011010
000000000000000111111111
111111111111111001100110
000000000000001011100000
111111111111110010001001
000000000000001011100010
111111111111111111010000
111111111111111101010100
000000000000000001011100
000000000000001101010001
000000000000000100010000
000000000000001011000000
000000000000010110011101
111111111111111010110000
000000000000000010111100
111111111111101011100001
000000000000000011001000
000000000000001010101001
111111111111110010011010
000000000000000101101001
000000000000010111010001
000000000000011010001100
000000000000001000010111
000000000000000000110111
000000000000100110100011
111111111111111110010001
000000000000001010011100
000000000000010001111001
000000000000001111001101
111111111111100101100101
111111111111111000101100
111111111111100000111101
000000000000000111001110
000000000000000100101010
000000000000001010110010
000000000000000110001101
000000000000001010011001
111111111111000011000000
000000000000001101000100
000000000000100110010001
111111111111011011000010
000000000001011001000111
111111111111101111010101
000000000000011000100110
000000000000100001101111
111111111111000101101110
000000000010001000111101
111111111111110100011110
111111111110000101100111
000000000000000101101100
111111111111111011010001
111111111111111001000101
000000000000000110101001
111111111111111101001001
111111111111111100001001
000000000000000100001011
000000000000000001000111
111111111111111001110110
000000000000000111000111
000000000000000010010111
111111111111111110100011
111111111111111100101100
111111111111111010000010
000000000000000000001110
111111111111111110100001
111111111111111001000000
111111111111111111101101
111111111111111101101010
000000000000000011011111
111111111111111010011011
000000000000000100011101
111111111111111100110001
111111111111111101011101
000000000001000100001100
111111111111110100111111
000000000000011010010000
000000000000101000001010
000000000100001101000010
000000000101101110110010
000000000010100000000110
000000000000101111101110
000000000011101011100010
000000000011101111010001
000000000101010100000010
000000000000011111110100
111111111111101001111010
111111111111101101100001
111111111111111110100001
000000000000000101001011
111111111111101110100001
111111111111111000100110
111111111111110010011011
111111111111111010010110
000000000000000010000110
000000000000000011011001
111111111111111110010011
111111111111100110100101
111111111111100010000000
111111111111100110110101
000000000001010110001111
111111111111101100101010
111111111111011100111100
111111111111111010000000
111111111111111101111110
000000000010010010101110
111111111111110110010010
111111111111111001111101
000000000000010000010011
111111111111100100001011
000000000000001101000101
000000000000001010101100
111111111111111011111011
111111111111110101001010
000000000000101011111101
000000000000001001001100
000000000010000111100000
000000000001011001100100
000000000000111011011001
000000000100010001001010
000000000010101010100000
000000000100000101010111
111111111111110100101010
111111111111110000001011
000000000000000000001011
000000000000000000101011
111111111111110000010011
111111111111100011101001
111111111111110110011101
111111111111110110111101
111111111111110111011001
111111111111101010111001
111111111111101001100101
111111111111101111111010
111111111111000000111001
000000000001000011011000
000000000000000100100011
000000000010001101000101
000000000000100100010001
111111111111111110101101
111111111111011110001011
000000000000000001101100
000000000000000100100011
000000000001100010100100
111111111111100011010010
111111111110001010000001
000000000000000010001011
111111111111111111000011
111111111111111111010000
000000000000000000110110
000000000000001000101011
000000000000001101000110
000000000000001010101011
000000000000010000000100
111111111111111100001000
111111111111110111111001
111111111111110111000101
111111111111111000011111
000000000000001101101101
111111111111111101010100
000000000000001101101110
111111111111111010100101
000000000000000100011010
000000000000000100000100
000000000000001101110100
000000000000000001110110
000000000000001010001110
111111111111111011101000
111111111111111101000101
111111111111111000010100
111111111111111110111110
000000000000000000100011
000000000000001100011011
111111111111111000000100
111111111111110011001000
111111111111111010111010
000000000000000100011111
000000000000000101000110
111111111111110110001110
111111111111110111001110
111111111111111100100011
000000000000001001001001
111111111111110111110010
000000000000000001001100
111111111111111000001111
000000000000000011010010
111111111111111101101110
111111111111111011110000
000000000000000110001001
000000000000001000010001
111111111111111110110100
111111111111110011110100
000000000000000011001000
111111111111110011010010
111111111111101111000001
111111111111110111011011
111111111111111100101010
111111111111101110101110
111111111111110001010010
111111111111110011101101
111111111111110011011001
111111111111111110100001
000000000000001001101000
000000000000000001010111
111111111111111101010001
000000000000000110111101
111111111111110010011011
111111111111110111101100
111111111111111010000001
111111111111110011011100
111111111111110100111010
111111111111101110000011
111111111111110000111110
111111111111110111001001
111111111111111100111000
111111111111101000110011
111111111111101010000100
111111111111111011101001
111111111111110110100101
111111111111111011111100
000000000000000110111101
111111111111111100011100
111111111111110010000000
111111111111111100010101
111111111111110111101001
111111111111110101001011
111111111111111111111011
111111111111111010110001
000000000000000100010110
111111111111101110110100
