111111111101001101001111
111111111101100110001101
111111111100000000111011
111111111110101100010101
000000000010111000001111
000000000101100100010010
000000000100001100011000
111111111111100001001110
000000000011111000010110
111111111100100101010001
000000000010101101111110
111111110111011011111010
111111111101111111100101
111111111110010011001100
111111111000101011111000
111111110110000011110011
111111111110100100010110
000000000000001000000101
000000001000110110101011
000000000100010101001011
000000000010010111101001
111111110011100101101001
111111111110011100010000
111111111100101001101010
000000000000111111010110
000000000100100011111011
111111111111010111101110
111111111110110111101110
111111110011011011101101
000000001010111101010000
111111101101111101011000
111111111110110000011110
111111110111101010100101
111111100000000001011100
111111001110010000110110
111111101111100001100110
000000000100010001101001
000000000000100011011111
111111111110110110110011
111111110111011101010000
000000000100010110010011
111111111001001000100100
111111111101001010010111
000000000010000100101110
000000000011011110010001
111111111100110101100001
111111111010100100110110
000000000011101110101001
111111111101101001010001
000000000011010110111000
000000000101110110111001
111111111110000001110101
000000000001000110000100
000000000100100101010010
000000000100111100111100
111111111111110011111010
111111110110011101101011
111111111101110010111000
000000000010110100000000
000000000100001111001011
111111111111001111001101
111111111111000001000111
111111110011010100010111
111111111110110010001110
000000001001011010110101
000000001001101001111100
111111111111010000010101
000000000001000111010000
111111111111111010011111
111111111011101000110010
111111111001011001001011
111111110110000100011010
111111110111011111010110
000000000100110000010001
111111111101010001000110
111111111100011110101110
111111111010110101010001
000000000110000010011010
111111111101100011010001
000000000100010011001110
000000000001011111001100
111111111111001100101000
111111111000011010100110
000000000111011111000110
111111111000110000001010
000000000111010110110010
111111111101110101111001
111111111101110101001010
111111111011001011110011
000000000010110100001101
000000000010001010001010
111111111100111111101011
000000000101011010101000
000000000000100010111100
000000000101111010000010
000000000101001111100011
000000000100101011011000
000000000011001111010011
000000000111000001000100
000000001001000011010111
111111111000110011110111
000000000010001110001010
111111111010110000010000
000000000001110100100110
000000000000010011000011
111111111111000100010000
000000000100000001011000
111111111101000110100010
111111111101011011010001
000000001000000000100011
000000001100010010100101
000000000001010010111010
000000000000110101101000
000000000101100111100010
000000000000011101101100
000000000011100101011100
000000000011000111000110
000000000000011111101100
111111111100011000011011
000000000010000101111110
111111111100100101011110
111111111010010000000101
000000000001010101001001
111111111110111100111011
111111110101100100010001
000000001010001111001101
111111111100001101100010
000000001000001000000001
000000000001110011110110
000000000001011111011000
111111111100111000100100
000000000011101010010010
111111111100001001001010
111111111001100111010000
111111110111001000000011
111111111100110011010001
111111111011111001011101
111111111011101111010111
000000001000010100101001
111111111100101100000000
000000000101100000111100
111111111110110010110000
000000000011111000101100
000000000100011111100001
000000000100100000101100
000000000110000010001100
111111111111010101000100
000000000110000101111111
111111111110100111101011
000000000100111000001011
000000000001111111000110
000000000010011111011010
111111111001011011110110
000000000100110101100010
111111111011010111111000
111111111110001011111010
000000000000010001010001
111111111001100111110101
000000000011011111111111
000000000111011101110100
111111111111100000100011
000000000101111111010010
000000000101100111000101
111111111100110001001111
111111111010011110001110
000000000100000010001011
111111111111110101101010
000000000110111011010000
000000000010010001011010
000000000100010000011010
111111111110100101101001
111111111100100110101001
000000000011101010011111
111111111100010000100100
000000000000100011011001
000000000000000011000100
000000000100000011011111
111111111101001011101101
000000000110110000101010
000000000001011001101111
111111111110000101000000
000000000000010110010001
000000000000111010101101
111111111001100100010110
111111111100001011110001
000000000011101001001000
111111111111011001010000
111111111011000110001000
000000000010011011010011
000000000001010111101100
111111111110001000001010
111111111011001001100101
000000000000001010101001
000000000000111000001000
111111110110100110011010
000000000010011001010100
000000001000101010001001
111111111011100101100001
111111111000111011111011
000000001010000010101000
111111111100110101000010
000000000111111011101010
111111111010000001100100
000000000000110010011010
111111111100110111000010
000000000001011001000011
000000000010100101111010
000000000000000101010110
000000000011000001111100
111111111111100010001101
000000000101100011000111
000000001010001111000100
000000000110111111110101
000000000010011001010001
000000000110110110111111
000000001001010101000011
000000000011110011111001
111111111110011101010010
000000000011101110110101
111111111110100001111110
111111111111011001011111
000000000011111001110001
111111111111000010111111
000000000101101111101001
000000000101001110101011
000000000110010011000000
111111111100111111101011
111111110101001100101011
000000000101011000001110
111111111110010001111110
000000000010001000000101
111111110101010000110101
111111111011001100101111
000000001001000011101110
111111111100010110011110
111111111110010111011000
111111111111010001111001
111111111100100011101100
000000000101010100010111
000000000001110100110110
000000000010010011001000
111111111100011011100110
000000000001101001101110
000000000011110010101111
000000000000001101100111
000000000100110101110101
111111111110011100010001
111111111011010001110100
111111110110111011000100
111111111100000001000100
111111111110011001000000
000000000000011100000100
000000001001000010111001
000000000011010001010010
000000000101000010100110
000000000100001000110010
111111110101011101111010
000000001000001000111010
111111111011111001110001
111111111100010010011110
111111111111101010110010
000000000001011100011011
000000000001011110001111
000000000110101100110010
111111111111110000111010
000000000100101000101001
111111111000100100111001
111111111101100111101111
111111111101100000000110
000000000000011111100010
000000000101101110010010
111111111000111110011011
000000001000000011001100
000000001000001011110111
000000000001011100001101
111111111111010111101011
000000000100100111001110
000000000000001011011011
000000000010110101010100
000000000110101111000000
000000000110001000010100
111111111100111111011100
000000000001111000100010
111111111101101100001010
111111111111000011000000
111111111011111110000010
000000000001100111111111
111111110110010101110011
000000000000111001111010
000000000111101110001110
000000000010111001011011
111111111101101111001110
000000000110010010010101
111111111110001101101010
000000000011011010000110
111111111111110111000101
111111111001011001000010
111111111101101101111100
111111111001101110011000
111111110011000000101100
000000001000011111111010
111111111101000100111011
000000000011110110100010
111111111001010011010100
111111111110111110000000
000000001100111110101001
111111111111010010100101
111111111110000011110010
000000000000111001011111
111111111110001100110101
000000000001101101100110
111111110111110100000001
000000000001010111001101
111111111110111010001001
111111111111110001011001
111111111101010000110111
000000000010110100000111
000000000100010010001000
000000000111101011001010
000000000001101001111111
111111110110110011111011
000000000011101001000011
111111111101110000010111
000000000100001000110100
111111111111011111101100
111111111111011111101011
000000000000011100111000
000000000001110001100010
111111111101000001101101
000000000000000101011001
000000000000010100001111
111111111110001111100110
000000000000110000001111
111111110110010100010100
111111111101000110101010
000000000000000011000111
000000000000000010001000
111111111111001001100000
000000000000000001100010
000000000010110110100110
000000000000000100011011
000000000011111111001100
111111111100110010001110
111111111110100000111000
111111111110000111100110
111111111011111010100110
111111111111101110001000
000000000011101011011011
000000000000110000011010
111111111111010111111111
111111111111000101110000
000000000000011010001110
000000000000100001101110
000000000000000011010001
111111111110001110010001
111111111011000011001111
111111111001011110000000
111111111100101111011010
111111111110010010101000
000000000011100111110011
111111111111101001101001
111111111100011111110010
000000000010001101110111
000000000010111101110000
000000000000111101101011
111111111101101111101100
111111111110000000100001
000000000100101001110000
111111111001011000111101
000000000001001111101110
000000000100110010011001
111111111110111100011101
111111111111110000110001
000000000010110011111001
000000000011001011111001
111111111101010110111100
000000000011001001110001
111111111111101010010001
111111111101100011100001
111111111100001100001101
111111111110100101100010
111111111101101000001000
111111111111011000101111
000000000000100011001000
000000000001001010110100
111111111111100000111010
000000000010000110111001
111111111111100000110110
000000000001001001011111
000000000001011111010000
111111111011011010000111
000000000000111111100100
000000000001110011111000
111111111111011011011110
000000000010111000110110
111111111110010001011001
111111110111001000010011
000000000100101101101000
111111111010100010001001
000000000000001001011101
111111111111011100000111
000000000000110000000000
111111111100110100101110
000000000001101110000101
111111111111000000110001
111111111100111111001111
111111111110001010101101
000000000010000010100000
000000000000001101001010
111111111111000000110000
000000000010100001010010
111111110111011000101110
000000000010100000100001
000000000001101100111100
111111111110011001101110
111111111100001000011111
111111111111101000011110
000000000010101100000011
111111111111001100101111
000000000010111011101100
000000000010110010111001
000000000000001000111001
111111111111111010011000
111111111011011011111001
111111111010101111000001
111111111110010010100000
111111111111001111111111
111111111110000100011101
000000000000001100010011
111111111011110000010111
111111111111011101011000
000000000000010011010101
000000000010110010000010
000000000101000110101110
000000000110110100000101
000000000100000100101101
000000000011001100001000
000000000101001111111111
000000000001000110100101
000000000001100000001101
111111111111000010000011
000000000010011111110100
111111111101001101100010
111111111010001100100111
111111111110001001101011
000000000101000001011110
000000000010010000001111
111111111010100010111111
111111111110000100111110
111111111111100101100000
000000000001010111111101
000000000011010101101111
000000000111011011000101
000000000010011101011000
000000000011111010011110
000000000110100101000001
000000000010100100101010
000000000100001110101110
000000000100001000010011
000000000011000101110010
111111111110111000011000
000000000000001110010000
000000000010001010100010
111111111111010000110110
000000000001010111111001
111111111101101001110000
000000000010011111011110
111111111001101111010101
000000000000110101000100
111111111110110001011000
111111111110110011001110
111111111110100000110000
000000000000011001010110
000000000000000100010101
000000000001001100101010
000000000000101111000101
111111111101101011110110
000000000001001000111011
000000000000110000100000
111111111100010001110111
000000000011010111101111
000000000011000101000000
000000000101001111111100
000000000001110101010011
111111111100100010001111
111111111010010001100101
111111111110111001111010
111111111100001101010010
111111111011010011110100
000000000010100000101101
000000000000001010100011
000000000001000111011001
111111111011110100100100
111111111111011011011110
111111111111101011001001
111111111101111011101110
111111111010100001001110
111111111101110000000000
111111111101100010010101
000000000000010001000101
000000000011110001010000
000000000001000110110110
000000000000101001010111
000000000000100101011011
000000000010011011100001
111111111111110111001010
111111111000101011100110
111111111100010101100100
000000000000010001110011
000000000000010001111010
000000000000100000100001
111111111111000111101000
111111111101001111110100
000000000011001111001011
000000000010101111000110
111111111111010111110000
000000000001111111000110
000000000000101100001000
000000000100110010101100
000000000010000110010000
000000000001001000011000
111111111110010100110010
000000000010101111011001
000000000001100100110000
000000000101000001101110
000000000010010010010010
000000000100000000111011
000000000001001001011011
000000000001010111110011
000000000011100110001101
000000000100001110010011
111111111111101111000010
111111111101011100111110
111111111111011100101010
111111111010001010101011
000000000000011110101110
111111111101110100011001
000000000011101000011011
111111111100110001111000
000000000000110010100010
000000000011011000001011
000000000010010100100100
111111111111101101001011
111111111111110011111000
000000000010000100101000
000000000010100010001111
111111111000010000100010
000000000100010100110000
000000000001011000010101
111111111110100011000011
111111111110010000110100
111111111101111011101000
000000000001100000011001
000000000001011001011000
111111111110000100000110
000000000001101101111101
000000000000010110101001
111111111011000000011110
000000000001111001011011
000000000001100011100000
000000000010101101100111
000000000011101111011001
000000000001010110111101
111111111110110100000000
000000000000101000101001
111111111001110000010101
111111111111100001100101
111111111111110011110100
000000000001000000000111
000000000010111100010100
000000000001101111010011
000000000001000100110100
111111111111110001000010
111111111011100111111000
111111111111100111011010
111111111000110010110001
111111111100010001110010
000000000010011100101100
111111111100010101011010
000000000000000010010100
111111111101010100110001
000000000011101001111001
000000000010110011111001
111111111100101011011010
000000000001100101011011
000000000011000011011111
111111111101011101111100
000000000010100010111010
000000000001010011011111
111111111101011111000111
111111111100000000010001
111111111101011000101100
000000000000111000010011
000000000000010011101100
000000000011001010000111
000000000001110001000101
000000000001101110011010
000000000000111100110001
000000000011000111111000
111111111110111001100111
000000000001100100111000
111111111111101100000011
111111111100111010111100
000000000000010110110101
111111111110011101100011
000000000010010000011111
111111111110001010010010
000000000010010101011101
000000000000100111100000
111111111110101110101010
111111111111001100100100
000000000001101110010101
000000000000010100100011
000000000000011110111101
000000000000001101000111
111111111111110010111100
000000000000001011000010
000000000000001001111010
111111111111111110110011
111111111111111110101111
111111111111110111010100
000000000000000001011001
111111111111111111111011
000000000000001110101110
000000000000000010100110
111111111111110011110010
111111111111101010000011
000000000000000011100100
000000000000000001001101
111111111111111111011111
111111111111111101001111
000000000000000101100010
111111111111111011010100
000000000000001000111011
000000000000001101010011
111111111111110001011111
000000000000011111100010
111111111111111111011000
000000000000011010111111
000000000000000110111111
111111111111111100110100
000000000000001010000111
111111111111110100100010
000000000000001001100011
000000000000001010011010
000000000000000010001011
000000000000000010101111
111111111111110110100001
000000000000001000110010
000000000000001100111000
000000000000010100111011
000000000000001110011101
111111111111111110000110
000000000000000110111010
000000000000001001000001
111111111111110111000010
111111111111111001110001
111111111111110011101011
000000000000010000100010
000000000000000100101110
000000000000001001101100
000000000000000000110111
111111111111110110000110
111111111111101110101111
111111111111110001110010
000000000000001010000010
000000000000001001110011
000000000000001110001011
000000000000010010000000
000000000000000101110000
000000000000000100111101
111111111111111100111010
000000000000010111010001
000000000000011010000001
000000000000001011011001
000000000000000001111000
000000000000001110010100
000000000000000100000000
000000000000001111110010
000000000000001101001000
000000000000000100100010
111111111111110100010001
111111111111110111000110
111111111111101100111001
000000000000001101111100
111111111111110010011001
111111111111110110111011
111111111111110100000110
111111111111110001010100
111111111111100111010011
111111111111101101011110
111111111111111111101110
000000000000000010001100
111111111111110011010001
111111111111110100000010
111111111111101110101011
111111111111110100100000
111111111111111001100011
000000000000000001111101
000000000000000001010111
000000000000010010111101
000000000000010110110000
000000000000001000001101
111111111111111001110110
000000000000000100110010
111111111111111010001100
111111111111111101001111
111111111111100110110000
000000000000001010101011
111111111111111001000010
111111111111110110011100
111111111111110110111111
111111111111111111000001
000000000000001111001110
111111111111111110110010
000000000000000101111111
000000000000000001111110
111111111111101101100101
111111111111101111100000
111111111111111000001111
000000000000000000110011
111111111111101101010000
000000000000000110101110
111111111111110011010101
000000000000001110101111
000000000000011001000111
000000000000010100001111
000000000000010100111000
111111111111111010100011
000000000000001010110101
111111111111111001110011
000000000000000111101111
000000000000000001010100
000000000000001100010011
000000000000000010101100
000000000000000100011010
000000000000000111000010
000000000000000011011100
000000000000010011111100
111111111111111110001001
111111111111111101011010
000000000000000001100000
111111111111110100011010
000000000000001110000001
111111111111111001000100
000000000000000100110010
111111111111110101110001
111111111111110101001000
000000000000001000000100
111111111111101011011000
000000000000000000001110
000000000000010011001000
000000000000010000010000
111111111111111001010111
111111111111111000100100
000000000000010011110100
000000000000010100111101
000000000000001110011001
111111111111011010100110
000000000000001101010101
111111111111110010011000
000000000000100000111001
000000000000100000111001
000000000000000101010110
000000000000001100000010
000000000000011000110000
111111111111111000010111
000000000000001010100100
111111111111101101111010
111111111111111110010111
000000000000000011001010
000000000000000100001010
000000000000001100011011
111111111111110011111100
111111111111111000000110
111111111111111101001110
111111111111111111111101
111111111111111110011100
000000000000001100010111
000000000000001101011001
111111111111110111011101
111111111111111010110110
000000000000011010101100
111111111111110101100100
111111111111111010010110
111111111111111110110001
000000000000001001110101
111111111111110001101011
111111111111101110110111
111111111111101001111000
111111111111111111100001
000000000000000000010110
111111111111101110010010
111111111111111100111101
111111111111100011100110
000000000000000001001011
111111111111101111011010
111111111111111010100000
111111111111111000011000
000000000000000101010110
000000000000001000011011
111111111111101110011110
111111111111101101010110
000000000000001000000010
000000000000000111010100
000000000000001000001000
111111111111111111111111
000000000000001111101110
111111111111110101101000
111111111111101001101000
111111111111110101000010
000000000000001110110001
000000000000000110001100
000000000000011100100111
111111111111111111000110
111111111111111010111100
000000000000010111011110
111111111111110000011100
111111111111111011001001
000000000000000111011010
111111111111111010001000
111111111111111001111010
000000000000000001100111
111111111111111011011101
111111111111110011011000
000000000000001110111000
111111111111111101100111
111111111111100101100100
111111111111111011000001
111111111111011101000000
111111111111111001001001
111111111111100101110011
111111111111111101110000
000000000000001000011011
111111111111111001011100
111111111111100111011111
111111111111101010101011
000000000000010001011000
111111111111111000010000
000000000001101011010001
000000000000000001010000
000000000000000011100010
000000000000000000001011
111111111111110111011110
111111111111111111111001
111111111111110101110011
111111111111111110000010
111111111111111001000011
111111111111111111001001
111111111111111001010011
111111111111111111010100
111111111111110000000100
111111111111110000100000
111111111111100111101011
111111111111101101110011
000000000000001011110110
111111111111110101101110
000000000000001000011100
000000000000000000000000
000000000000000001000001
000000000000000110001000
111111111111110011000100
111111111111101101001100
111111111111110100110110
000000000000010100100111
000000000000000110111110
000000000000001010010011
000000000000000001000101
111111111111111110010000
000000000000000000000100
000000000000000111111010
000000000000000011111000
111111111111110100100111
111111111111111001111101
000000000000000111110011
111111111111111001011010
000000000000000111110011
000000000000000111011011
000000000000000000111111
000000000000000100111010
000000000000000000001100
111111111111110100011100
000000000000000000001110
111111111111110010000100
111111111111111000100010
111111111111111000010010
000000000000000100110000
000000000000000111101101
111111111111101101111100
111111111111100111110111
000000000000000001011011
000000000000010101101001
000000000000100010000011
000000000000011001110010
000000000000010111010001
000000000000000011011010
000000000000010100010010
111111111111111000011101
000000000000010011100100
000000000000000111000101
111111111110110101100111
000000000000101011110101
000000000000101111000101
111111111111101111100111
000000000000010011111011
000000000000101110001110
000000000001000001010111
000000000001100101100011
111111111111010110011001
000000000000011100000000
000000000000101100010111
111111111110111110011111
111111111111111101111000
111111111111110100101111
111111111111110110101011
111111111111110101110000
111111111111110110100111
111111111111110111100100
111111111111111000101110
111111111111110100010101
000000000000000101000011
000000000000000101111101
000000000000000110111010
000000000000000100000110
000000000000000010111111
111111111111111101001000
000000000000000001011101
111111111111110111111111
111111111111111110001111
111111111111111010001000
000000000000000000100100
111111111111111111011111
111111111111111111110100
111111111111111111010100
000000000000000101010100
000000000000000010001111
000000000000100011101110
111111111111110111011100
000000000000001111011110
000000000000100000101110
000000000010100011100010
000000000100011110101100
000000000001000001001011
111111111110111101110010
000000000010010011011100
000000000100001100110001
000000000001101011110000
000000000000001111011100
000000000000000011100011
000000000000000000011011
000000000000000100010110
000000000000001010011011
000000000000000011011000
111111111111111110011011
000000000000000100110111
000000000000000000010110
111111111111111010101010
111111111111110100000110
000000000000000010110000
111111111111111100110011
111111111110111011110101
000000000000000011100011
000000000100011101011011
000000000000100010101111
111111111111011001100111
000000000001000100000011
000000000000100010111110
000000000010111101100101
111111111111011010010000
111111111111110100000011
111111111111010100111100
111111111111011010111111
111111111111000101101010
000000000000011010111011
000000000001100101001101
000000000000000010110001
000000000010110001101001
000000000000010000100101
000000000010100001110111
000000000000001100011001
000000000000100111010101
000000000011110101110111
000000000100101000011100
000000000011000100101101
111111111111111100010010
111111111111110110011000
111111111111110011001101
111111111111110100000011
000000000000000110110100
111111111111111100011001
111111111111111110011101
111111111111111000010110
111111111111111101010010
000000000000000001111000
000000000000000001001010
000000000000000000010100
111111111110111000110111
000000000001010110101110
000000000001010110011001
000000000000010100110001
111111111111101111100011
111111111111111011110110
111111111110111110100000
111111111111010001101100
000000000000101110101001
111111111111100100010101
000000000000101101000100
111111111111101010011001
111111111111111101001110
111111111111110110111101
000000000000000000101101
111111111111110110111010
111111111111111001111101
111111111111111100100010
000000000000000001011100
000000000000000110010110
111111111111110110010100
111111111111110101100010
111111111111110101101111
111111111111111001011001
000000000000000001100110
000000000000000011101000
000000000000000111010110
000000000000000111010001
111111111111111101110111
111111111111111011101110
111111111111110001000101
111111111111110011001011
000000000000001000010011
111111111111111110111101
111111111111111110011100
000000000000000111101111
000000000000001001001110
000000000000000100000010
000000000000000010001110
000000000000000000110100
111111111111111000110010
111111111111111100000110
111111111111111010100110
111111111111111100011011
111111111111110110101011
000000000000000100111101
111111111111111111000100
111111111111111000101101
111111111111110111111100
111111111111111101100101
111111111111111100011110
111111111111111000111111
111111111111111010110011
111111111111111001001110
111111111111110111010000
111111111111101111000101
111111111111111000110111
111111111111110111111000
000000000000000001000110
000000000000000110001010
111111111111110110111100
000000000000000110101100
000000000000000011010100
000000000000000011011001
000000000000000001010001
000000000000000010010011
000000000000000011100010
000000000000000001011101
111111111111111111110110
111111111111111111110001
000000000000000101111111
000000000000001000000001
000000000000000011000100
000000000000000010110010
000000000000000001111100
000000000000000100000110
111111111111111101011011
000000000000000001001011
000000000000000011011101
000000000000000010001100
111111111111111101010111
111111111111101111100111
111111111111111110011110
000000000000000000111101
111111111111111011001010
000000000000000010100010
000000000000000011100100
000000000000010001111011
111111111111111010111010
000000000000000100011001
111111111111111011100101
000000000000000001110110
111111111111111100100001
111111111111111100001000
000000000000000000101011
000000000000000011110101
