000000000000000010110110
111111111111100101101011
000000000110001100101100
000000000001100110100001
111111111100011110100011
000000000010000100111111
000000000001101011000000
000000000110110000101110
111111111001101111101010
000000000110000001101100
000000000011100001001110
111111111101110100101010
111111110110010010110110
111111110011111110011010
000000000010100000110010
111111111010101100000010
000000000001100101010010
000000000011011101111000
111111111000011100111110
000000000010001010010111
111111111001000010010001
111111111111011111111010
111111111111111110111011
111111111111011110000010
111111111110011101100010
111111111001100111011101
000000000011110011000101
111111111011101000100000
111111101010111111000000
111111100100111011110000
111111111010110110001100
111111101010011011111000
111111100101000011001000
111111101100111010101110
111111100110010000011001
111111011001001000101010
000000000100010111001111
111111111110100100001100
111111111101001000101110
000000000000011101000110
111111111100111100111011
111111111000101011010010
000000000110000000010100
111111111010010100000011
000000001001000110011010
111111110110011110111010
000000000101110010011101
111111111100011101010000
111111111101000111010110
111111111110100001011010
111111111101111111111100
111111111011111010110001
111111111011011100000101
000000000101110001100001
000000000101101111011011
111111110001101011100010
111111110110010101001000
111111111101100001000101
000000000101010001111111
000000000100100101111110
111111110110111001111000
111111111010111011011010
000000000100101100000000
111111110101111000101010
000000000010000101011110
111111111101000101110101
111111111110111010001011
111111110010010011111011
111111111011000000100100
111111111011111100101000
111111111110010011001000
000000000100110100111000
000000000100000010001100
111111111011101111001111
111111111000010001010100
000000000111011010101101
000000000101001110110000
000000000110100101000000
000000000101001100101001
000000000011001101101010
000000000011011111101100
111111110010100000101101
000000000000011000011111
111111111011001110100001
111111111110011001100000
000000000111110111011010
111111111110100010000010
000000000001111011100010
111111111110000010001000
111111111001010110011111
111111111010101001001010
000000000011100000110011
000000000100100000111011
111111111111100101101110
111111111110111010111001
000000001011000000110010
000000000111010010001010
000000000100001111101111
000000000110110001010100
000000000010111000010101
111111111100011000000110
111111110110110001111000
111111111000011101011011
000000000010101000001000
000000000010001101000010
111111111010110111000001
000000000001001101001110
000000000000110100001111
000000000010011011010111
000000000010100111110001
000000000100111010000101
000000001000001111100101
111111111110101011010010
000000000000101111101111
000000000100101101010101
000000000101000010010111
000000000100111000010110
111111111100111110011111
111111111110000011110010
111111111001100001001000
000000001011001100000000
000000000000101101101110
111111111010100110111000
000000000110111101101111
111111111110001110101011
111111111100110001111010
000000000101101000000000
111111111111100100100000
111111111100000100010001
000000000010100101001110
111111111011111001111001
111111111011110111010111
111111111111111111000101
000000001010100110010111
000000000000001101001110
111111111011100000001000
111111111010010100101000
000000000101000011110100
000000000100001110100110
111111111001110011011100
000000000110001001111010
000000000100111010001010
000000000001111111110100
000000000011111110011001
000000000010001010000011
111111111011000101100100
000000000010010000000010
111111111101011111101101
111111111110000001110010
111111111111111101000010
000000000010000010001100
000000000100100011001101
000000000010111000111001
000000000010001001011010
111111111100100010101010
111111111010111000111001
111111111101011011001001
111111111000101100011111
111111111011111011110011
111111111101001011010110
111111110111100110111100
111111111010000000100101
000000000001001001101100
111111111010001001100000
000000000010000000011111
111111111011110111011010
111111111110101110110101
111111111101111111110101
111111111111011100101100
000000000011011000011010
111111110110100001100010
000000000100010000011001
000000000000000101000101
000000000000010000000110
000000000010111100110100
111111110111000010101101
000000000101110001100000
111111110011110001101111
111111111100010011111111
000000000011011101010011
111111111110110101000110
111111110110100011011100
111111110100111101101100
000000000110110011011010
111111111000110101000111
000000000000100000110110
111111111111010011100011
111111111110101100101101
111111111001111110110001
111111110110101100001001
000000000110110111110111
000000000000010000101011
000000000011101110101000
000000000110001001000111
000000000010100011011101
111111110111111100100001
111111111010010010000111
111111110100101110010011
000000000010010001001001
111111111111000110001100
000000001000101000011101
111111111111110010111111
111111111011101011001010
000000000000001111101000
000000000100011010000011
000000000000101000010011
000000000011000100110101
111111111110101111101101
000000000111011100110001
000000000111101011001101
000000000000100101001101
000000000100101110110111
000000001101101010001001
000000000101000101110100
000000000001000011110010
000000000110010101111000
000000000100001101010011
111111111111111111011001
000000000111110100000000
000000000001110101110001
111111111101011001010100
000000000100111011110100
000000000000111010000001
000000000001000011101100
000000000110001001100011
111111111110011001000101
000000000110000001001001
111111111110100010110101
111111111100111000000110
111111111110011100000111
000000000000000010001100
111111111110110001010011
111111110110101010000011
000000000001011011000011
111111111010111111100001
111111111100101101111010
000000000001000110000011
111111111110100001110001
000000000000101011100111
111111111111110001000011
000000000001000110001000
111111111011111101110011
000000000001110100011111
000000000001111111100101
000000000000011000110010
000000000011111100110010
111111111101110110100100
111111111011001110000001
111111111101111001111111
000000000111001010100011
111111111101101110111100
000000000101101111001001
000000000000010010100000
111111111100011100101101
111111111011000000000001
111111111111101000001111
000000000000000100101000
111111110111100001011110
000000000010001100000110
000000000100110011011111
111111111100010111011110
111111111111101100100110
111111111110111110001101
111111111010100011001101
000000000000011100111000
111111111100011110110010
000000000001101001011101
111111111111010111100101
111111111110011110101101
000000000111001000000010
111111111010011001010101
111111111111001011010100
000000000100001010000001
000000000000001010000011
111111111111000001110100
111111111111100101001101
000000000101011110010100
000000000001110010010000
000000000010010001001110
111111111001111110110110
111111111011010001111001
000000000001000001011011
111111111110101000110100
111111111101010110111000
000000000000101100000100
000000000001001010110111
000000000100000111001100
000000000001010110110101
000000000010010011101100
000000000100111110101100
111111111100111100100011
111111110110010100000110
000000000011111110100011
000000000100000111011001
111111110110100111100010
000000000010000001111101
000000000111111000101110
111111111110001100010101
000000000111010000100100
000000000001010001101110
000000000000111110100110
000000000001110111011111
000000000011110111100011
111111111011011111001000
000000000011101001101011
000000000001110110101010
000000001000000101010101
111111111101010000101100
000000000100011110100010
111111111011111110111110
111111111111001110101011
111111111101101111101110
000000001000010111111010
000000000001101111011010
111111111010101000101010
111111111011100101111000
111111111100111110000101
000000000101111001001011
000000000010010000011000
000000000101101111111001
000000000011011101001100
000000000011100010101000
000000000100100000000000
111111111110111110010100
111111111110110011001100
000000000001010001111011
000000000001010000011011
111111111110101011010111
000000000000101100001110
111111111010110100011101
111111111010011110000001
111111111101111111011010
000000000100100010010110
000000000001000000100001
000000000110011011001111
000000000010001110111101
000000000000000101100111
000000000000110101101101
111111111101001110111010
111111111111001000011101
111111111110110111111100
111111110110110010111110
111111111101110011100001
111111111111100101101110
111111111011110111111110
000000000001111111101110
000000000000111100011011
000000000100100111110100
111111111001011011001111
000000000010001110010010
111111111101000010000010
000000000000000001100111
111111111111101010110100
000000000001110011010100
111111111010011100111111
111111111010010101000110
111111111101101010001000
111111111010111001000100
111111111110000011011000
111111111110101011110111
111111111001101000011101
000000000000000010000011
000000000010010111000011
000000000010111101111100
000000000010011111010011
111111111110001100011110
111111111001111101111101
111111111101000111001110
111111111110001101011111
000000000001000000101000
000000000100110010110100
000000000001010101111100
000000000001111010101011
000000000100001101011100
000000000000010010101110
111111111101111011100111
111111111100110110101010
000000000000101100110011
000000000011011110100100
000000000001001100011000
111111111110001100100011
111111111110100110010011
000000000101001101101000
111111111101100010010100
111111111110101101111110
000000000010100111100011
111111111010000010100110
111111111100000101100101
111111111100011000101001
000000000010011011001010
111111111110011000000100
000000000010001010101010
000000000001110001110010
000000000010010010000101
111111111111010011001011
111111111101011011010011
111111111100101111100110
111111111111111111011111
000000000000000110111100
111111111011101100101111
111111111111000010001111
111111111000111110010101
111111111000000001111000
111111111101101100010011
000000000000110110000101
111111111010000011111101
111111111111101000000011
000000000001110011101111
000000000010011100000110
000000000000010101011010
000000000001010010000111
111111111010100101000101
000000000000011010001011
000000000001000100110110
000000000100100000001101
000000000000011111101110
000000000001001010011000
111111111111000100011100
000000000011000000101101
111111111101100011101110
111111111100111000101011
111111111110111110100100
000000000000101010000000
000000000100011101111101
000000000010101001111001
111111111011101011110001
111111111111111111111001
000000000011110110110001
000000000001100001111100
111111111110000000100000
111111111110011001000100
111111111001010110011010
000000000010111011101011
000000000000101011010011
000000000110001010100001
000000000111111100010001
000000000010101001010011
000000000111010000000111
111111111110111101100000
000000000000110011000100
111111111111110100000111
000000000000111000000010
000000000010011101111110
000000000011100101000011
111111111111101101001011
000000000000101101001001
111111111101111101101111
000000000110100101101111
111111111111101001011011
000000000000100100011100
000000000101011000110000
111111111111011001110101
000000000011000101100101
000000000100111110011010
000000000111010111100100
000000001000100101100010
000000000100110110100111
000000000000100001100011
000000000001110100100000
000000000010011011011010
111111111010101110001100
111111111111010011111001
000000000010000000100010
111111111010000110011110
111111111110011001110001
000000000100001001110001
000000000001110001001100
111111111010001010101011
000000000010011010101001
111111111010110111111011
111111111111000101100011
000000000010001001011101
000000000011100010010000
000000000001111011110110
111111111001000001101011
000000000000011111111100
111111111101011101000110
000000000100100111011100
111111111011101000010111
000000000001111011110000
000000000101100110010000
111111111101001000000110
111111111010000110000101
111111111111100110100001
111111111100110000000110
111111111110001110010101
111111111110010101000010
111111111010111111010100
111111111111100011010010
111111111110010100100101
000000000010100011010010
000000000010001011010110
000000000001110000010010
111111111111011111011101
000000000000100111110011
000000000101101001001000
000000000000100110001000
111111111110001000011100
111111111001000011011111
111111111111001000001101
000000000001111001011011
000000000001101000110111
000000000010011011001101
111111111000110001110101
000000000001101100001000
111111111101101011001011
111111111011011010110000
111111111100010011010011
000000000100100101101011
111111111011111101100001
000000000010101001101001
111111111111001000011101
111111111010100110110100
000000000011011011111011
000000000000010010010000
111111111111100000001010
000000000011001100101111
000000000011110100101110
111111111100111010101101
000000000010111100111111
111111111111000111001101
000000000000001011010100
000000000111110011100010
000000000100111100100000
000000000011100101011110
000000000101110000101000
000000000011001011001010
000000000001001111001001
000000000100100011011110
000000000001010011111000
111111111101011111001000
000000000001000011011001
111111111010010000111010
111111111101111001111101
111111111111111011101010
111111111100100011110100
111111111111000111111100
111111111110100010011010
111111111101000101000011
000000000000000000101000
111111111000110010111100
000000000011000010000011
111111111110100100000101
111111111100111101001111
000000000100010001111100
000000000001011110100000
111111111100110101110110
000000000010010001110110
000000000001001101001100
111111111111100010010001
000000000001000101100010
111111111100101010100110
000000000000101011100011
000000000010111110101010
111111111100101111001101
111111111111000011100101
111111111101001000101000
000000000000110100010011
000000000011010010011101
000000000011001001101001
111111111111001010000101
111111111111000101111101
111111111101111101010100
111111111111101101001010
000000000000111011110110
000000000101010001010011
000000000101010000000001
000000000010000000110010
000000000000111001001110
000000000010001001110101
000000000011000101110100
111111111111001010110000
000000000001000010101101
000000000011010001011011
000000000010011110011110
111111111110101100110000
111111111111111001111110
000000000000010101011001
111111111111011111110001
111111111110010011110011
111111111111011000001001
000000000001111100010110
111111111101011011111110
000000000010110001011010
000000000000100101010110
111111111100110011100010
000000000110100001111100
111111111111001011100110
000000000011101100000000
111111111010011110010111
111111111110011000110011
111111111001010110010101
000000000000100100110010
000000000100101111110101
111111110111001100001101
111111111001010001010110
111111111110101101101101
111111111111100001010010
111111111011011001101100
000000000001101100001000
111111111000101111100111
000000000011111000011111
111111111111000001010011
000000000010000111011101
000000000001101000100111
000000000001111110111111
111111111110111011110000
000000000010010000101001
000000000100001101100000
000000000101011111001010
111111111101000111100000
111111111100001010111000
000000000000000010011000
111111111111101100010101
111111111111100001111010
000000000000001101101101
000000000000000010111110
000000000000001011010110
000000000000011001000110
111111111111110110111111
000000000000000111101110
111111111111110101100111
111111111111101011111110
000000000000010000011110
111111111111101101111011
000000000000010101011111
000000000000110011110000
000000000000011000111000
000000000000001000000100
000000000000001100010001
111111111111111100111000
111111111111110110100101
000000000000100100111011
111111111111111000011101
000000000000100111000001
000000000000100000000111
000000000000000011111001
000000000000000101001010
111111111111110001100111
111111111111110110101010
111111111111111110100000
111111111111100100010001
000000000000010010101000
000000000000000001101000
111111111111101110010111
000000000000011001100011
000000000000001110001100
000000000000001110101100
000000000000001111011101
000000000000001010111101
000000000000001000001100
000000000000001011100111
000000000000001011000110
000000000000000001101111
000000000000001100011000
000000000000010000100001
000000000000010111111111
111111111111111001111101
111111111111111000000001
111111111111111101110000
000000000000000011011101
000000000000001110110101
000000000000001011000100
000000000000100000101010
000000000000000100011000
000000000000010111101001
000000000000000100011000
000000000000000010111000
000000000000001110000110
000000000000001001101110
000000000000001001010001
111111111111111111001011
111111111111110001111011
111111111111111110111100
111111111111111110100010
111111111111101111010010
111111111111111100010010
000000000000011010011000
000000000000001110001101
000000000000001111011101
111111111111111010100110
000000000000000111111010
000000000000001001010101
111111111111111010010011
000000000000001001111111
000000000000010000001101
000000000000011001111101
000000000000010001100101
000000000000001001111010
000000000000011010010101
000000000000001101110010
000000000000010000010111
000000000000010110000001
111111111111101110110100
000000000000001100001001
000000000000001010011010
000000000000000110110011
111111111111111000001001
000000000000000111010110
000000000000100000010010
111111111111110001010101
111111111111100111110101
000000000000001110010101
111111111111111100011000
000000000000001000011000
000000000000011101000100
000000000000001101101000
000000000000011011011110
111111111111110010101100
000000000000010100101010
000000000000010010100111
000000000000010110000111
000000000000010001110011
000000000000010100000011
111111111111101101101011
111111111111110010100011
111111111111110110110001
111111111111111110011001
111111111111101100000011
111111111111101000011110
111111111111111101001111
000000000000000001000010
000000000000010000101010
000000000000001110100010
111111111111111100101001
000000000000000100011011
000000000000010111000011
000000000000010010000011
000000000000010001000101
000000000000001001100110
000000000000010011111110
111111111111110111000100
111111111111111111110001
000000000000000110011000
000000000000001111101101
000000000000010000001101
000000000000010000010110
000000000000101010001111
000000000000000100110000
111111111111111101110111
000000000000010010110110
111111111111111001111001
000000000000000110101101
111111111111110000000010
000000000000000110100110
000000000000010000110001
111111111111111100110010
000000000000001010001100
000000000000000011010000
111111111111111011001001
000000000000000010101100
111111111111111101001011
000000000000000000110001
000000000000000111110011
000000000000000011000110
000000000000000011111010
000000000000011111100011
111111111111111100001011
111111111111111001000001
000000000000100110101110
111111111111111010100001
000000000000000101010011
000000000000011010000010
000000000000101101111010
000000000000100010111011
000000000000010011111110
000000000000000010001101
000000000000000010011001
000000000000001101001101
000000000000000101101000
000000000000000001010010
000000000000000001110000
111111111111111101100101
000000000000011000010100
000000000000001110101110
111111111111111010101001
111111111111110111111100
000000000000001111011001
111111111111111101100101
111111111111110011100111
111111111111110111000011
000000000000010011101111
000000000000000111110111
000000000000010011100011
000000000000010101111110
000000000000001001011000
000000000000001000001011
000000000000010100111111
111111111111111011011110
000000000000010010100101
111111111111010110011011
111111111111110001100011
000000000000000100010000
111111111111110000011110
111111111111111001110111
000000000000000001111000
111111111111101101000110
111111111111001100001101
111111111111110101010110
111111111111110011010110
111111111111111010101011
000000000000011001011010
000000000000000100100111
000000000000001010000111
111111111111101110011110
111111111111110001000010
000000000000010000100100
111111111111101111111011
000000000000001111101001
000000000000001100000110
000000000000010001100011
000000000000000011110110
000000000000010110000001
111111111111111001100100
000000000000000011001001
000000000000011000010011
000000000000001001001010
000000000000010010110001
000000000000010000001011
000000000000001110010111
000000000000000001110010
111111111111111000010111
000000000000001101111100
000000000000001100111100
000000000000000011101101
111111111111110000011100
111111111111110111101010
111111111111111010101000
000000000000000000111101
000000000000011111100100
000000000000010010010010
000000000000001110000000
000000000000000111110111
000000000000010001001101
000000000000000100000110
000000000000011100111000
000000000000001101010011
000000000000010110111001
000000000000100000110010
000000000001001011101001
000000000000010101011100
000000000000011001101101
000000000000011011001100
000000000000011101101000
000000000000001001101101
000000000000011100110100
000000000000010101000100
000000000000001100000010
111111111111110010010010
000000000000000101001111
000000000000000110101011
000000000000001000110111
111111111111111011100011
000000000000011011011100
111111111111111111001110
111111111111110001110010
111111111111111011000111
111111111111111000001110
111111111111110101001101
000000000000000100011000
000000000000000110101011
000000000000001110011100
000000000000001101101110
111111111111111110011111
000000000000000110100000
000000000000000010110000
000000000000000100000110
000000000000001101101110
000000000000001010010010
000000000000000001001001
000000000000011010101000
111111111111111111011011
000000000000010001010011
000000000000011010111100
000000000000011010100010
000000000000100001000010
111111111111111000001010
111111111111111101011001
111111111111110000111110
111111111111101000000101
111111111111110101110010
111111111111101001111110
000000000000100001011011
000000000000001110011010
000000000000011000110000
111111111111111110000011
111111111111101110100011
111111111111111001011000
111111111111111001011101
000000000000001001010101
000000000000010100000011
111111111111111100000110
111111111111110000101111
111111111111011100011011
111111111111111011110001
111111111111110011000011
111111111111101011001001
000000000000001111001010
111111111111110010000101
000000000000000111011011
000000000000000000000000
000000000000000000000000
000000000000000000000000
000000000000000000000000
000000000000000000000000
000000000000000000000000
000000000000000000000000
000000000000000000000000
000000000000000000000000
000000000000000000000000
000000000000000000000000
000000000000000000000000
000000000000000000000000
000000000000000000000000
000000000000000000000000
000000000000000000000000
000000000000000000000000
000000000000000000000000
000000000000000000000000
000000000000000000000000
000000000000000000000000
000000000000000000000000
000000000000000000000000
000000000000000000000000
000000000000000000000000
000000000000000000000000
000000000000000000000000
000000000000000000000000
000000000000000000000000
000000000000000000000000
000000000000000000000000
000000000000000000000000
000000000000000000000000
000000000000000000000000
000000000000000000000000
000000000000000000000000
000000000000000000000000
000000000000000000000000
000000000000000000000000
000000000000000000000000
000000000000000000000000
000000000000000000000000
000000000000000000000000
000000000000000000000000
000000000000000000000000
000000000000000000000000
000000000000000000000000
000000000000000000000000
000000000000000000000000
000000000000000000000000
000000000000000000000000
000000000000000000000000
000000000000000000000000
000000000000000000000000
000000000000000000000000
000000000000000000000000
000000000000000000000000
000000000000000000000000
000000000000000000000000
000000000000000000000000
000000000000000000000000
000000000000000000000000
000000000000000000000000
000000000000000000000000
000000000000000000000000
000000000000000000000000
000000000000000000000000
000000000000000000000000
000000000000000000000000
000000000000000000000000
000000000000000000000000
000000000000000000000000
000000000000000000000000
000000000000000000000000
000000000000000000000000
000000000000000000000000
000000000000000000000000
000000000000000000000000
000000000000000000000000
000000000000000000000000
000000000000000000000000
000000000000000000000000
000000000000000000000000
000000000000000000000000
000000000000000000000000
000000000000000000000000
000000000000000000000000
000000000000000000000000
000000000000000000000000
000000000000000000000000
000000000000000000000000
000000000000000000000000
000000000000000000000000
000000000000000000000000
000000000000000000000000
000000000000000000000000
000000000000000000000000
000000000000000000000000
000000000000000000000000
000000000000000000000000
000000000000000000000000
000000000000000000000000
000000000000000000000000
000000000000000000000000
000000000000000000000000
000000000000000000000000
000000000000000000000000
000000000000000000000000
000000000000000000000000
000000000000000000000000
000000000000000000000000
000000000000000000000000
000000000000000000000000
000000000000000000000000
000000000000000000000000
000000000000000000000000
000000000000000000000000
000000000000000000000000
000000000000000000000000
000000000000000000000000
000000000000000000000000
000000000000000000000000
000000000000000000000000
000000000000000000000000
000000000000000000000000
000000000000000000000000
000000000000000000000000
000000000000000000000000
000000000000000000000000
000000000000000000000000
000000000000000000000000
000000000000000000000000
000000000000000000000000
000000000000000000000000
000000000000000000000000
000000000000000000000000
000000000000000000000000
000000000000000000000000
000000000000000000000000
000000000000000000000000
000000000000000000000000
000000000000000000000000
000000000000000000000000
000000000000000000000000
000000000000000000000000
000000000000000000000000
000000000000000000000000
000000000000000000000000
000000000000000000000000
000000000000000000000000
000000000000000000000000
000000000000000000000000
000000000000000000000000
000000000000000000000000
000000000000000000000000
000000000000000000000000
000000000000000000000000
000000000000000000000000
000000000000000000000000
000000000000000000000000
000000000000000000000000
000000000000000000000000
000000000000000000000000
000000000000000000000000
000000000000000000000000
000000000000000000000000
000000000000000000000000
000000000000000000000000
000000000000000000000000
000000000000000000000000
000000000000000000000000
000000000000000000000000
000000000000000000000000
000000000000000000000000
000000000000000000000000
000000000000000000000000
000000000000000000000000
000000000000000000000000
000000000000000000000000
000000000000000000000000
000000000000000000000000
000000000000000000000000
000000000000000000000000
000000000000000000000000
000000000000000000000000
000000000000000000000000
000000000000000000000000
000000000000000000000000
000000000000000000000000
000000000000000000000000
000000000000000000000000
000000000000000000000000
